<unk>	0
<s>	0
</s>	0
▁t	-0
an	-1
▁n	-2
▁k	-3
▁o	-4
▁to	-5
in	-6
▁no	-7
▁s	-8
on	-9
he	-10
▁d	-11
▁w	-12
▁ka	-13
▁m	-14
▁og	-15
▁a	-16
at	-17
ig	-18
go	-19
▁the	-20
bo	-21
ag	-22
ow	-23
is	-24
▁b	-25
ar	-26
▁p	-27
and	-28
al	-29
oy	-30
▁h	-31
re	-32
ou	-33
it	-34
as	-35
▁si	-36
▁l	-37
us	-38
ak	-39
▁mgo	-40
ing	-41
er	-42
ad	-43
im	-44
▁f	-45
or	-46
▁on	-47
ed	-48
ot	-49
om	-50
▁c	-51
es	-52
▁nig	-53
il	-54
▁sik	-55
ang	-56
▁and	-57
aw	-58
am	-59
en	-60
▁r	-61
un	-62
ay	-63
▁of	-64
▁H	-65
ut	-66
▁ogk	-67
▁in	-68
od	-69
▁di	-70
og	-71
▁th	-72
ul	-73
▁y	-74
▁M	-75
▁I	-76
agbo	-77
▁N	-78
▁you	-79
▁be	-80
▁K	-81
ab	-82
▁su	-83
▁din	-84
▁ot	-85
▁he	-86
▁T	-87
▁woy	-88
▁wh	-89
ol	-90
ap	-91
▁otow	-92
▁ig	-93
boot	-94
os	-95
▁ogp	-96
▁S	-97
ve	-98
tu	-99
▁ko	-100
▁i	-101
▁“	-102
▁sikan	-103
▁His	-104
▁du	-105
agboboot	-106
▁ku	-107
▁is	-108
▁Magboboot	-109
▁A	-110
▁dio	-111
awa	-112
ir	-113
▁ta	-114
▁dan	-115
ud	-116
▁g	-117
▁Hisus	-118
ill	-119
ong	-120
▁ki	-121
▁P	-122
▁ni	-123
ok	-124
iu	-125
▁ian	-126
▁D	-127
andin	-128
▁now	-129
el	-130
▁go	-131
▁kon	-132
▁so	-133
aro	-134
et	-135
id	-136
ug	-137
▁al	-138
ur	-139
▁W	-140
▁that	-141
▁pog	-142
angon	-143
▁rin	-144
▁we	-145
▁e	-146
▁will	-147
▁kan	-148
.”	-149
aan	-150
▁do	-151
imu	-152
ac	-153
▁re	-154
▁for	-155
andan	-156
her	-157
▁kono	-158
▁The	-159
le	-160
▁it	-161
▁as	-162
ith	-163
uy	-164
▁G	-165
▁duon	-166
▁J	-167
nangon	-168
▁No	-169
▁not	-170
um	-171
▁him	-172
ib	-173
ic	-174
▁who	-175
oh	-176
ver	-177
yow	-178
▁an	-179
▁oyow	-180
ave	-181
ongo	-182
anan	-183
ent	-184
ik	-185
ini	-186
▁with	-187
▁kow	-188
gi	-189
op	-190
▁L	-191
oon	-192
agi	-193
tuu	-194
ip	-195
▁was	-196
▁B	-197
▁bo	-198
▁waro	-199
▁man	-200
▁ogh	-201
▁they	-202
▁kagi	-203
▁are	-204
kat	-205
uk	-206
▁Di	-207
▁O	-208
ome	-209
▁songo	-210
oun	-211
▁fr	-212
▁have	-213
▁nu	-214
▁his	-215
▁all	-216
ibo	-217
ma	-218
▁ogpak	-219
▁st	-220
ond	-221
igkat	-222
inawa	-223
▁ag	-224
hen	-225
▁goinawa	-226
▁sikandin	-227
ly	-228
▁Ka	-229
up	-230
ers	-231
▁them	-232
ant	-233
uyag	-234
▁sikandan	-235
▁or	-236
ion	-237
▁God	-238
ris	-239
▁kandin	-240
ht	-241
▁Ko	-242
▁kaniu	-243
akol	-244
▁tibo	-245
esus	-246
▁ran	-247
▁from	-248
ung	-249
abo	-250
▁bec	-251
ah	-252
▁pad	-253
▁Jesus	-254
uan	-255
▁me	-256
▁at	-257
all	-258
ld	-259
one	-260
▁pr	-261
▁un	-262
ce	-263
▁"	-264
▁your	-265
▁one	-266
▁ogl	-267
▁soini	-268
aid	-269
▁Og	-270
hing	-271
ord	-272
▁bat	-273
buyag	-274
se	-275
▁mar	-276
use	-277
▁am	-278
alag	-279
▁kin	-280
▁se	-281
▁by	-282
ub	-283
st	-284
▁koy	-285
alo	-286
ven	-287
ain	-288
uw	-289
▁has	-290
▁ch	-291
oyow	-292
▁Nig	-293
▁nok	-294
▁de	-295
▁ro	-296
▁sp	-297
▁Nò	-298
▁igk	-299
▁im	-300
aga	-301
ause	-302
ess	-303
▁this	-304
agboy	-305
ame	-306
▁sh	-307
▁said	-308
ia	-309
▁duma	-310
▁F	-311
▁kandan	-312
ose	-313
ayan	-314
est	-315
▁To	-316
if	-317
lo	-318
bog	-319
▁but	-320
di	-321
▁because	-322
▁Sik	-323
▁C	-324
▁agad	-325
li	-326
ore	-327
ive	-328
▁us	-329
th	-330
▁ogs	-331
▁nigp	-332
▁bal	-333
▁were	-334
ight	-335
▁out	-336
aran	-337
goy	-338
▁An	-339
▁had	-340
▁ogko	-341
▁kal	-342
oug	-343
▁Hud	-344
ch	-345
▁my	-346
so	-347
▁tr	-348
▁up	-349
ta	-350
▁what	-351
▁lo	-352
▁kai	-353
alap	-354
▁br	-355
ind	-356
▁Woy	-357
asan	-358
io	-359
▁ogb	-360
himu	-361
▁Sikan	-362
red	-363
ter	-364
▁noy	-365
oddi	-366
amp	-367
atan	-368
▁Ian	-369
▁pe	-370
ich	-371
uns	-372
ust	-373
ka	-374
▁com	-375
god	-376
other	-377
ell	-378
▁kat	-379
▁por	-380
ct	-381
to	-382
uon	-383
▁j	-384
▁kn	-385
▁dakol	-386
ugp	-387
ard	-388
ake	-389
▁nigk	-390
▁Kagi	-391
▁le	-392
atoy	-393
em	-394
▁there	-395
▁dis	-396
ont	-397
▁when	-398
awan	-399
▁nigtuu	-400
▁When	-401
▁Hudiu	-402
▁allow	-403
▁nat	-404
▁talag	-405
▁pig	-406
▁ne	-407
▁ligkat	-408
▁ogd	-409
inog	-410
▁their	-411
unsud	-412
▁Kris	-413
ves	-414
oson	-415
▁which	-416
▁Kristu	-417
▁[	-418
got	-419
kow	-420
▁oghimu	-421
▁wor	-422
▁nigs	-423
▁Ig	-424
▁pl	-425
▁maroyow	-426
man	-427
very	-428
▁‘	-429
ace	-430
dom	-431
ople	-432
▁imp	-433
▁nigl	-434
ep	-435
▁tu	-436
ound	-437
ould	-438
▁He	-439
ongan	-440
agboka	-441
▁koddi	-442
▁igp	-443
▁lawa	-444
▁people	-445
▁nak	-446
ounawa	-447
▁our	-448
▁kanta	-449
▁tan	-450
▁ogt	-451
ather	-452
angk	-453
own	-454
▁Pog	-455
▁But	-456
▁lit	-457
▁some	-458
▁ogkat	-459
▁Lord	-460
▁lunsud	-461
▁If	-462
▁cr	-463
▁nokoy	-464
▁batasan	-465
ob	-466
▁say	-467
▁pers	-468
ild	-469
ough	-470
▁lagboy	-471
end	-472
ulat	-473
ita	-474
▁gr	-475
▁if	-476
aroot	-477
▁sug	-478
▁abo	-479
awoson	-480
alu	-481
,”	-482
sel	-483
."	-484
▁mat	-485
▁Ch	-486
▁ton	-487
▁Igbuyag	-488
ings	-489
▁nigh	-490
▁pogtuu	-491
unt	-492
▁dod	-493
agad	-494
▁thr	-495
les	-496
anad	-497
▁sin	-498
▁those	-499
rist	-500
?”	-501
▁And	-502
▁ogkoh	-503
ari	-504
bogoy	-505
ago	-506
abay	-507
▁maroot	-508
▁day	-509
▁baloy	-510
▁know	-511
bay	-512
▁Am	-513
utan	-514
▁Christ	-515
▁ad	-516
▁ogkounawa	-517
▁moh	-518
ved	-519
ous	-520
ugu	-521
▁dar	-522
uwa	-523
▁v	-524
▁nigd	-525
▁into	-526
amatoy	-527
▁sagboka	-528
abak	-529
ondio	-530
▁pogk	-531
▁about	-532
▁igbuyag	-533
ibat	-534
▁ogligkat	-535
ro	-536
▁any	-537
▁person	-538
ablo	-539
▁E	-540
▁Pablo	-541
res	-542
reat	-543
▁come	-544
ast	-545
You	-546
▁pin	-547
aranan	-548
ice	-549
untoon	-550
▁For	-551
▁war	-552
agan	-553
agian	-554
uma	-555
▁been	-556
▁her	-557
▁dongan	-558
ulig	-559
▁ar	-560
ist	-561
way	-562
▁Hisu	-563
▁Then	-564
▁other	-565
art	-566
alig	-567
fore	-568
▁boi	-569
qu	-570
ish	-571
irit	-572
low	-573
und	-574
▁ogpok	-575
▁innangon	-576
▁can	-577
ala	-578
ani	-579
ulod	-580
▁tongod	-581
▁Mar	-582
uman	-583
anow	-584
abut	-585
▁hibat	-586
▁oghimuon	-587
▁she	-588
▁did	-589
▁ogm	-590
▁wo	-591
▁ing	-592
ach	-593
▁hou	-594
▁tim	-595
▁(	-596
ike	-597
ked	-598
▁Lagboy	-599
ear	-600
▁ng	-601
▁anak	-602
wo	-603
▁ap	-604
omdom	-605
ibutan	-606
▁koykow	-607
▁kalibutan	-608
▁cl	-609
omet	-610
ontow	-611
ri	-612
ree	-613
▁ogka	-614
▁every	-615
▁hibatoon	-616
agaan	-617
▁litos	-618
oromdom	-619
▁mal	-620
angan	-621
gad	-622
ered	-623
▁came	-624
▁salo	-625
omething	-626
ono	-627
▁poron	-628
▁kuntoon	-629
▁mak	-630
▁They	-631
▁over	-632
▁We	-633
▁again	-634
pan	-635
▁call	-636
ge	-637
▁child	-638
aman	-639
▁tano	-640
ack	-641
▁fa	-642
▁off	-643
▁ogkas	-644
awo	-645
▁ignangon	-646
.’	-647
▁disc	-648
▁something	-649
alim	-650
▁wat	-651
tabak	-652
hed	-653
▁ex	-654
hat	-655
alogot	-656
rn	-657
▁li	-658
amm	-659
ness	-660
▁Bala	-661
▁house	-662
ity	-663
▁So	-664
▁nigb	-665
▁As	-666
▁kinow	-667
▁Balaod	-668
▁went	-669
ry	-670
▁Is	-671
▁con	-672
▁atag	-673
ans	-674
kud	-675
▁sikaniu	-676
▁ur	-677
▁kanak	-678
ew	-679
▁ingk	-680
▁tangk	-681
ouma	-682
ife	-683
ever	-684
▁rep	-685
int	-686
▁mohon	-687
▁ogpakas	-688
ation	-689
iniatan	-690
▁then	-691
ving	-692
▁like	-693
▁hontow	-694
ogp	-695
ipanow	-696
▁through	-697
angnangon	-698
▁luk	-699
ren	-700
angit	-701
▁tal	-702
▁time	-703
▁wr	-704
tuman	-705
ra	-706
agk	-707
ate	-708
ath	-709
aul	-710
▁ac	-711
here	-712
itan	-713
▁see	-714
▁also	-715
ua	-716
ect	-717
▁ear	-718
▁down	-719
imukud	-720
▁tangkaan	-721
▁good	-722
▁kinagian	-723
akup	-724
▁lukos	-725
▁Hir	-726
ff	-727
atu	-728
gob	-729
ise	-730
ouy	-731
itow	-732
▁pul	-733
▁ugp	-734
ile	-735
pen	-736
▁ins	-737
▁sulod	-738
▁someone	-739
self	-740
ful	-741
ick	-742
ood	-743
▁Ab	-744
▁pa	-745
inso	-746
▁hand	-747
▁naan	-748
aven	-749
▁buwa	-750
▁does	-751
▁nan	-752
▁things	-753
ts	-754
wn	-755
ugpo	-756
▁ogkap	-757
der	-758
▁faith	-759
▁tag	-760
▁many	-761
led	-762
uli	-763
▁discip	-764
▁nohimu	-765
bogayan	-766
edro	-767
▁put	-768
▁word	-769
ondanan	-770
ide	-771
abow	-772
▁Pedro	-773
▁In	-774
▁may	-775
ck	-776
ins	-777
▁fi	-778
oi	-779
our	-780
fter	-781
iling	-782
▁Pogk	-783
▁ogtuu	-784
▁porom	-785
▁ngaran	-786
▁mad	-787
▁beli	-788
asulat	-789
▁te	-790
▁soin	-791
▁katondanan	-792
hes	-793
▁You	-794
▁just	-795
▁sika	-796
angnangonon	-797
uanon	-798
▁woig	-799
▁water	-800
▁brother	-801
ulu	-802
▁tell	-803
▁would	-804
▁law	-805
ine	-806
age	-807
▁mo	-808
ted	-809
▁suguanon	-810
▁heaven	-811
▁Gimukud	-812
▁eat	-813
▁hol	-814
▁nas	-815
▁away	-816
abog	-817
onga	-818
▁give	-819
▁right	-820
amanan	-821
ft	-822
olod	-823
ampu	-824
▁Duon	-825
▁rod	-826
▁There	-827
rah	-828
▁ser	-829
uanan	-830
▁nigkagi	-831
bal	-832
his	-833
▁bl	-834
▁kam	-835
dakol	-836
▁taman	-837
dy	-838
▁R	-839
▁dr	-840
▁hap	-841
▁str	-842
▁Huan	-843
▁katamanan	-844
long	-845
ondoi	-846
raham	-847
otawan	-848
▁ugpaan	-849
▁saw	-850
▁kind	-851
▁It	-852
eter	-853
ingaranan	-854
ois	-855
angl	-856
▁Agad	-857
▁Abraham	-858
▁ogkohimu	-859
ost	-860
arag	-861
arago	-862
▁asked	-863
▁before	-864
ink	-865
▁spe	-866
▁great	-867
▁kud	-868
▁ogpan	-869
iz	-870
thing	-871
▁amoy	-872
▁Father	-873
awi	-874
▁ab	-875
▁fe	-876
▁gi	-877
▁nigt	-878
▁nigligkat	-879
uth	-880
▁way	-881
▁Kono	-882
▁disciples	-883
ayo	-884
▁taga	-885
abaybay	-886
are	-887
▁make	-888
ata	-889
▁pre	-890
ie	-891
▁Sp	-892
▁gl	-893
▁ma	-894
alan	-895
ibong	-896
▁Amoy	-897
▁dangob	-898
orn	-899
▁belie	-900
akit	-901
ubad	-902
▁Ogk	-903
▁darua	-904
▁become	-905
omo	-906
▁how	-907
▁Songo	-908
▁called	-909
▁en	-910
▁kid	-911
▁tah	-912
▁made	-913
aponga	-914
▁place	-915
oss	-916
imon	-917
▁bus	-918
▁long	-919
▁ogkoiniatan	-920
ue	-921
ure	-922
oman	-923
oran	-924
▁beg	-925
▁men	-926
▁nataga	-927
▁against	-928
ami	-929
ment	-930
▁langit	-931
read	-932
▁ognangon	-933
▁body	-934
▁oghingaranan	-935
eld	-936
irst	-937
aragas	-938
▁pan	-939
▁life	-940
amminog	-941
▁ang	-942
▁own	-943
▁konò	-944
▁ogkagi	-945
uyu	-946
▁wa	-947
angab	-948
bogan	-949
▁hondoi	-950
▁nighimu	-951
ied	-952
inn	-953
alam	-954
▁kabog	-955
▁where	-956
▁Spirit	-957
▁kabogbogan	-958
▁Pil	-959
▁get	-960
▁kar	-961
▁nigkita	-962
▁U	-963
▁sm	-964
ions	-965
▁bul	-966
▁Paul	-967
▁even	-968
▁than	-969
▁heard	-970
▁another	-971
ite	-972
▁nap	-973
▁ogpa	-974
▁prop	-975
▁ogkab	-976
ll	-977
ongk	-978
▁diò	-979
▁love	-980
▁uromo	-981
sp	-982
▁speak	-983
▁world	-984
ogo	-985
▁na	-986
▁son	-987
▁back	-988
▁king	-989
get	-990
urn	-991
▁acc	-992
▁its	-993
ho	-994
ort	-995
sugu	-996
▁kad	-997
oykow	-998
▁these	-999
▁Nigtabak	-1000
imat	-1001
▁app	-1002
out	-1003
ally	-1004
▁Son	-1005
ass	-1006
▁Jew	-1007
▁more	-1008
▁work	-1009
▁want	-1010
▁whom	-1011
Og	-1012
ahan	-1013
ount	-1014
▁take	-1015
▁ungod	-1016
▁asawa	-1017
▁tahan	-1018
panubad	-1019
▁two	-1020
▁name	-1021
▁only	-1022
otow	-1023
▁let	-1024
▁earth	-1025
▁On	-1026
▁spirit	-1027
▁igbogoy	-1028
agu	-1029
▁co	-1030
▁each	-1031
usalim	-1032
▁sakup	-1033
▁Hirusalim	-1034
mb	-1035
hip	-1036
ling	-1037
wata	-1038
▁comm	-1039
▁busow	-1040
▁ogtuman	-1041
▁pri	-1042
indog	-1043
▁salap	-1044
▁diwata	-1045
oisis	-1046
la	-1047
▁mas	-1048
▁look	-1049
▁Moisis	-1050
▁anyone	-1051
ibuw	-1052
ress	-1053
ollow	-1054
▁sent	-1055
▁bu	-1056
▁des	-1057
selves	-1058
▁father	-1059
▁should	-1060
▁sc	-1061
▁Isra	-1062
ali	-1063
▁sw	-1064
ohoy	-1065
▁tak	-1066
imatayan	-1067
aba	-1068
gether	-1069
▁kanami	-1070
anglitan	-1071
▁together	-1072
abaybayari	-1073
ten	-1074
able	-1075
ised	-1076
▁cont	-1077
▁ogbo	-1078
asindog	-1079
▁used	-1080
emp	-1081
igh	-1082
▁Si	-1083
lied	-1084
▁Man	-1085
▁ent	-1086
ought	-1087
▁dead	-1088
▁teac	-1089
▁dalan	-1090
▁pulus	-1091
▁talagnangon	-1092
?"	-1093
inu	-1094
arge	-1095
▁serv	-1096
puanan	-1097
▁brothers	-1098
▁igkabaybayari	-1099
less	-1100
▁rece	-1101
▁first	-1102
▁priest	-1103
sw	-1104
amb	-1105
ely	-1106
▁Gal	-1107
▁ful	-1108
▁per	-1109
allok	-1110
▁Peter	-1111
▁given	-1112
▁Maroyow	-1113
▁ogkamatoy	-1114
itu	-1115
ayon	-1116
--	-1117
Ka	-1118
▁nab	-1119
▁crow	-1120
▁glor	-1121
▁left	-1122
▁pray	-1123
▁'	-1124
▁bato	-1125
▁head	-1126
▁unawa	-1127
▁follow	-1128
eep	-1129
ught	-1130
antoy	-1131
▁answ	-1132
▁ogpas	-1133
▁replied	-1134
olu	-1135
amul	-1136
anganak	-1137
▁ogbogayan	-1138
ign	-1139
unan	-1140
▁must	-1141
▁warò	-1142
▁after	-1143
▁children	-1144
▁Pogkaponga	-1145
ec	-1146
ated	-1147
okod	-1148
▁Nat	-1149
▁bet	-1150
aroyow	-1151
▁Dakol	-1152
▁among	-1153
▁namatoy	-1154
▁nignangon	-1155
yu	-1156
vil	-1157
awon	-1158
▁mag	-1159
▁pow	-1160
▁gave	-1161
▁hear	-1162
abogayan	-1163
ru	-1164
uch	-1165
alin	-1166
okad	-1167
▁ogkou	-1168
▁salapi	-1169
ies	-1170
ohn	-1171
ump	-1172
amut	-1173
▁inoy	-1174
▁pogd	-1175
▁heart	-1176
ants	-1177
▁bag	-1178
▁rice	-1179
▁same	-1180
▁told	-1181
▁going	-1182
▁woman	-1183
▁nangnangonon	-1184
pl	-1185
the	-1186
ult	-1187
▁ogg	-1188
▁pro	-1189
▁temp	-1190
▁ogkit	-1191
▁ingkasulat	-1192
The	-1193
abin	-1194
ance	-1195
ogot	-1196
usil	-1197
▁igs	-1198
▁tree	-1199
▁around	-1200
▁pinanganak	-1201
ase	-1202
▁ey	-1203
▁ha	-1204
▁qu	-1205
utuk	-1206
▁stand	-1207
▁mother	-1208
▁ogpakat	-1209
de	-1210
▁ob	-1211
▁jud	-1212
▁days	-1213
▁pogp	-1214
▁Satan	-1215
▁himself	-1216
ird	-1217
ism	-1218
iris	-1219
▁Waro	-1220
▁fish	-1221
▁took	-1222
▁being	-1223
▁prophe	-1224
▁nighondio	-1225
lu	-1226
oot	-1227
▁John	-1228
▁very	-1229
▁angel	-1230
▁crowd	-1231
▁under	-1232
hy	-1233
umb	-1234
ting	-1235
urut	-1236
▁car	-1237
▁har	-1238
▁kayu	-1239
▁test	-1240
▁tuud	-1241
▁warad	-1242
ole	-1243
ungan	-1244
▁sund	-1245
til	-1246
ence	-1247
▁Ogp	-1248
▁mog	-1249
▁Koot	-1250
ahallok	-1251
tug	-1252
▁bab	-1253
ouyag	-1254
▁power	-1255
▁dò	-1256
▁po	-1257
▁sl	-1258
olog	-1259
▁Jer	-1260
illed	-1261
unawa	-1262
ara	-1263
▁Ph	-1264
▁ra	-1265
▁cut	-1266
▁res	-1267
▁fell	-1268
▁kingdom	-1269
▁ogbulig	-1270
▁sundalu	-1271
▁ogpaagad	-1272
uit	-1273
ayun	-1274
▁Nigp	-1275
▁batu	-1276
▁Simon	-1277
ongkoran	-1278
▁nigsugu	-1279
▁oghondio	-1280
Ko	-1281
ng	-1282
iru	-1283
oke	-1284
ahin	-1285
alem	-1286
imud	-1287
▁here	-1288
ibuwas	-1289
▁Ampuanan	-1290
▁sikoykow	-1291
uu	-1292
▁ub	-1293
eous	-1294
▁Now	-1295
▁lan	-1296
atolu	-1297
atayon	-1298
▁konad	-1299
▁still	-1300
▁ogpaka	-1301
mon	-1302
ship	-1303
▁bol	-1304
▁hop	-1305
▁pogs	-1306
usalem	-1307
▁ogkal	-1308
▁Jerusalem	-1309
▁kamatayon	-1310
▁talagpanubad	-1311
med	-1312
not	-1313
akoy	-1314
▁pat	-1315
▁mang	-1316
▁believe	-1317
pp	-1318
pt	-1319
irn	-1320
old	-1321
▁gu	-1322
▁writ	-1323
▁field	-1324
▁answered	-1325
gos	-1326
ried	-1327
▁ask	-1328
▁hin	-1329
▁bahin	-1330
▁death	-1331
ial	-1332
abuk	-1333
▁This	-1334
▁live	-1335
▁open	-1336
▁truth	-1337
▁nokouma	-1338
▁ogkoiling	-1339
av	-1340
ila	-1341
uun	-1342
iver	-1343
lood	-1344
▁mou	-1345
▁makas	-1346
anangon	-1347
▁Im	-1348
▁kouy	-1349
▁light	-1350
▁happen	-1351
▁kouyagan	-1352
▁pananglitan	-1353
ey	-1354
onon	-1355
▁bog	-1356
▁Jews	-1357
▁ogkitoon	-1358
alk	-1359
arn	-1360
ayat	-1361
▁yet	-1362
aruma	-1363
▁magaan	-1364
▁ogkoon	-1365
Sik	-1366
gol	-1367
▁el	-1368
ayag	-1369
▁igm	-1370
▁tad	-1371
▁keep	-1372
▁until	-1373
▁everything	-1374
ern	-1375
▁Al	-1376
▁Nok	-1377
▁new	-1378
▁rem	-1379
▁fire	-1380
▁turn	-1381
tle	-1382
▁ay	-1383
iman	-1384
turn	-1385
▁att	-1386
▁don	-1387
▁sal	-1388
akita	-1389
▁batò	-1390
▁clot	-1391
▁nahan	-1392
▁righteous	-1393
apt	-1394
Kono	-1395
agkos	-1396
iniat	-1397
▁found	-1398
▁while	-1399
▁brought	-1400
asow	-1401
▁bas	-1402
▁sub	-1403
▁fall	-1404
▁kuwo	-1405
alugoy	-1406
▁igkas	-1407
▁might	-1408
▁hinimu	-1409
,"	-1410
for	-1411
ason	-1412
oonan	-1413
▁evil	-1414
usilom	-1415
▁Talag	-1416
▁small	-1417
▁Satanas	-1418
ote	-1419
rip	-1420
ized	-1421
ulus	-1422
▁cle	-1423
▁nal	-1424
▁need	-1425
▁tanow	-1426
agkoonan	-1427
▁malogot	-1428
cl	-1429
row	-1430
ders	-1431
ring	-1432
ward	-1433
▁dut	-1434
▁kap	-1435
abayo	-1436
amula	-1437
▁food	-1438
aligan	-1439
bolong	-1440
▁Dokad	-1441
▁Labow	-1442
▁others	-1443
▁doromdom	-1444
▁igkarago	-1445
▁ogkatuman	-1446
agl	-1447
irap	-1448
▁Par	-1449
▁pay	-1450
▁set	-1451
awian	-1452
ohimu	-1453
ampulu	-1454
ba	-1455
rus	-1456
▁Do	-1457
▁il	-1458
▁iam	-1459
▁lea	-1460
innuu	-1461
▁What	-1462
▁such	-1463
▁comes	-1464
▁fruit	-1465
▁glory	-1466
▁nakas	-1467
▁coming	-1468
▁ogpakap	-1469
▁written	-1470
▁ogkabogayan	-1471
▁Nangnangonon	-1472
bol	-1473
ors	-1474
par	-1475
▁sa	-1476
▁ind	-1477
▁nigm	-1478
▁prob	-1479
▁large	-1480
▁return	-1481
▁temple	-1482
▁command	-1483
,’	-1484
uc	-1485
asi	-1486
utism	-1487
▁done	-1488
▁whole	-1489
▁words	-1490
▁nigdinog	-1491
ku	-1492
oin	-1493
isiu	-1494
ying	-1495
asawa	-1496
awang	-1497
ulung	-1498
▁able	-1499
aguant	-1500
▁ogpam	-1501
aglagan	-1502
▁without	-1503
▁ogpokouma	-1504
▁ogpamminog	-1505
irc	-1506
onu	-1507
ways	-1508
▁Jud	-1509
▁bar	-1510
▁end	-1511
▁igl	-1512
atuan	-1513
▁feet	-1514
▁bolad	-1515
▁could	-1516
▁cannot	-1517
▁marani	-1518
▁nokani	-1519
▁Therefore	-1520
▁kalaglagan	-1521
eth	-1522
oice	-1523
oses	-1524
▁exp	-1525
ogpad	-1526
▁high	-1527
▁well	-1528
angabang	-1529
▁nighipanow	-1530
ty	-1531
ary	-1532
him	-1533
▁got	-1534
▁nam	-1535
▁pap	-1536
ongod	-1537
▁chur	-1538
▁corn	-1539
▁part	-1540
bootan	-1541
imanan	-1542
▁always	-1543
▁Parisiu	-1544
we	-1545
ayad	-1546
maan	-1547
▁bon	-1548
▁gat	-1549
▁saying	-1550
ief	-1551
▁Un	-1552
ious	-1553
▁par	-1554
▁After	-1555
▁Maria	-1556
▁never	-1557
▁ogpoh	-1558
▁ogpang	-1559
▁imbogoy	-1560
▁anything	-1561
!”	-1562
fr	-1563
▁Du	-1564
alat	-1565
aled	-1566
▁nud	-1567
insia	-1568
arinog	-1569
▁began	-1570
▁blood	-1571
▁grace	-1572
▁hands	-1573
▁hapuy	-1574
▁daruwa	-1575
▁nothing	-1576
▁hinimuan	-1577
act	-1578
▁Th	-1579
alom	-1580
ambo	-1581
head	-1582
ived	-1583
▁kun	-1584
▁sun	-1585
▁fore	-1586
▁krus	-1587
▁paan	-1588
▁pass	-1589
▁compan	-1590
▁talagb	-1591
▁ogkohoy	-1592
lit	-1593
▁fl	-1594
atong	-1595
ified	-1596
itaga	-1597
uthor	-1598
▁eyes	-1599
▁loin	-1600
▁taken	-1601
ogparan	-1602
▁author	-1603
▁everyone	-1604
▁”	-1605
agp	-1606
agon	-1607
akop	-1608
anak	-1609
gosa	-1610
▁gre	-1611
▁That	-1612
▁judg	-1613
▁much	-1614
▁says	-1615
▁walk	-1616
▁since	-1617
▁ground	-1618
lp	-1619
oly	-1620
tan	-1621
abal	-1622
abas	-1623
▁lim	-1624
▁sol	-1625
▁suff	-1626
dakoli	-1627
▁ogkak	-1628
▁shall	-1629
▁ogkaawo	-1630
▁ogkounawaan	-1631
ogs	-1632
uran	-1633
▁bub	-1634
▁pal	-1635
▁ulu	-1636
ayoon	-1637
▁Anak	-1638
▁ayam	-1639
▁hard	-1640
▁show	-1641
▁drink	-1642
▁think	-1643
buyagon	-1644
▁pogbuyagon	-1645
▁ca	-1646
ject	-1647
unug	-1648
▁mata	-1649
▁Hirod	-1650
▁bring	-1651
▁chick	-1652
▁plant	-1653
angabangan	-1654
abb	-1655
ituk	-1656
tand	-1657
ulug	-1658
▁old	-1659
▁city	-1660
▁lead	-1661
▁sins	-1662
▁three	-1663
andatuan	-1664
▁servant	-1665
▁nigtabak	-1666
uri	-1667
utu	-1668
aban	-1669
abau	-1670
oney	-1671
ther	-1672
▁int	-1673
▁rec	-1674
▁sec	-1675
ongon	-1676
▁Gent	-1677
▁bird	-1678
▁labow	-1679
▁unders	-1680
▁langosa	-1681
].	-1682
bu	-1683
angg	-1684
ears	-1685
▁col	-1686
▁dag	-1687
▁bapt	-1688
▁find	-1689
ondini	-1690
ulatan	-1691
▁karoy	-1692
▁night	-1693
▁tagtu	-1694
▁Israil	-1695
▁living	-1696
ert	-1697
ift	-1698
kos	-1699
▁aw	-1700
abid	-1701
aron	-1702
ibog	-1703
ilia	-1704
omot	-1705
oron	-1706
▁fin	-1707
▁pur	-1708
▁sur	-1709
arise	-1710
ction	-1711
isten	-1712
▁Holy	-1713
▁cons	-1714
▁hari	-1715
▁help	-1716
▁seed	-1717
anayan	-1718
▁manuk	-1719
▁little	-1720
▁Pharise	-1721
▁nigduma	-1722
▁teacher	-1723
▁ogkoumaan	-1724
cy	-1725
ool	-1726
▁sk	-1727
iles	-1728
leep	-1729
spel	-1730
▁sit	-1731
▁dark	-1732
▁pogl	-1733
hondio	-1734
ammatoy	-1735
umaruma	-1736
▁gospel	-1737
▁kinabo	-1738
▁though	-1739
▁sampulu	-1740
▁oglibong	-1741
ana	-1742
hoy	-1743
▁Be	-1744
▁Isa	-1745
agman	-1746
intok	-1747
▁pres	-1748
▁seen	-1749
▁send	-1750
▁sign	-1751
apitow	-1752
▁apost	-1753
▁mouth	-1754
▁sulat	-1755
▁Hirodis	-1756
mp	-1757
bus	-1758
ily	-1759
▁At	-1760
▁red	-1761
ached	-1762
ircum	-1763
▁Kakoy	-1764
▁along	-1765
▁peace	-1766
▁Israel	-1767
▁nigbogayan	-1768
ian	-1769
ible	-1770
vest	-1771
▁rel	-1772
▁hold	-1773
▁prom	-1774
▁wood	-1775
▁Dabid	-1776
▁river	-1777
hipanow	-1778
▁mataga	-1779
▁ogbuyu	-1780
▁ogtumanon	-1781
▁understand	-1782
!"	-1783
.'	-1784
bat	-1785
oud	-1786
uwoy	-1787
▁bur	-1788
▁hon	-1789
agana	-1790
▁else	-1791
▁igko	-1792
▁inst	-1793
▁kill	-1794
▁white	-1795
▁tatolu	-1796
▁ogbogoy	-1797
▁probinsia	-1798
▁yourselves	-1799
oo	-1800
ibu	-1801
ify	-1802
ches	-1803
ited	-1804
▁amp	-1805
▁bit	-1806
▁cur	-1807
▁ple	-1808
irisu	-1809
▁dest	-1810
▁ever	-1811
▁home	-1812
▁near	-1813
▁stay	-1814
▁demon	-1815
▁order	-1816
ohitaga	-1817
▁Langit	-1818
▁Gentiles	-1819
▁bubungan	-1820
▁nammatoy	-1821
▁pogtuman	-1822
▁authority	-1823
po	-1824
als	-1825
ped	-1826
usi	-1827
side	-1828
bayad	-1829
ished	-1830
▁died	-1831
▁mind	-1832
▁rest	-1833
▁side	-1834
alimud	-1835
▁Soini	-1836
▁cross	-1837
▁doing	-1838
▁money	-1839
▁strong	-1840
▁chicken	-1841
▁tagtuun	-1842
▁ogpakasabut	-1843
He	-1844
ee	-1845
ks	-1846
nal	-1847
▁Ag	-1848
ipon	-1849
oken	-1850
▁bre	-1851
asalo	-1852
▁full	-1853
▁holy	-1854
abogoy	-1855
▁seven	-1856
▁Pogsugu	-1857
▁ogpakab	-1858
▁priests	-1859
▁ogkagion	-1860
az	-1861
ged	-1862
▁Ma	-1863
oloy	-1864
▁cat	-1865
▁rat	-1866
ately	-1867
▁hair	-1868
▁nabo	-1869
imatoy	-1870
▁Pharisees	-1871
▁ogkatagaan	-1872
▁nigsasindog	-1873
tur	-1874
▁sn	-1875
▁sy	-1876
olos	-1877
omes	-1878
▁One	-1879
▁use	-1880
▁why	-1881
▁care	-1882
▁land	-1883
▁read	-1884
▁talk	-1885
▁babuy	-1886
▁nigpa	-1887
▁Pilatu	-1888
▁church	-1889
▁ngalap	-1890
▁Galilia	-1891
▁harvest	-1892
▁received	-1893
agt	-1894
iug	-1895
uron	-1896
waro	-1897
▁Mgo	-1898
▁bak	-1899
▁igt	-1900
Buyag	-1901
ogpak	-1902
▁impan	-1903
▁mabog	-1904
▁sound	-1905
▁voice	-1906
▁whose	-1907
▁marusilom	-1908
▁ignangonnangon	-1909
▁ognangonnangon	-1910
ui	-1911
den	-1912
ias	-1913
ons	-1914
Duon	-1915
ipod	-1916
ogow	-1917
uwar	-1918
▁afr	-1919
▁che	-1920
▁hor	-1921
▁won	-1922
agbot	-1923
limud	-1924
▁Saul	-1925
▁conf	-1926
▁sugu	-1927
▁wife	-1928
uligan	-1929
▁mount	-1930
▁afraid	-1931
▁became	-1932
▁mountain	-1933
▁oghipanow	-1934
Man	-1935
elf	-1936
gue	-1937
iah	-1938
aria	-1939
cept	-1940
imul	-1941
▁del	-1942
▁tig	-1943
alang	-1944
amboo	-1945
apuan	-1946
ircumc	-1947
▁Moses	-1948
alagkos	-1949
▁papitu	-1950
▁suffer	-1951
▁ogkataga	-1952
▁makasasalo	-1953
ann	-1954
inp	-1955
amuk	-1956
iend	-1957
▁div	-1958
▁igd	-1959
rison	-1960
▁kaap	-1961
▁ogpo	-1962
ouanan	-1963
▁bogas	-1964
▁clear	-1965
▁leave	-1966
▁Galile	-1967
▁Nataga	-1968
▁friend	-1969
▁manggad	-1970
▁sikoddi	-1971
▁impasulat	-1972
▁ogdoromdom	-1973
▁ogkahallok	-1974
▁pogdoromdom	-1975
ize	-1976
ret	-1977
thy	-1978
▁es	-1979
▁rò	-1980
▁tw	-1981
What	-1982
ohon	-1983
▁Dav	-1984
▁She	-1985
▁Tim	-1986
▁sap	-1987
Sikan	-1988
uonon	-1989
▁diff	-1990
▁town	-1991
▁tuid	-1992
inogow	-1993
▁bread	-1994
▁build	-1995
▁enter	-1996
▁ogpar	-1997
▁reason	-1998
▁receive	-1999
▁sikanta	-2000
▁natagaan	-2001
▁pogkohoy	-2002
▁teaching	-2003
▁pagkoonan	-2004
▁talagbantoy	-2005
▁righteousness	-2006
pa	-2007
abi	-2008
its	-2009
ray	-2010
tub	-2011
abot	-2012
ater	-2013
olom	-2014
▁Kon	-2015
▁Who	-2016
▁lag	-2017
▁vis	-2018
ently	-2019
▁cond	-2020
▁datu	-2021
▁nigg	-2022
▁ubat	-2023
▁ogbay	-2024
▁accord	-2025
▁bamboo	-2026
▁nigpas	-2027
▁raised	-2028
▁Sikandin	-2029
ove	-2030
ual	-2031
ayow	-2032
inum	-2033
▁mer	-2034
▁sac	-2035
aling	-2036
asakit	-2037
▁igkat	-2038
▁known	-2039
▁ogkag	-2040
ansagon	-2041
▁listen	-2042
▁longod	-2043
▁nigpan	-2044
▁anaranan	-2045
▁nigsolod	-2046
▁Nigparagas	-2047
ket	-2048
lin	-2049
oub	-2050
tud	-2051
ute	-2052
▁St	-2053
nago	-2054
plet	-2055
▁Ogb	-2056
▁nor	-2057
▁paa	-2058
▁tre	-2059
Manio	-2060
dinog	-2061
rniru	-2062
▁Mary	-2063
▁Some	-2064
▁pila	-2065
angoni	-2066
utismu	-2067
▁Allow	-2068
▁ahead	-2069
▁chief	-2070
▁creat	-2071
▁igpat	-2072
▁stood	-2073
▁longer	-2074
▁prison	-2075
▁Galilee	-2076
▁karniru	-2077
▁ogsayoon	-2078
▁pogkamatoy	-2079
No	-2080
gu	-2081
xt	-2082
▁Y	-2083
ail	-2084
emb	-2085
ept	-2086
ows	-2087
itos	-2088
okal	-2089
ulin	-2090
▁Sam	-2091
▁Sil	-2092
▁dec	-2093
▁die	-2094
▁hom	-2095
▁too	-2096
▁Nigk	-2097
▁boni	-2098
▁ones	-2099
▁Hudia	-2100
▁forgi	-2101
maroyow	-2102
▁synago	-2103
abansagon	-2104
▁pinabayo	-2105
▁prophets	-2106
▁pandatuan	-2107
Do	-2108
ced	-2109
ram	-2110
Lord	-2111
aced	-2112
▁Ogs	-2113
▁hus	-2114
▁joy	-2115
▁ref	-2116
▁wom	-2117
aanad	-2118
awoon	-2119
umaan	-2120
▁dist	-2121
▁feel	-2122
▁kudd	-2123
▁proc	-2124
▁blind	-2125
▁horse	-2126
▁nokoh	-2127
▁ogman	-2128
▁worship	-2129
▁judgment	-2130
▁pinamula	-2131
▁suguonon	-2132
▁teachers	-2133
▁katouanan	-2134
ned	-2135
ook	-2136
This	-2137
ider	-2138
ient	-2139
ogil	-2140
rent	-2141
uloy	-2142
▁Dio	-2143
▁Eli	-2144
▁beh	-2145
▁nik	-2146
aralu	-2147
aroog	-2148
intal	-2149
▁Husi	-2150
▁hope	-2151
▁last	-2152
▁pigs	-2153
▁poss	-2154
isters	-2155
▁homoy	-2156
▁sleep	-2157
aguanta	-2158
▁hearts	-2159
▁leaves	-2160
▁ogkabo	-2161
▁ogdinog	-2162
▁prophet	-2163
▁pogkouyag	-2164
ces	-2165
ery	-2166
mun	-2167
rif	-2168
lesh	-2169
ning	-2170
oint	-2171
onia	-2172
ture	-2173
ween	-2174
▁bad	-2175
▁ban	-2176
▁kaw	-2177
akagi	-2178
baloy	-2179
ready	-2180
▁moon	-2181
▁vill	-2182
abutud	-2183
▁boast	-2184
▁igkar	-2185
▁lives	-2186
▁young	-2187
abayaan	-2188
▁appear	-2189
▁mohuri	-2190
▁already	-2191
▁pighimu	-2192
▁whoever	-2193
▁apostles	-2194
▁happened	-2195
▁magintal	-2196
▁nignangonan	-2197
If	-2198
ph	-2199
ayi	-2200
ina	-2201
rew	-2202
band	-2203
▁All	-2204
▁Her	-2205
▁enc	-2206
▁mah	-2207
▁wit	-2208
undul	-2209
▁burn	-2210
▁fulf	-2211
▁move	-2212
▁vine	-2213
▁Hudas	-2214
▁ampow	-2215
▁flesh	-2216
▁lituk	-2217
▁manio	-2218
▁short	-2219
▁angels	-2220
▁lagkos	-2221
▁masakit	-2222
▁ogpakal	-2223
▁sikanak	-2224
▁indakoli	-2225
▁whatever	-2226
ea	-2227
ms	-2228
Nig	-2229
irth	-2230
▁Kap	-2231
▁gen	-2232
▁pie	-2233
ience	-2234
istru	-2235
▁once	-2236
▁tanò	-2237
▁ulod	-2238
▁break	-2239
▁doesn	-2240
▁eating	-2241
▁insugu	-2242
▁sacrif	-2243
▁complet	-2244
▁nighing	-2245
▁sisters	-2246
▁dakoldakol	-2247
▁ogkasaligan	-2248
▁innangonnangon	-2249
So	-2250
Nok	-2251
ams	-2252
eal	-2253
eds	-2254
apun	-2255
ince	-2256
lect	-2257
▁Ant	-2258
▁add	-2259
▁eld	-2260
▁sat	-2261
▁sil	-2262
ledge	-2263
▁four	-2264
▁mess	-2265
▁numb	-2266
▁step	-2267
▁trap	-2268
ention	-2269
▁David	-2270
▁dagat	-2271
▁women	-2272
▁elders	-2273
▁making	-2274
▁spread	-2275
▁between	-2276
▁nabutud	-2277
▁believed	-2278
▁speaking	-2279
▁Ogkounawa	-2280
▁ogpakasalo	-2281
elc	-2282
ire	-2283
iss	-2284
mor	-2285
▁Ca	-2286
amag	-2287
amot	-2288
ents	-2289
rest	-2290
▁lam	-2291
▁opp	-2292
allow	-2293
aning	-2294
▁born	-2295
▁dalu	-2296
▁eter	-2297
▁fear	-2298
▁ogma	-2299
▁rema	-2300
▁true	-2301
agtong	-2302
munaan	-2303
okoron	-2304
▁Oghim	-2305
▁kamot	-2306
▁thing	-2307
▁balutu	-2308
inpinnuu	-2309
▁standing	-2310
▁ogkoiniat	-2311
▁themselves	-2312
▁magintalunan	-2313
▁ogkapangabangan	-2314
buk	-2315
oll	-2316
roy	-2317
ahud	-2318
alit	-2319
aluk	-2320
ased	-2321
▁Let	-2322
▁inv	-2323
▁lay	-2324
▁map	-2325
arani	-2326
▁anim	-2327
▁both	-2328
▁dece	-2329
▁kona	-2330
▁nasi	-2331
▁next	-2332
▁rain	-2333
▁weak	-2334
▁wind	-2335
asabut	-2336
itukan	-2337
▁bulan	-2338
▁mercy	-2339
▁ogtal	-2340
▁quick	-2341
uwarong	-2342
▁belong	-2343
▁eternal	-2344
aroromdom	-2345
▁ogkarago	-2346
▁Oghimoloy	-2347
▁kalitukan	-2348
00	-2349
alf	-2350
ars	-2351
igu	-2352
uwan	-2353
▁Sis	-2354
▁igb	-2355
▁unc	-2356
▁wis	-2357
Nokoy	-2358
goloy	-2359
▁arri	-2360
▁cour	-2361
▁oggo	-2362
▁requ	-2363
▁stop	-2364
▁welc	-2365
inning	-2366
▁buyag	-2367
▁igpan	-2368
▁ogpal	-2369
▁ogpat	-2370
▁spear	-2371
▁teach	-2372
▁having	-2373
▁looked	-2374
▁maawang	-2375
▁present	-2376
▁iglogpad	-2377
▁koiniatan	-2378
▁nigkagian	-2379
abaybayaran	-2380
▁oghimatayan	-2381
of	-2382
aim	-2383
bul	-2384
gow	-2385
▁Sc	-2386
▁ed	-2387
awos	-2388
cend	-2389
elve	-2390
ondi	-2391
ubat	-2392
▁act	-2393
▁ill	-2394
▁mir	-2395
essed	-2396
imony	-2397
ition	-2398
▁Sabb	-2399
▁char	-2400
▁resp	-2401
▁reve	-2402
▁usig	-2403
▁Herod	-2404
▁carry	-2405
▁gener	-2406
▁human	-2407
▁spoke	-2408
▁stone	-2409
Malogot	-2410
▁agoloy	-2411
▁fellow	-2412
▁ogpoko	-2413
▁Sabbath	-2414
▁circumc	-2415
▁clothes	-2416
▁outside	-2417
▁village	-2418
▁followed	-2419
▁ogkasayo	-2420
▁pogpitow	-2421
▁yourself	-2422
▁ogparagas	-2423
▁ogdoromdomon	-2424
Why	-2425
arò	-2426
irm	-2427
uly	-2428
ided	-2429
loin	-2430
▁Kas	-2431
▁fam	-2432
▁flo	-2433
▁hur	-2434
▁min	-2435
▁pra	-2436
ither	-2437
omonu	-2438
▁Konò	-2439
▁Ruma	-2440
▁enem	-2441
▁kept	-2442
▁shar	-2443
▁tali	-2444
ertain	-2445
umanon	-2446
▁Nokoy	-2447
▁barku	-2448
▁claim	-2449
▁count	-2450
▁lalim	-2451
▁means	-2452
▁healed	-2453
▁wisdom	-2454
▁husband	-2455
▁ogkaayun	-2456
▁servants	-2457
▁beginning	-2458
▁testimony	-2459
▁nigparagas	-2460
It	-2461
agd	-2462
irl	-2463
ogd	-2464
oka	-2465
rom	-2466
▁ip	-2467
ched	-2468
opot	-2469
used	-2470
▁How	-2471
▁Nas	-2472
▁far	-2473
▁kab	-2474
▁sea	-2475
▁whe	-2476
ement	-2477
▁boat	-2478
▁deep	-2479
▁goes	-2480
▁hung	-2481
▁sick	-2482
▁sing	-2483
▁wild	-2484
alagad	-2485
ibogan	-2486
▁birth	-2487
▁mariu	-2488
umbaloy	-2489
▁rattan	-2490
▁nounawa	-2491
▁baptized	-2492
▁ogboboot	-2493
longbolong	-2494
▁ognangonan	-2495
aru	-2496
ilk	-2497
ulì	-2498
▁Ad	-2499
▁Ep	-2500
▁ba	-2501
awod	-2502
hile	-2503
igus	-2504
ison	-2505
▁kas	-2506
▁mon	-2507
▁pus	-2508
▁scr	-2509
▁wid	-2510
hered	-2511
▁Pogp	-2512
▁baby	-2513
▁foot	-2514
▁free	-2515
insaan	-2516
▁judge	-2517
▁magal	-2518
▁trans	-2519
▁trave	-2520
abantug	-2521
▁Pilate	-2522
▁malasi	-2523
nangonan	-2524
▁destroy	-2525
▁looking	-2526
▁oghutuk	-2527
▁nabawian	-2528
We	-2529
],	-2530
hud	-2531
ipi	-2532
ori	-2533
oul	-2534
uti	-2535
Waro	-2536
akow	-2537
awoy	-2538
iled	-2539
ired	-2540
ives	-2541
laim	-2542
▁dir	-2543
▁dry	-2544
▁lot	-2545
▁rul	-2546
▁Even	-2547
▁supp	-2548
ressed	-2549
umawan	-2550
▁Tahan	-2551
▁ogbuy	-2552
▁third	-2553
ibulung	-2554
▁Ligkat	-2555
▁inotow	-2556
▁turned	-2557
▁Malogot	-2558
▁collect	-2559
▁kalamag	-2560
▁spirits	-2561
▁faithful	-2562
▁returned	-2563
▁according	-2564
▁ogbuligan	-2565
▁ogpakanangon	-2566
iv	-2567
las	-2568
ugs	-2569
wan	-2570
▁mi	-2571
abod	-2572
apan	-2573
ense	-2574
opow	-2575
reng	-2576
ungg	-2577
▁buy	-2578
▁gob	-2579
▁hil	-2580
▁inc	-2581
▁lob	-2582
▁met	-2583
▁pub	-2584
icked	-2585
tubad	-2586
▁Birn	-2587
▁Caes	-2588
▁gold	-2589
▁obey	-2590
▁real	-2591
▁tomb	-2592
ahuron	-2593
ulusan	-2594
▁guard	-2595
▁learn	-2596
▁nakat	-2597
▁offer	-2598
▁saved	-2599
▁sight	-2600
▁times	-2601
▁treat	-2602
▁write	-2603
unganan	-2604
▁encour	-2605
▁number	-2606
▁rememb	-2607
▁second	-2608
▁throne	-2609
▁uripon	-2610
▁Omunaan	-2611
▁ogpokoh	-2612
▁poghimu	-2613
▁darkness	-2614
▁mabogbog	-2615
▁magaliug	-2616
▁ogkouyag	-2617
▁companion	-2618
▁karoyawon	-2619
▁ogdinogon	-2620
nu	-2621
ze	-2622
igg	-2623
ner	-2624
ron	-2625
she	-2626
som	-2627
zed	-2628
▁Pr	-2629
▁da	-2630
isok	-2631
medi	-2632
▁Don	-2633
▁Mat	-2634
▁dog	-2635
▁god	-2636
▁reg	-2637
▁pant	-2638
▁play	-2639
ansang	-2640
imulan	-2641
ongaan	-2642
▁Silas	-2643
▁catch	-2644
▁layag	-2645
▁ogsim	-2646
▁pogko	-2647
▁sheep	-2648
akitaan	-2649
indanan	-2650
▁killed	-2651
▁persec	-2652
▁streng	-2653
amalogot	-2654
▁malayat	-2655
▁ogdakol	-2656
▁inumanon	-2657
▁nasagboka	-2658
▁Talagpanubad	-2659
▁nighingaranan	-2660
▁1	-2661
ayl	-2662
ead	-2663
uck	-2664
▁My	-2665
▁ul	-2666
Agad	-2667
ames	-2668
igad	-2669
rect	-2670
usta	-2671
▁Nak	-2672
▁dep	-2673
▁mur	-2674
ained	-2675
dered	-2676
▁five	-2677
▁meet	-2678
▁perf	-2679
bayung	-2680
lessed	-2681
▁Saulo	-2682
▁appro	-2683
▁gatus	-2684
▁kuddò	-2685
▁mirac	-2686
▁named	-2687
▁point	-2688
▁stick	-2689
▁years	-2690
▁demons	-2691
▁filled	-2692
▁gobirn	-2693
▁spoken	-2694
▁certain	-2695
▁nalimud	-2696
▁nigbuyu	-2697
akoldakol	-2698
▁igmalogot	-2699
▁companions	-2700
▁ogbobootan	-2701
?’	-2702
▁Z	-2703
Who	-2704
ane	-2705
mit	-2706
▁Ap	-2707
▁id	-2708
ened	-2709
ikot	-2710
▁Pig	-2711
▁buk	-2712
▁bun	-2713
▁eye	-2714
▁fal	-2715
▁inh	-2716
▁lap	-2717
▁pun	-2718
▁rio	-2719
▁squ	-2720
▁tib	-2721
▁tin	-2722
ffect	-2723
ially	-2724
irogo	-2725
onuon	-2726
▁bear	-2727
▁comp	-2728
▁dini	-2729
▁face	-2730
▁gift	-2731
▁igpa	-2732
▁wait	-2733
▁wine	-2734
awayan	-2735
ousand	-2736
spring	-2737
umusta	-2738
▁Scrip	-2739
▁amana	-2740
▁contr	-2741
▁honor	-2742
▁oghun	-2743
▁pinnu	-2744
▁basket	-2745
▁condem	-2746
▁koonon	-2747
▁master	-2748
▁myself	-2749
▁prepar	-2750
▁Birnabi	-2751
▁witness	-2752
aguantoon	-2753
mediately	-2754
▁appeared	-2755
▁believer	-2756
▁ogmonuon	-2757
▁thousand	-2758
▁Pagkoonan	-2759
▁nabogayan	-2760
▁ogtokoron	-2761
▁synagogue	-2762
▁ogkalogparan	-2763
).	-2764
gg	-2765
no	-2766
ips	-2767
per	-2768
agbu	-2769
apid	-2770
ates	-2771
gues	-2772
iago	-2773
ites	-2774
umow	-2775
▁Pas	-2776
▁pil	-2777
▁pot	-2778
▁sak	-2779
▁ten	-2780
Soini	-2781
abung	-2782
ision	-2783
▁Phil	-2784
▁Sant	-2785
▁Tibo	-2786
▁grow	-2787
▁tinu	-2788
alukuy	-2789
ampuan	-2790
▁Those	-2791
▁apart	-2792
▁gives	-2793
▁loved	-2794
▁nigbo	-2795
▁oghil	-2796
▁ogsug	-2797
▁start	-2798
▁opened	-2799
▁remain	-2800
▁repent	-2801
▁Sikaniu	-2802
▁carried	-2803
▁friends	-2804
▁gumawan	-2805
▁tinuuan	-2806
imudlimud	-2807
▁Santiago	-2808
▁napirisu	-2809
▁taliwaro	-2810
▁offspring	-2811
▁ogligkatan	-2812
awò	-2813
ros	-2814
aces	-2815
ices	-2816
osen	-2817
oteo	-2818
ugan	-2819
▁deb	-2820
▁mab	-2821
▁stu	-2822
hatod	-2823
▁Asia	-2824
▁fast	-2825
▁fing	-2826
▁knew	-2827
▁ugpa	-2828
ologan	-2829
▁Judas	-2830
▁Judea	-2831
▁Maamb	-2832
▁Mohon	-2833
▁lanow	-2834
▁libuw	-2835
▁makes	-2836
▁ogsil	-2837
▁samuk	-2838
▁solod	-2839
▁betray	-2840
▁narago	-2841
▁thrown	-2842
▁Timoteo	-2843
▁country	-2844
▁indanan	-2845
▁meaning	-2846
▁message	-2847
▁talabau	-2848
▁talking	-2849
bolonganan	-2850
▁Kasulatan	-2851
▁attention	-2852
▁knowledge	-2853
▁libuwasan	-2854
▁ogpakatood	-2855
▁ogkabuligan	-2856
▁ogpakalagkos	-2857
▁ogpohimatayan	-2858
),	-2859
Nò	-2860
aa	-2861
ek	-2862
ban	-2863
bas	-2864
day	-2865
ict	-2866
iok	-2867
lap	-2868
pas	-2869
▁By	-2870
▁la	-2871
▁ut	-2872
ains	-2873
azar	-2874
ibut	-2875
inga	-2876
init	-2877
ogon	-2878
ogos	-2879
onod	-2880
reet	-2881
▁Pan	-2882
▁Sak	-2883
▁ago	-2884
▁bok	-2885
▁lin	-2886
▁nag	-2887
▁tab	-2888
fully	-2889
untud	-2890
▁diad	-2891
▁inso	-2892
▁pang	-2893
▁prov	-2894
▁rich	-2895
▁sand	-2896
▁save	-2897
▁slow	-2898
▁soon	-2899
aching	-2900
ecause	-2901
itawon	-2902
raight	-2903
udling	-2904
undred	-2905
▁ogmal	-2906
▁piris	-2907
rection	-2908
umpalit	-2909
▁Ogbuyu	-2910
▁better	-2911
▁plants	-2912
utismuan	-2913
▁arrived	-2914
▁entered	-2915
▁gimukud	-2916
▁married	-2917
▁ogsagman	-2918
▁proclaim	-2919
▁igkasasow	-2920
▁ogkabayaan	-2921
▁ogkakitaan	-2922
▁ogpakakagi	-2923
▁ogpakabulig	-2924
▁ogkabaybayaran	-2925
oe	-2926
Ogk	-2927
ade	-2928
ags	-2929
hon	-2930
vor	-2931
wak	-2932
▁Ar	-2933
iban	-2934
pang	-2935
ruct	-2936
▁Dam	-2937
▁Ogt	-2938
▁Yet	-2939
▁ama	-2940
▁asu	-2941
▁exc	-2942
agpas	-2943
angko	-2944
araat	-2945
▁bala	-2946
▁firm	-2947
▁flow	-2948
▁girl	-2949
▁gone	-2950
▁hour	-2951
▁koot	-2952
▁libu	-2953
▁maga	-2954
▁ogtu	-2955
▁pogt	-2956
▁root	-2957
▁self	-2958
▁alive	-2959
▁beast	-2960
▁greet	-2961
▁inter	-2962
▁share	-2963
▁soldi	-2964
▁visit	-2965
▁Philip	-2966
▁Pilipi	-2967
▁behind	-2968
▁charge	-2969
▁igsayo	-2970
▁inside	-2971
▁ogduma	-2972
▁bulawan	-2973
▁descend	-2974
▁greater	-2975
▁hundred	-2976
▁nigpuun	-2977
▁ogkatou	-2978
▁pogboot	-2979
▁thought	-2980
▁Maambago	-2981
▁Pogdinog	-2982
▁mabantug	-2983
▁matuwarong	-2984
▁ogpakakita	-2985
▁pinnuuanan	-2986
by	-2987
ga	-2988
ya	-2989
.’”	-2990
aum	-2991
bor	-2992
ere	-2993
vel	-2994
▁vi	-2995
ador	-2996
angu	-2997
aras	-2998
ests	-2999
ibot	-3000
ugpò	-3001
ulak	-3002
ures	-3003
▁Bar	-3004
▁Mas	-3005
▁bot	-3006
▁dii	-3007
▁esp	-3008
▁kil	-3009
▁leg	-3010
▁noh	-3011
▁sex	-3012
▁tub	-3013
manuk	-3014
▁Mess	-3015
▁area	-3016
▁cook	-3017
▁ogli	-3018
▁rele	-3019
▁rock	-3020
▁stom	-3021
aparan	-3022
ongkod	-3023
▁Buyag	-3024
▁James	-3025
▁These	-3026
▁ready	-3027
▁trust	-3028
bayaran	-3029
▁Jewish	-3030
▁caught	-3031
▁nouyag	-3032
▁Messiah	-3033
▁Samaria	-3034
▁Whoever	-3035
▁becomes	-3036
▁continu	-3037
▁Pogpitow	-3038
▁igpohimu	-3039
▁malintok	-3040
▁nakakita	-3041
▁pirisuan	-3042
▁preached	-3043
▁poglibong	-3044
▁manukmanuk	-3045
▁nalibulung	-3046
Go	-3047
be	-3048
gk	-3049
But	-3050
app	-3051
bed	-3052
ech	-3053
ibi	-3054
ili	-3055
ilt	-3056
ira	-3057
let	-3058
ora	-3059
aniu	-3060
boon	-3061
ires	-3062
osed	-3063
ubla	-3064
usan	-3065
wise	-3066
▁Not	-3067
▁Pis	-3068
▁anc	-3069
▁arr	-3070
▁bay	-3071
▁kak	-3072
▁mam	-3073
▁nar	-3074
amsam	-3075
anias	-3076
oseph	-3077
▁Just	-3078
▁decl	-3079
▁didn	-3080
▁door	-3081
▁ears	-3082
▁fool	-3083
▁lamp	-3084
▁loud	-3085
▁nati	-3086
▁news	-3087
▁poor	-3088
▁skin	-3089
▁soil	-3090
▁surp	-3091
▁bound	-3092
▁buhis	-3093
▁close	-3094
▁diffe	-3095
▁nakit	-3096
▁ogtin	-3097
▁serve	-3098
▁teeth	-3099
▁throw	-3100
▁troub	-3101
▁watch	-3102
▁except	-3103
▁Nigkagi	-3104
▁kapitan	-3105
▁malopot	-3106
▁nokohun	-3107
▁oglitos	-3108
▁ogpakar	-3109
▁ogsolod	-3110
▁pigsugu	-3111
▁gathered	-3112
▁promised	-3113
▁relation	-3114
▁straight	-3115
▁niglibong	-3116
▁kapunganan	-3117
▁madmaroyow	-3118
Ma	-3119
air	-3120
ash	-3121
key	-3122
ogk	-3123
oko	-3124
ush	-3125
uss	-3126
▁Sh	-3127
▁em	-3128
▁lu	-3129
▁ol	-3130
ared	-3131
mana	-3132
ners	-3133
race	-3134
usoy	-3135
▁Ist	-3136
▁bow	-3137
▁def	-3138
▁hid	-3139
▁mol	-3140
▁pam	-3141
▁run	-3142
▁tax	-3143
allag	-3144
asing	-3145
atang	-3146
hutuk	-3147
round	-3148
▁Nigs	-3149
▁Warò	-3150
▁cruc	-3151
▁half	-3152
▁ilis	-3153
▁lake	-3154
▁palm	-3155
▁purp	-3156
▁raid	-3157
▁tago	-3158
▁year	-3159
agaran	-3160
inuinu	-3161
ughter	-3162
▁Every	-3163
▁alone	-3164
▁chang	-3165
▁false	-3166
▁sabut	-3167
▁signs	-3168
▁wrong	-3169
Maistru	-3170
ecially	-3171
unsuran	-3172
▁Joseph	-3173
▁commit	-3174
▁confid	-3175
▁expect	-3176
▁perfor	-3177
▁Kuntoon	-3178
▁impanoy	-3179
▁malugoy	-3180
▁nahallok	-3181
▁soldiers	-3182
▁impapitow	-3183
▁nanhondio	-3184
▁ogtahuron	-3185
▁ourselves	-3186
▁generation	-3187
▁ogpangasawa	-3188
cr	-3189
ls	-3190
ene	-3191
gat	-3192
min	-3193
ogn	-3194
tom	-3195
abat	-3196
ages	-3197
apad	-3198
arch	-3199
hold	-3200
inue	-3201
irob	-3202
ored	-3203
that	-3204
ulid	-3205
vers	-3206
vert	-3207
▁ast	-3208
▁den	-3209
▁ign	-3210
▁spr	-3211
▁ter	-3212
acher	-3213
ampow	-3214
angho	-3215
arias	-3216
iness	-3217
iokia	-3218
irapi	-3219
ument	-3220
▁Barn	-3221
▁From	-3222
▁With	-3223
▁bolo	-3224
▁dear	-3225
▁lost	-3226
▁path	-3227
▁touc	-3228
▁ubas	-3229
apuloy	-3230
▁Damas	-3231
▁While	-3232
▁breat	-3233
▁deser	-3234
▁mahal	-3235
▁nohoy	-3236
▁trees	-3237
aligsom	-3238
ongonan	-3239
▁chosen	-3240
▁finish	-3241
▁igkabo	-3242
▁nigbay	-3243
▁passed	-3244
▁unless	-3245
▁wicked	-3246
bautismu	-3247
▁igtubad	-3248
▁kawanan	-3249
▁lalimma	-3250
▁maagbot	-3251
▁malison	-3252
▁sitting	-3253
▁stomach	-3254
▁talinga	-3255
▁Antiokia	-3256
▁Barnabas	-3257
▁forgiven	-3258
▁nakitaan	-3259
▁nigbogoy	-3260
▁ogbuyuon	-3261
▁persecut	-3262
▁ogpasakup	-3263
▁especially	-3264
▁igkatatolu	-3265
▁niglibuwas	-3266
▁nigbabansagon	-3267
..	-3268
??	-3269
asa	-3270
hem	-3271
hol	-3272
ior	-3273
law	-3274
ude	-3275
▁ik	-3276
▁ve	-3277
aani	-3278
alow	-3279
aloy	-3280
aylu	-3281
bung	-3282
cern	-3283
dies	-3284
hich	-3285
igal	-3286
okow	-3287
ouli	-3288
ured	-3289
usig	-3290
uyud	-3291
uyun	-3292
▁Any	-3293
▁bin	-3294
▁cam	-3295
▁fre	-3296
▁kog	-3297
▁lig	-3298
▁loc	-3299
▁tam	-3300
▁tok	-3301
akoon	-3302
ality	-3303
galat	-3304
hipto	-3305
ordan	-3306
ungag	-3307
▁Kind	-3308
▁Ogko	-3309
▁book	-3310
▁chew	-3311
▁laid	-3312
▁monu	-3313
▁ogng	-3314
▁raft	-3315
▁trib	-3316
Hontow	-3317
ayaran	-3318
vation	-3319
▁Manio	-3320
▁Ogpak	-3321
▁aside	-3322
▁black	-3323
▁calls	-3324
▁devil	-3325
▁front	-3326
▁inher	-3327
▁labot	-3328
▁langl	-3329
▁loves	-3330
▁nokog	-3331
▁ogmar	-3332
▁ought	-3333
allaguy	-3334
▁Ehipto	-3335
▁broken	-3336
▁bulbul	-3337
▁enough	-3338
▁family	-3339
▁hungry	-3340
▁limang	-3341
▁stayed	-3342
▁thanks	-3343
▁diralom	-3344
▁igkohoy	-3345
▁nangoni	-3346
▁nations	-3347
▁subject	-3348
▁whether	-3349
▁Pogkouma	-3350
▁Sakarias	-3351
▁consider	-3352
▁langlang	-3353
▁nikandin	-3354
▁ogpasayl	-3355
▁ogpoomot	-3356
▁believers	-3357
▁nakarinog	-3358
▁ogkootawan	-3359
▁oglogparan	-3360
.)	-3361
Am	-3362
An	-3363
na	-3364
How	-3365
arc	-3366
bel	-3367
hog	-3368
ima	-3369
lic	-3370
now	-3371
uce	-3372
▁pi	-3373
abit	-3374
alab	-3375
ifts	-3376
ones	-3377
ruly	-3378
ugun	-3379
▁cor	-3380
▁esc	-3381
▁ink	-3382
▁kom	-3383
▁mid	-3384
apawo	-3385
erial	-3386
icult	-3387
ister	-3388
ounug	-3389
outed	-3390
suman	-3391
ustom	-3392
▁Nigd	-3393
▁agre	-3394
▁bali	-3395
▁fact	-3396
▁held	-3397
▁pick	-3398
▁pigk	-3399
▁sake	-3400
abutan	-3401
ahalin	-3402
orning	-3403
▁Agrip	-3404
▁coven	-3405
▁deeds	-3406
▁kakoy	-3407
▁later	-3408
▁naawo	-3409
▁amazed	-3410
▁ancest	-3411
▁gather	-3412
▁nigpat	-3413
▁ubaton	-3414
▁wanted	-3415
▁worthy	-3416
▁Istiban	-3417
▁account	-3418
▁appoint	-3419
▁concern	-3420
▁discuss	-3421
▁igtabak	-3422
▁ogpitow	-3423
▁quickly	-3424
▁respect	-3425
▁surpris	-3426
▁walking	-3427
autismuan	-3428
▁ampuanan	-3429
▁continue	-3430
▁disciple	-3431
▁katagaan	-3432
▁ogkagian	-3433
▁different	-3434
▁difficult	-3435
▁nigpaagad	-3436
▁ogkapurut	-3437
▁ogkasipod	-3438
▁igpohitaga	-3439
▁impohitaga	-3440
▁ogkasagboka	-3441
▁nighimatayan	-3442
pe	-3443
ape	-3444
ayu	-3445
but	-3446
lot	-3447
oup	-3448
unk	-3449
unu	-3450
▁El	-3451
arit	-3452
atuk	-3453
deed	-3454
ical	-3455
ines	-3456
ipag	-3457
ters	-3458
then	-3459
tion	-3460
unon	-3461
▁Law	-3462
▁dil	-3463
▁led	-3464
▁mot	-3465
▁pas	-3466
▁tip	-3467
antan	-3468
ikang	-3469
ogsad	-3470
ougpo	-3471
sover	-3472
▁Karn	-3473
▁baad	-3474
▁beat	-3475
▁inat	-3476
akopon	-3477
libong	-3478
rother	-3479
ulibot	-3480
▁Ungod	-3481
▁cloud	-3482
▁knows	-3483
▁lived	-3484
▁ogkam	-3485
atongan	-3486
▁awoson	-3487
▁bituon	-3488
▁igsugu	-3489
▁ilawan	-3490
▁pantad	-3491
▁prayer	-3492
▁recogn	-3493
▁reject	-3494
▁speaks	-3495
▁taught	-3496
▁tigbal	-3497
▁toward	-3498
alamatan	-3499
iboganon	-3500
ihipanow	-3501
▁Ananias	-3502
▁Karniru	-3503
▁forever	-3504
▁igbayad	-3505
▁natuman	-3506
▁oggoram	-3507
▁ordered	-3508
▁parable	-3509
urrection	-3510
▁Passover	-3511
▁finished	-3512
▁material	-3513
▁ogkakoon	-3514
▁pogsalig	-3515
▁remember	-3516
▁taguanan	-3517
▁Liboganon	-3518
▁fulfilled	-3519
▁makasabut	-3520
▁nigdaralu	-3521
▁circumcised	-3522
▁ogpakasolod	-3523
▁ogparakoldakol	-3524
gl	-3525
gy	-3526
ss	-3527
Don	-3528
aps	-3529
isi	-3530
ius	-3531
jah	-3532
pon	-3533
rup	-3534
tuk	-3535
wor	-3536
▁hy	-3537
abol	-3538
akub	-3539
alad	-3540
alik	-3541
atch	-3542
born	-3543
enty	-3544
oban	-3545
okot	-3546
omut	-3547
otoy	-3548
ouse	-3549
ungk	-3550
yard	-3551
▁Bab	-3552
▁Ogm	-3553
▁Tib	-3554
▁Why	-3555
▁bug	-3556
▁cup	-3557
▁med	-3558
▁six	-3559
▁top	-3560
abong	-3561
▁Beth	-3562
▁Nati	-3563
▁adul	-3564
▁heal	-3565
▁lack	-3566
▁lose	-3567
▁pain	-3568
▁pigd	-3569
▁repe	-3570
▁room	-3571
▁scat	-3572
aligad	-3573
eacher	-3574
idonia	-3575
ighbor	-3576
irapan	-3577
▁Hakub	-3578
▁Pistu	-3579
▁above	-3580
▁accom	-3581
▁cause	-3582
▁disob	-3583
▁immor	-3584
▁kohoy	-3585
▁marry	-3586
▁niglu	-3587
▁nouli	-3588
▁ogpab	-3589
▁ogpap	-3590
▁piece	-3591
▁subla	-3592
▁tabak	-3593
▁table	-3594
▁arrest	-3595
▁bodies	-3596
▁breath	-3597
▁matter	-3598
▁mogtuu	-3599
▁ogpuun	-3600
▁pieces	-3601
▁regard	-3602
▁result	-3603
▁forgive	-3604
▁fulfill	-3605
▁insabut	-3606
▁manokal	-3607
▁morning	-3608
▁neither	-3609
▁oghalin	-3610
▁oneself	-3611
▁covenant	-3612
▁igdakoli	-3613
▁nighutuk	-3614
▁ogkoonon	-3615
▁surround	-3616
▁Masidonia	-3617
▁crucified	-3618
▁doromdoma	-3619
▁nigdatong	-3620
▁salvation	-3621
▁therefore	-3622
▁ogdumaruma	-3623
▁ogpanumbaloy	-3624
In	-3625
To	-3626
bok	-3627
dle	-3628
usu	-3629
▁Tw	-3630
ager	-3631
agow	-3632
alas	-3633
aves	-3634
bing	-3635
gion	-3636
ibug	-3637
iful	-3638
ipis	-3639
like	-3640
ream	-3641
ulut	-3642
▁Are	-3643
▁adv	-3644
▁air	-3645
▁egg	-3646
▁igh	-3647
▁non	-3648
▁rej	-3649
▁san	-3650
▁sim	-3651
along	-3652
bulig	-3653
ingan	-3654
irigu	-3655
▁Lamb	-3656
▁Nigt	-3657
▁Your	-3658
▁balu	-3659
▁bant	-3660
▁doka	-3661
▁dove	-3662
▁idol	-3663
▁incl	-3664
▁naka	-3665
▁pure	-3666
▁wise	-3667
▁wond	-3668
alapon	-3669
ananoy	-3670
itigus	-3671
▁favor	-3672
▁gifts	-3673
▁layun	-3674
▁mourn	-3675
▁owner	-3676
▁publi	-3677
▁quest	-3678
▁rebuk	-3679
▁shake	-3680
▁slave	-3681
▁sword	-3682
▁tribe	-3683
▁tried	-3684
▁wants	-3685
▁works	-3686
▁animal	-3687
▁balaod	-3688
▁direct	-3689
▁nabalu	-3690
▁nature	-3691
▁placed	-3692
▁remove	-3693
▁trying	-3694
▁adulter	-3695
▁desires	-3696
▁leaders	-3697
▁mohirap	-3698
▁nigkoon	-3699
▁oghondi	-3700
▁ogpokog	-3701
▁reached	-3702
▁request	-3703
▁daughter	-3704
▁encourag	-3705
▁igpaalap	-3706
▁ligkatan	-3707
▁neighbor	-3708
▁nigtokod	-3709
▁ogdatong	-3710
▁pamminog	-3711
▁prepared	-3712
▁revealed	-3713
▁sikanami	-3714
▁vineyard	-3715
▁igpapitow	-3716
▁ogdakolon	-3717
▁oghimatoy	-3718
▁ogsimboon	-3719
▁katagaanan	-3720
▁ogpokohimu	-3721
▁Pananglitan	-3722
My	-3723
rr	-3724
wa	-3725
▁V	-3726
Mgo	-3727
con	-3728
ens	-3729
mer	-3730
oth	-3731
pot	-3732
sob	-3733
ugi	-3734
xed	-3735
Come	-3736
anna	-3737
atod	-3738
ingk	-3739
semb	-3740
ubus	-3741
uses	-3742
vern	-3743
▁Mal	-3744
▁Nap	-3745
▁Ogh	-3746
▁age	-3747
▁fur	-3748
▁lug	-3749
▁pos	-3750
▁ris	-3751
▁tor	-3752
ander	-3753
ariot	-3754
asure	-3755
glung	-3756
oison	-3757
orted	-3758
tered	-3759
▁Magd	-3760
▁case	-3761
▁memb	-3762
▁neck	-3763
▁ongk	-3764
▁prod	-3765
▁purs	-3766
▁puun	-3767
▁sold	-3768
▁song	-3769
▁soul	-3770
▁tail	-3771
▁wall	-3772
▁weep	-3773
elling	-3774
▁Maced	-3775
▁Sisar	-3776
▁birds	-3777
▁floor	-3778
▁igpar	-3779
▁instr	-3780
▁kings	-3781
▁knife	-3782
▁shell	-3783
▁smoke	-3784
▁tahur	-3785
▁thorn	-3786
▁wound	-3787
holawan	-3788
▁Caesar	-3789
▁Nokani	-3790
▁answer	-3791
▁camote	-3792
▁finger	-3793
▁guests	-3794
▁please	-3795
▁rather	-3796
▁really	-3797
▁twelve	-3798
▁Because	-3799
▁Blessed	-3800
▁Paligad	-3801
▁animals	-3802
▁divided	-3803
▁enemies	-3804
▁learned	-3805
▁ogtabak	-3806
▁promise	-3807
▁shouted	-3808
aganangon	-3809
▁churches	-3810
▁igdogpak	-3811
▁mangayow	-3812
▁ogsuguon	-3813
▁ancestors	-3814
▁ogkasasow	-3815
▁ogtalabau	-3816
▁holholawan	-3817
▁ogpakabogoy	-3818
▁ogpakatuman	-3819
▁resurrection	-3820
▁ogkohingaranan	-3821
bi	-3822
hi	-3823
sh	-3824
,00	-3825
Yes	-3826
apa	-3827
asp	-3828
cep	-3829
ges	-3830
how	-3831
igt	-3832
iku	-3833
imp	-3834
isu	-3835
ull	-3836
▁Or	-3837
▁Pe	-3838
,000	-3839
They	-3840
abag	-3841
agoi	-3842
ases	-3843
enth	-3844
noon	-3845
okan	-3846
olug	-3847
onow	-3848
orok	-3849
tern	-3850
▁Pat	-3851
▁Sad	-3852
▁ant	-3853
▁ate	-3854
▁cen	-3855
▁dev	-3856
▁inl	-3857
▁lok	-3858
▁pen	-3859
▁rid	-3860
▁sib	-3861
▁sla	-3862
▁sow	-3863
ampod	-3864
bogas	-3865
ching	-3866
ended	-3867
ility	-3868
inuan	-3869
lotib	-3870
okoon	-3871
oured	-3872
river	-3873
velop	-3874
▁Gree	-3875
▁Nigb	-3876
▁cent	-3877
▁draw	-3878
▁glad	-3879
▁leaf	-3880
▁most	-3881
▁nand	-3882
▁oath	-3883
▁prot	-3884
▁road	-3885
▁tast	-3886
▁wrap	-3887
abukan	-3888
arasan	-3889
edient	-3890
oloran	-3891
utasan	-3892
▁clean	-3893
▁cover	-3894
▁month	-3895
▁pound	-3896
▁pract	-3897
▁shout	-3898
▁stumb	-3899
▁utang	-3900
apirisu	-3901
atangan	-3902
▁Hontow	-3903
▁accept	-3904
▁affect	-3905
▁centur	-3906
▁crowds	-3907
▁doisok	-3908
▁itself	-3909
▁letter	-3910
▁nabolu	-3911
▁ogsugu	-3912
▁tokora	-3913
▁insabuk	-3914
▁ogkoimu	-3915
▁payment	-3916
▁perfect	-3917
▁telling	-3918
▁younger	-3919
▁believes	-3920
▁heavenly	-3921
▁Pandatuan	-3922
▁igkabogoy	-3923
▁igkasipod	-3924
▁igkoiniat	-3925
▁ogdakopon	-3926
▁ogkohogot	-3927
▁ogmaroyow	-3928
▁witnesses	-3929
▁instrument	-3930
▁pogkaponga	-3931
▁ogpasayluon	-3932
▁langlanguwan	-3933
▁oglimudlimud	-3934
▁relationship	-3935
▁nignangonnangon	-3936
Di	-3937
Hoo	-3938
Let	-3939
aku	-3940
amu	-3941
aya	-3942
bow	-3943
ean	-3944
eng	-3945
igs	-3946
iti	-3947
oid	-3948
ula	-3949
ume	-3950
▁Re	-3951
▁dw	-3952
▁ev	-3953
alop	-3954
anta	-3955
fort	-3956
ikan	-3957
ilis	-3958
ined	-3959
olis	-3960
omog	-3961
some	-3962
tung	-3963
ugat	-3964
▁Las	-3965
▁dib	-3966
▁est	-3967
▁mok	-3968
▁sor	-3969
▁swe	-3970
▁tap	-3971
▁tik	-3972
anger	-3973
ative	-3974
aving	-3975
avior	-3976
eding	-3977
iniug	-3978
ities	-3979
logob	-3980
oinum	-3981
oming	-3982
ulang	-3983
▁Adan	-3984
▁Pogl	-3985
▁band	-3986
▁blow	-3987
▁bran	-3988
▁conv	-3989
▁cred	-3990
▁dise	-3991
▁entr	-3992
▁join	-3993
▁meat	-3994
▁obol	-3995
▁sump	-3996
▁sure	-3997
▁uran	-3998
anaron	-3999
olomon	-4000
▁broke	-4001
▁crown	-4002
▁dayag	-4003
▁enemy	-4004
▁fully	-4005
▁gotok	-4006
▁grain	-4007
▁marri	-4008
▁needs	-4009
▁offic	-4010
▁older	-4011
▁woven	-4012
▁yours	-4013
Sikaniu	-4014
Teacher	-4015
ohondio	-4016
rothers	-4017
▁Twelve	-4018
▁lagong	-4019
▁laplap	-4020
▁logpad	-4021
▁praise	-4022
▁preach	-4023
▁proper	-4024
▁reward	-4025
▁sexual	-4026
▁sinful	-4027
▁tongue	-4028
usiloman	-4029
▁Nasarit	-4030
▁Sisaria	-4031
▁Solomon	-4032
▁current	-4033
▁evening	-4034
▁forward	-4035
▁kuglung	-4036
▁nasakup	-4037
▁ogpakam	-4038
▁ogsalig	-4039
▁possess	-4040
▁sinners	-4041
pangabang	-4042
umansuman	-4043
▁nigbulig	-4044
▁pogsabut	-4045
▁Scripture	-4046
▁appointed	-4047
▁following	-4048
▁ingkaanad	-4049
▁karoyawan	-4050
▁nigbunsud	-4051
▁ogpitawon	-4052
▁tahuronon	-4053
▁ogpinpinnuu	-4054
▁Talagbautismu	-4055
cc	-4056
my	-4057
pu	-4058
abl	-4059
ham	-4060
has	-4061
iff	-4062
ime	-4063
irt	-4064
kit	-4065
omu	-4066
ory	-4067
pak	-4068
ubs	-4069
uru	-4070
Take	-4071
When	-4072
acob	-4073
alia	-4074
amit	-4075
apas	-4076
east	-4077
gypt	-4078
herd	-4079
ills	-4080
insò	-4081
itaa	-4082
omas	-4083
▁Mad	-4084
▁Nan	-4085
▁Our	-4086
▁alt	-4087
▁ass	-4088
▁bor	-4089
▁ext	-4090
▁few	-4091
▁inf	-4092
▁koh	-4093
▁net	-4094
▁rob	-4095
▁shr	-4096
▁sig	-4097
▁soi	-4098
▁sup	-4099
Where	-4100
albal	-4101
ample	-4102
eless	-4103
ously	-4104
pherd	-4105
ugong	-4106
umpet	-4107
under	-4108
urely	-4109
uwang	-4110
wanan	-4111
▁Fest	-4112
▁Inst	-4113
▁Milk	-4114
▁alad	-4115
▁doub	-4116
▁edge	-4117
▁gets	-4118
▁igli	-4119
▁maro	-4120
▁pulu	-4121
▁rise	-4122
▁soft	-4123
▁sons	-4124
▁valu	-4125
abinit	-4126
alagak	-4127
ayaton	-4128
ilaban	-4129
ogotoy	-4130
▁Again	-4131
▁Egypt	-4132
▁Greet	-4133
▁Jacob	-4134
▁Since	-4135
▁consc	-4136
▁dokad	-4137
▁flood	-4138
▁gakit	-4139
▁heads	-4140
▁igkoh	-4141
▁impas	-4142
▁incre	-4143
▁kunto	-4144
▁matig	-4145
▁nigtu	-4146
▁press	-4147
▁takes	-4148
▁thank	-4149
▁tight	-4150
▁touch	-4151
▁trial	-4152
▁widow	-4153
▁wrote	-4154
▁Anyone	-4155
▁Elijah	-4156
▁Isaias	-4157
▁Lasaru	-4158
▁Tongod	-4159
▁desire	-4160
▁handed	-4161
▁hidden	-4162
▁monkey	-4163
▁object	-4164
▁poured	-4165
▁secret	-4166
▁tagban	-4167
▁tagood	-4168
Sikoykow	-4169
apulusan	-4170
▁blessed	-4171
▁foolish	-4172
▁illness	-4173
▁noiling	-4174
▁noulian	-4175
▁noumaan	-4176
▁oggaani	-4177
▁parents	-4178
▁pleased	-4179
▁praying	-4180
▁sugpang	-4181
▁touched	-4182
▁trumpet	-4183
▁willing	-4184
abautismu	-4185
angulibot	-4186
angumusta	-4187
▁clothing	-4188
▁declared	-4189
▁igkabolu	-4190
▁instruct	-4191
▁loinloin	-4192
▁nigpurut	-4193
▁ogbantoy	-4194
▁Macedonia	-4195
▁centurion	-4196
▁creatures	-4197
▁ogkahalin	-4198
▁preaching	-4199
▁sacrifice	-4200
▁ogpakaamut	-4201
▁strengthen	-4202
▁Immediately	-4203
▁nigpamminog	-4204
▁ogparagason	-4205
▁igmaganangon	-4206
,'	-4207
As	-4208
bos	-4209
iet	-4210
lon	-4211
odd	-4212
pat	-4213
sed	-4214
▁Na	-4215
▁Su	-4216
▁ir	-4217
akes	-4218
alis	-4219
angh	-4220
bong	-4221
cess	-4222
ding	-4223
iced	-4224
intu	-4225
iran	-4226
itom	-4227
ogal	-4228
okon	-4229
osan	-4230
▁arm	-4231
▁boy	-4232
▁cho	-4233
▁fit	-4234
▁fly	-4235
▁hot	-4236
▁kol	-4237
▁sky	-4238
ainer	-4239
aints	-4240
itawa	-4241
oomot	-4242
osely	-4243
oster	-4244
tures	-4245
utung	-4246
uubat	-4247
▁clim	-4248
▁cove	-4249
▁drop	-4250
▁hurt	-4251
▁lana	-4252
▁mult	-4253
▁pull	-4254
▁resc	-4255
▁ship	-4256
▁wear	-4257
advert	-4258
alagon	-4259
alamat	-4260
alapak	-4261
amotes	-4262
angang	-4263
arcane	-4264
atedly	-4265
ations	-4266
osonan	-4267
▁Episu	-4268
▁altar	-4269
▁bless	-4270
▁built	-4271
▁cloth	-4272
▁eaten	-4273
▁kabol	-4274
▁keeps	-4275
▁malan	-4276
▁overc	-4277
▁sabal	-4278
▁separ	-4279
▁shame	-4280
▁unbel	-4281
akdakol	-4282
▁bottom	-4283
▁burden	-4284
▁causes	-4285
▁crying	-4286
▁during	-4287
▁fields	-4288
▁ingkat	-4289
▁ogkann	-4290
▁places	-4291
▁poison	-4292
▁saints	-4293
▁struck	-4294
▁travel	-4295
alagaron	-4296
alibuwas	-4297
▁Instead	-4298
▁gobirnu	-4299
▁however	-4300
▁invited	-4301
▁maralom	-4302
▁mohomut	-4303
▁offered	-4304
▁ogsulat	-4305
▁planted	-4306
▁purpose	-4307
▁rooster	-4308
▁service	-4309
▁testify	-4310
akdakoloy	-4311
▁commands	-4312
▁complete	-4313
▁creation	-4314
▁dayagang	-4315
▁nigluhud	-4316
▁nigsakoy	-4317
▁pogdinog	-4318
▁presence	-4319
▁sinabong	-4320
▁strength	-4321
▁thinking	-4322
▁ogmasakit	-4323
▁ogpanabod	-4324
▁spiritual	-4325
▁suffering	-4326
▁gobirnador	-4327
▁ogsagmanon	-4328
▁ogkasabutan	-4329
▁ogkoongkoran	-4330
Be	-4331
co	-4332
si	-4333
zz	-4334
Kon	-4335
aut	-4336
men	-4337
ooy	-4338
rin	-4339
ype	-4340
▁Wa	-4341
Then	-4342
agat	-4343
aken	-4344
amoy	-4345
aped	-4346
area	-4347
even	-4348
hand	-4349
ield	-4350
ilak	-4351
ilar	-4352
ilio	-4353
lock	-4354
omed	-4355
othy	-4356
ross	-4357
ubid	-4358
▁Bit	-4359
▁May	-4360
▁Ogd	-4361
▁dri	-4362
▁dug	-4363
▁fig	-4364
▁hig	-4365
▁lie	-4366
▁ngi	-4367
▁pak	-4368
▁rus	-4369
▁tol	-4370
▁tuk	-4371
Koddi	-4372
agpit	-4373
alaga	-4374
batan	-4375
ected	-4376
istry	-4377
kubla	-4378
ortun	-4379
umble	-4380
▁Korn	-4381
▁Libi	-4382
▁debt	-4383
▁dust	-4384
▁gain	-4385
▁hypo	-4386
▁lama	-4387
▁legs	-4388
▁limu	-4389
▁mund	-4390
▁roof	-4391
▁tibò	-4392
▁upon	-4393
▁wara	-4394
angkad	-4395
angkob	-4396
ligkat	-4397
▁Ephes	-4398
▁Grace	-4399
▁Nazar	-4400
▁accus	-4401
▁beach	-4402
▁bokog	-4403
▁conce	-4404
▁eager	-4405
▁exper	-4406
▁himol	-4407
▁kinds	-4408
▁konon	-4409
▁langu	-4410
▁reign	-4411
▁snake	-4412
▁solug	-4413
▁wrath	-4414
asabuti	-4415
ingawan	-4416
▁asleep	-4417
▁burned	-4418
▁caused	-4419
▁courts	-4420
▁custom	-4421
▁dalaga	-4422
▁doipag	-4423
▁edible	-4424
▁giving	-4425
▁kogang	-4426
▁leader	-4427
▁ngipon	-4428
▁nigpam	-4429
▁nigtal	-4430
▁ogpanl	-4431
alukuyoy	-4432
angkuwan	-4433
▁Pogkita	-4434
▁Timothy	-4435
▁burning	-4436
▁ighatod	-4437
▁leaving	-4438
▁mananoy	-4439
▁matagoi	-4440
▁miracul	-4441
▁pogsugu	-4442
▁prophes	-4443
▁raiders	-4444
▁tongues	-4445
▁waiting	-4446
▁Kornilio	-4447
▁carrying	-4448
▁igbayung	-4449
▁inadvert	-4450
▁manaling	-4451
▁ministry	-4452
▁oghondiò	-4453
▁ogkaalap	-4454
▁ogkoubus	-4455
▁sleeping	-4456
▁condemned	-4457
▁container	-4458
▁household	-4459
▁igmasakit	-4460
▁mountains	-4461
▁nigpinnuu	-4462
▁ogpanakow	-4463
▁pogkootow	-4464
▁sabalanan	-4465
▁scattered	-4466
▁Madmaroyow	-4467
▁nigpasakup	-4468
▁ogpokounug	-4469
▁ogsasindog	-4470
▁repeatedly	-4471
▁synagogues	-4472
▁talagkubla	-4473
▁ogkapongaan	-4474
▁pogkasabuti	-4475
▁ogpakamalogot	-4476
▁nabolongbolong	-4477
▁kabolbolonganan	-4478
Is	-4479
af	-4480
da	-4481
gn	-4482
me	-4483
Are	-4484
Now	-4485
abò	-4486
alò	-4487
amo	-4488
bod	-4489
hag	-4490
hot	-4491
ibr	-4492
ilu	-4493
ogò	-4494
oik	-4495
set	-4496
uct	-4497
uhi	-4498
ulù	-4499
upu	-4500
▁Go	-4501
▁Le	-4502
▁nò	-4503
agun	-4504
alah	-4505
alth	-4506
amon	-4507
boka	-4508
ians	-4509
ides	-4510
idik	-4511
inis	-4512
inug	-4513
know	-4514
lace	-4515
lean	-4516
miss	-4517
obon	-4518
olon	-4519
ougp	-4520
pare	-4521
rate	-4522
ulon	-4523
uson	-4524
vere	-4525
▁Sir	-4526
▁Sud	-4527
▁Two	-4528
▁Woe	-4529
▁env	-4530
▁imm	-4531
▁lik	-4532
▁mom	-4533
▁pol	-4534
▁tun	-4535
▁tur	-4536
▁win	-4537
There	-4538
cious	-4539
isaan	-4540
olled	-4541
ubung	-4542
umpul	-4543
which	-4544
▁Amen	-4545
▁hole	-4546
▁kiss	-4547
▁mark	-4548
▁ogmo	-4549
▁pour	-4550
▁seek	-4551
▁star	-4552
▁thin	-4553
Hondoi	-4554
abulig	-4555
insooy	-4556
irnaum	-4557
ishing	-4558
isidik	-4559
▁Isaak	-4560
▁Koddi	-4561
▁Other	-4562
▁angry	-4563
▁fault	-4564
▁hogot	-4565
▁igbat	-4566
▁kabin	-4567
▁lagut	-4568
▁makat	-4569
▁ogbas	-4570
▁otawa	-4571
▁pregn	-4572
▁steps	-4573
▁sweet	-4574
▁today	-4575
▁wings	-4576
alahari	-4577
ilingan	-4578
iniugan	-4579
ruction	-4580
▁Isaiah	-4581
▁bungag	-4582
▁choose	-4583
▁loaves	-4584
▁lobong	-4585
▁maputi	-4586
▁nation	-4587
▁oghond	-4588
▁ogkito	-4589
▁ogpand	-4590
▁pilang	-4591
▁rulers	-4592
▁sister	-4593
▁speech	-4594
▁thirst	-4595
anggutan	-4596
ortunity	-4597
▁apostle	-4598
▁balubat	-4599
▁camotes	-4600
▁comfort	-4601
▁condemn	-4602
▁develop	-4603
▁dressed	-4604
▁mahapun	-4605
▁napulid	-4606
▁nigboot	-4607
▁ogbayad	-4608
▁ogligal	-4609
▁ogpurut	-4610
▁ogtuuan	-4611
▁pattern	-4612
▁pogsayo	-4613
▁prayers	-4614
▁sabinit	-4615
▁sibling	-4616
▁started	-4617
▁stopped	-4618
▁warning	-4619
▁Caesarea	-4620
▁Nazareth	-4621
▁building	-4622
▁igkouyag	-4623
▁ingkohoy	-4624
▁kabolong	-4625
▁karumaan	-4626
▁lamisaan	-4627
▁molintok	-4628
▁nabayaan	-4629
▁nigtuman	-4630
▁ogkaroog	-4631
▁possible	-4632
▁question	-4633
▁shouting	-4634
▁welcomes	-4635
▁Kapirnaum	-4636
▁agreement	-4637
▁himolayan	-4638
▁igkamatoy	-4639
▁ogmaawang	-4640
▁sugarcane	-4641
▁tubaranan	-4642
▁Milkisidik	-4643
▁ogpokougpo	-4644
▁poghipanow	-4645
▁throughout	-4646
▁immediately	-4647
▁ogpakarinog	-4648
▁ogpalibuwas	-4649
▁opportunity	-4650
▁kabinunsuran	-4651
▁inadvertently	-4652
▁ogpakamaroyow	-4653
▁understanding	-4654
▁Talagpangabang	-4655
Si	-4656
ko	-4657
Get	-4658
des	-4659
elt	-4660
ipp	-4661
kas	-4662
kon	-4663
mar	-4664
nas	-4665
oop	-4666
ope	-4667
rer	-4668
upi	-4669
ura	-4670
▁Ip	-4671
▁Ly	-4672
aded	-4673
akan	-4674
ange	-4675
ends	-4676
ging	-4677
iber	-4678
ioch	-4679
olin	-4680
oung	-4681
ukas	-4682
ural	-4683
utol	-4684
▁Rem	-4685
▁Sal	-4686
▁See	-4687
▁Sim	-4688
▁Tit	-4689
▁bes	-4690
▁cry	-4691
▁det	-4692
▁eas	-4693
▁isn	-4694
▁lif	-4695
▁luw	-4696
▁sum	-4697
acked	-4698
amboy	-4699
hamed	-4700
icine	-4701
inabo	-4702
isted	-4703
ogdog	-4704
umust	-4705
where	-4706
▁Hupi	-4707
▁King	-4708
▁Titu	-4709
▁doun	-4710
▁hate	-4711
▁heat	-4712
▁lift	-4713
▁milk	-4714
▁mine	-4715
▁miow	-4716
▁myst	-4717
▁pool	-4718
▁roll	-4719
▁shed	-4720
▁tagu	-4721
▁view	-4722
▁week	-4723
aangoy	-4724
aligya	-4725
ealous	-4726
ingawi	-4727
ugunan	-4728
unggun	-4729
unugon	-4730
▁Unawa	-4731
▁accep	-4732
▁blasp	-4733
▁drive	-4734
▁gapun	-4735
▁ibung	-4736
▁kitaa	-4737
▁kuddo	-4738
▁nakap	-4739
▁putow	-4740
▁quiet	-4741
▁raise	-4742
▁threw	-4743
▁trigg	-4744
▁truly	-4745
▁worry	-4746
agbotan	-4747
antayan	-4748
ougpaan	-4749
▁Dongan	-4750
▁Hordan	-4751
▁Savior	-4752
▁across	-4753
▁attack	-4754
▁center	-4755
▁fallen	-4756
▁govern	-4757
▁harina	-4758
▁isabuk	-4759
▁ogdoot	-4760
▁orders	-4761
▁perish	-4762
▁region	-4763
Pamminog	-4764
▁Antioch	-4765
▁Damasku	-4766
▁ashamed	-4767
▁calling	-4768
▁careful	-4769
▁conduct	-4770
▁entrust	-4771
▁example	-4772
▁hearing	-4773
▁heavens	-4774
▁igsulat	-4775
▁insulat	-4776
▁keeping	-4777
▁maallow	-4778
▁manipis	-4779
▁nalugoy	-4780
▁ongkori	-4781
▁patient	-4782
▁pogkita	-4783
▁sending	-4784
▁similar	-4785
▁Everyone	-4786
▁Sikandan	-4787
▁adultery	-4788
▁distance	-4789
▁glorious	-4790
▁igkasayo	-4791
▁matikang	-4792
▁miracles	-4793
▁ogkaraat	-4794
▁reported	-4795
▁shepherd	-4796
▁suffered	-4797
▁traveled	-4798
▁welcomed	-4799
▁Pogkapawo	-4800
▁commander	-4801
▁destroyed	-4802
▁downriver	-4803
▁encourage	-4804
▁greetings	-4805
▁igpatokod	-4806
▁oglibuwas	-4807
▁ogpakapan	-4808
▁performed	-4809
▁worshiped	-4810
▁Scriptures	-4811
▁confidence	-4812
▁immorality	-4813
▁nigsaparan	-4814
▁ogdatongan	-4815
▁repentance	-4816
▁continually	-4817
▁igkasampulu	-4818
▁ingkanangon	-4819
▁niggongonan	-4820
▁oghihipanow	-4821
▁circumcision	-4822
▁manalingboka	-4823
▁nigpinpinnuu	-4824
!’	-4825
te	-4826
▁z	-4827
Sir	-4828
ale	-4829
bac	-4830
els	-4831
imt	-4832
ipu	-4833
kai	-4834
mag	-4835
ots	-4836
rop	-4837
tob	-4838
uel	-4839
uge	-4840
una	-4841
ury	-4842
▁Jo	-4843
▁Kò	-4844
▁op	-4845
▁pu	-4846
Here	-4847
Your	-4848
aida	-4849
aint	-4850
anoy	-4851
atus	-4852
erve	-4853
fish	-4854
ilan	-4855
ises	-4856
ival	-4857
onan	-4858
ophe	-4859
ouan	-4860
oved	-4861
ulan	-4862
unoy	-4863
▁Cap	-4864
▁Fin	-4865
▁San	-4866
▁Tag	-4867
▁abu	-4868
▁ble	-4869
▁dap	-4870
▁fat	-4871
▁fle	-4872
▁imb	-4873
▁kne	-4874
▁kob	-4875
▁lup	-4876
▁sab	-4877
▁sob	-4878
▁wed	-4879
Songo	-4880
ables	-4881
aking	-4882
alina	-4883
alung	-4884
ampit	-4885
andon	-4886
angoy	-4887
bacco	-4888
conut	-4889
denly	-4890
emale	-4891
hogot	-4892
ilian	-4893
lingi	-4894
tokod	-4895
▁Give	-4896
▁Many	-4897
▁Most	-4898
▁Name	-4899
▁Ogka	-4900
▁Prob	-4901
▁arms	-4902
▁asks	-4903
▁baka	-4904
▁basu	-4905
▁cast	-4906
▁crop	-4907
▁dies	-4908
▁feed	-4909
▁gate	-4910
▁grew	-4911
▁horn	-4912
▁mist	-4913
▁nanl	-4914
▁ogdo	-4915
▁pigp	-4916
▁poka	-4917
▁sack	-4918
▁size	-4919
▁spar	-4920
▁swim	-4921
▁upro	-4922
agboot	-4923
angkap	-4924
asalig	-4925
asaylu	-4926
hedrin	-4927
ikotan	-4928
iralom	-4929
morrow	-4930
ogotan	-4931
otomog	-4932
ulasan	-4933
▁Elias	-4934
▁First	-4935
▁beaut	-4936
▁boung	-4937
▁bride	-4938
▁charm	-4939
▁crack	-4940
▁cried	-4941
▁dalig	-4942
▁drunk	-4943
▁freed	-4944
▁least	-4945
▁lying	-4946
▁mixed	-4947
▁mundù	-4948
▁ogmab	-4949
▁pogbo	-4950
▁sanct	-4951
▁split	-4952
▁value	-4953
Blessed	-4954
Maroyow	-4955
abogbog	-4956
angonan	-4957
himatoy	-4958
uwaruwa	-4959
▁Agripa	-4960
▁Apulus	-4961
▁People	-4962
▁Prophe	-4963
▁acknow	-4964
▁asking	-4965
▁asolom	-4966
▁bogayi	-4967
▁breast	-4968
▁danger	-4969
▁ighimu	-4970
▁impure	-4971
▁manage	-4972
▁middle	-4973
▁nigtug	-4974
▁ogboot	-4975
▁ogsayo	-4976
▁prayed	-4977
▁public	-4978
▁punish	-4979
▁sailed	-4980
▁served	-4981
▁simana	-4982
▁strike	-4983
▁wealth	-4984
▁Ephesus	-4985
▁Sikanak	-4986
▁baptism	-4987
▁charges	-4988
▁cutting	-4989
▁decided	-4990
▁getting	-4991
▁knowing	-4992
▁mabulut	-4993
▁nigdani	-4994
▁ogbogas	-4995
▁ogkabat	-4996
▁ogsimba	-4997
▁release	-4998
▁slander	-4999
▁thunder	-5000
▁trouble	-5001
▁Brothers	-5002
▁balubato	-5003
▁blasphem	-5004
▁branches	-5005
▁contrary	-5006
▁igkaratu	-5007
▁medicine	-5008
▁nakasalo	-5009
▁ogbunsud	-5010
▁ogkakagi	-5011
▁ogkapawo	-5012
▁ogtinawo	-5013
▁province	-5014
▁released	-5015
▁surprise	-5016
▁thoughts	-5017
▁tomorrow	-5018
▁Probinsia	-5019
▁Sanhedrin	-5020
▁afternoon	-5021
▁carefully	-5022
▁magboboot	-5023
▁nakasawod	-5024
▁nasulatan	-5025
▁nigbawian	-5026
▁noiniatan	-5027
▁oggawayan	-5028
▁oghagtong	-5029
▁oghilabot	-5030
▁ogsinogow	-5031
angnangonan	-5032
▁completely	-5033
▁conscience	-5034
▁miraculous	-5035
▁ogkabawian	-5036
▁ogpakaalap	-5037
▁ogpamangho	-5038
▁sacrifices	-5039
▁talagbulig	-5040
▁descendants	-5041
▁ogbalagaron	-5042
▁ogkasilaban	-5043
▁nigbautismuan	-5044
sì	-5045
uò	-5046
And	-5047
aly	-5048
ama	-5049
ato	-5050
ats	-5051
ble	-5052
boy	-5053
ems	-5054
fit	-5055
gam	-5056
ika	-5057
omp	-5058
rac	-5059
ror	-5060
tha	-5061
tow	-5062
ugk	-5063
unb	-5064
yas	-5065
▁Ak	-5066
▁Ol	-5067
▁er	-5068
▁fo	-5069
abbi	-5070
aliu	-5071
anga	-5072
apon	-5073
aroy	-5074
erce	-5075
iate	-5076
idon	-5077
imba	-5078
innu	-5079
loak	-5080
opal	-5081
over	-5082
ping	-5083
quet	-5084
sayo	-5085
tain	-5086
ular	-5087
ulis	-5088
utuu	-5089
warò	-5090
▁Cut	-5091
▁Hoo	-5092
▁Lev	-5093
▁aff	-5094
▁apu	-5095
▁bel	-5096
▁big	-5097
▁bua	-5098
▁emb	-5099
▁equ	-5100
▁fed	-5101
▁fet	-5102
▁log	-5103
▁low	-5104
▁mud	-5105
▁occ	-5106
▁ric	-5107
▁rip	-5108
▁sag	-5109
▁sud	-5110
▁try	-5111
Pitow	-5112
aagad	-5113
alian	-5114
anted	-5115
antug	-5116
ashed	-5117
ating	-5118
ayari	-5119
ellow	-5120
goram	-5121
gotan	-5122
ifies	-5123
ighty	-5124
imang	-5125
ingon	-5126
ising	-5127
istra	-5128
izing	-5129
ouses	-5130
▁Bali	-5131
▁Elis	-5132
▁Have	-5133
▁Look	-5134
▁Once	-5135
▁Such	-5136
▁Take	-5137
▁appe	-5138
▁asin	-5139
▁cold	-5140
▁disp	-5141
▁earn	-5142
▁form	-5143
▁jump	-5144
▁kalu	-5145
▁koin	-5146
▁male	-5147
▁mute	-5148
▁olin	-5149
▁onto	-5150
▁past	-5151
▁prev	-5152
▁shel	-5153
▁trad	-5154
▁tuui	-5155
▁urge	-5156
▁vari	-5157
▁ways	-5158
▁whis	-5159
▁wide	-5160
abayad	-5161
ahatod	-5162
alaran	-5163
athers	-5164
ernaum	-5165
erness	-5166
itance	-5167
kataga	-5168
ongkai	-5169
uranan	-5170
▁Babil	-5171
▁Inogo	-5172
▁Isaac	-5173
▁Sidon	-5174
▁Truly	-5175
▁Where	-5176
▁agkud	-5177
▁agpot	-5178
▁aston	-5179
▁bayad	-5180
▁chose	-5181
▁cloak	-5182
▁forth	-5183
▁forty	-5184
▁greed	-5185
▁group	-5186
▁hilam	-5187
▁hilit	-5188
▁image	-5189
▁impat	-5190
▁joint	-5191
▁matul	-5192
▁minds	-5193
▁nanoy	-5194
▁often	-5195
▁oglim	-5196
▁ogsas	-5197
▁parts	-5198
▁repay	-5199
▁smoot	-5200
▁stars	-5201
▁upset	-5202
▁using	-5203
▁walks	-5204
Kuntoon	-5205
andayan	-5206
atuutuu	-5207
busawan	-5208
ression	-5209
▁Indeed	-5210
▁Kapugi	-5211
▁borrow	-5212
▁bright	-5213
▁delive	-5214
▁establ	-5215
▁forest	-5216
▁ingkoh	-5217
▁lalima	-5218
▁lifted	-5219
▁moirob	-5220
▁moment	-5221
▁nanaan	-5222
▁narrow	-5223
▁necess	-5224
▁nighun	-5225
▁oghing	-5226
▁ogkita	-5227
▁refuse	-5228
▁riches	-5229
▁seized	-5230
▁severe	-5231
▁single	-5232
▁slaves	-5233
▁stones	-5234
▁submit	-5235
▁sumpul	-5236
▁taking	-5237
▁widows	-5238
alansang	-5239
ohondini	-5240
▁Finally	-5241
▁abandon	-5242
▁address	-5243
▁banquet	-5244
▁bugtung	-5245
▁coconut	-5246
▁cooking	-5247
▁holding	-5248
▁igbulig	-5249
▁inherit	-5250
▁instead	-5251
▁makopal	-5252
▁malayag	-5253
▁mystery	-5254
▁perfume	-5255
▁prepare	-5256
▁realize	-5257
▁rebuked	-5258
▁rejoice	-5259
▁sharpen	-5260
▁stumble	-5261
▁wedding	-5262
▁weeping	-5263
▁Doromdom	-5264
▁Elisabit	-5265
▁bringing	-5266
▁deceived	-5267
▁igkaruwa	-5268
▁karoyawi	-5269
▁language	-5270
▁marriage	-5271
▁nootawan	-5272
▁ogbasoon	-5273
▁position	-5274
▁powerful	-5275
▁practice	-5276
▁rejected	-5277
▁tagbanwa	-5278
▁Capernaum	-5279
▁commanded	-5280
▁committed	-5281
▁igpasabut	-5282
▁igpatulin	-5283
▁oghondini	-5284
▁ogkalimud	-5285
▁ogkohutuk	-5286
▁ogtitigus	-5287
▁talaghimu	-5288
▁Israelites	-5289
▁Ognangonan	-5290
▁Pogkalugoy	-5291
▁impanangon	-5292
▁nanangonan	-5293
▁ogngaranan	-5294
▁patalahari	-5295
▁wickedness	-5296
▁wilderness	-5297
▁disobedient	-5298
▁inheritance	-5299
▁nigdumaruma	-5300
▁nigpanagana	-5301
▁ogkapulusan	-5302
▁ogkatimulan	-5303
▁ogpakaatang	-5304
▁ogpakalabow	-5305
▁ogpakasuwoy	-5306
▁ogpangabang	-5307
▁pogdumaruma	-5308
▁ogkaroromdom	-5309
▁ogpalibuwason	-5310
Un	-5311
do	-5312
fe	-5313
▁u	-5314
God	-5315
Nat	-5316
Wow	-5317
ads	-5318
aft	-5319
azy	-5320
iuk	-5321
lan	-5322
ock	-5323
olk	-5324
onc	-5325
ria	-5326
sol	-5327
ubl	-5328
whe	-5329
▁12	-5330
▁Sm	-5331
▁Wà	-5332
Look	-5333
abao	-5334
abor	-5335
acle	-5336
alug	-5337
arad	-5338
body	-5339
cing	-5340
ific	-5341
ipan	-5342
ipas	-5343
king	-5344
lend	-5345
mand	-5346
oted	-5347
ourn	-5348
poss	-5349
romo	-5350
room	-5351
they	-5352
tled	-5353
unia	-5354
usiu	-5355
with	-5356
yond	-5357
▁Dor	-5358
▁Igs	-5359
▁Pin	-5360
▁ali	-5361
▁dig	-5362
▁dom	-5363
▁eff	-5364
▁gus	-5365
▁haw	-5366
▁lad	-5367
▁los	-5368
▁pit	-5369
▁rub	-5370
▁sev	-5371
▁sul	-5372
Truly	-5373
aghot	-5374
ambal	-5375
antly	-5376
aruwa	-5377
ember	-5378
inawo	-5379
inced	-5380
indan	-5381
light	-5382
olong	-5383
ondii	-5384
ondit	-5385
otion	-5386
tanud	-5387
turan	-5388
ually	-5389
uiton	-5390
uligi	-5391
umoon	-5392
ungod	-5393
▁blam	-5394
▁boil	-5395
▁coun	-5396
▁dilo	-5397
▁dogs	-5398
▁envy	-5399
▁flat	-5400
▁guar	-5401
▁igbo	-5402
▁lamb	-5403
▁lame	-5404
▁lime	-5405
▁meal	-5406
▁mere	-5407
▁mogs	-5408
▁none	-5409
▁pogb	-5410
▁pole	-5411
▁reap	-5412
▁salt	-5413
▁sapu	-5414
▁situ	-5415
▁stir	-5416
▁tear	-5417
▁type	-5418
▁wash	-5419
▁wasn	-5420
alamon	-5421
atagad	-5422
azarus	-5423
crites	-5424
irisia	-5425
worthy	-5426
▁Mount	-5427
▁Tibon	-5428
▁alapa	-5429
▁alung	-5430
▁banan	-5431
▁basak	-5432
▁bunal	-5433
▁burst	-5434
▁deter	-5435
▁fight	-5436
▁finds	-5437
▁flock	-5438
▁grass	-5439
▁grubs	-5440
▁hears	-5441
▁liwak	-5442
▁luwak	-5443
▁naman	-5444
▁ogbab	-5445
▁oglay	-5446
▁pamul	-5447
▁roots	-5448
▁seeds	-5449
▁sunud	-5450
▁thick	-5451
▁waist	-5452
ungayow	-5453
▁12,000	-5454
▁Damasc	-5455
▁Festus	-5456
▁Greeks	-5457
▁Kandin	-5458
▁assemb	-5459
▁beyond	-5460
▁chains	-5461
▁clouds	-5462
▁deeply	-5463
▁disown	-5464
▁easily	-5465
▁effect	-5466
▁endure	-5467
▁escape	-5468
▁female	-5469
▁joined	-5470
▁judged	-5471
▁months	-5472
▁mootow	-5473
▁nigmal	-5474
▁partic	-5475
▁reconc	-5476
▁rescue	-5477
▁search	-5478
▁seated	-5479
▁smooth	-5480
▁unable	-5481
▁washed	-5482
▁worked	-5483
abalabag	-5484
akimatoy	-5485
▁Girisia	-5486
▁Nangoni	-5487
▁changed	-5488
▁earthqu	-5489
▁greatly	-5490
▁igliwan	-5491
▁lacking	-5492
▁mabogat	-5493
▁mamatoy	-5494
▁measure	-5495
▁members	-5496
▁nasasow	-5497
▁natokow	-5498
▁nigbayo	-5499
▁noomonu	-5500
▁ogdolog	-5501
▁ogsalop	-5502
▁perform	-5503
▁pigkita	-5504
▁removed	-5505
▁shallow	-5506
▁thirsty	-5507
▁trigger	-5508
▁turning	-5509
▁welcome	-5510
himatayan	-5511
▁Natagaan	-5512
▁Nighutuk	-5513
▁belonged	-5514
▁boasting	-5515
▁chickens	-5516
▁drinking	-5517
▁nakabayo	-5518
▁nigligad	-5519
▁nigsulat	-5520
▁ogkaanad	-5521
▁ogpinnuu	-5522
▁pogtahud	-5523
▁Nighondio	-5524
▁Nignangon	-5525
▁completed	-5526
▁delivered	-5527
▁entrusted	-5528
▁nakasabut	-5529
▁napongaan	-5530
▁necessary	-5531
▁nigsamsam	-5532
▁nigsundul	-5533
▁ogkalugoy	-5534
▁ogkoomonu	-5535
▁pogboboot	-5536
▁pogdatong	-5537
▁recognize	-5538
▁talagboot	-5539
angnangonoy	-5540
▁accordance	-5541
▁astonished	-5542
▁igpanangon	-5543
▁ingkabogoy	-5544
▁nigbuligan	-5545
▁nighondini	-5546
▁ogkougpaan	-5547
▁ogpanagana	-5548
▁ogpoomotan	-5549
▁ogtinawoon	-5550
▁persecuted	-5551
▁pigbusawan	-5552
▁pogkalugoy	-5553
▁karusiloman	-5554
▁nigbobootan	-5555
▁ogpakimatoy	-5556
▁possessions	-5557
▁ogbabansagon	-5558
▁ogpakasundul	-5559
▁ogpakatangko	-5560
▁ogsumansuman	-5561
Ig	-5562
ao	-5563
bs	-5564
oc	-5565
pr	-5566
Ogs	-5567
aat	-5568
aka	-5569
aqu	-5570
eve	-5571
hil	-5572
iop	-5573
ium	-5574
iup	-5575
lug	-5576
mow	-5577
olm	-5578
pis	-5579
pit	-5580
ugg	-5581
▁??	-5582
▁Ne	-5583
▁Tu	-5584
▁av	-5585
▁om	-5586
Kagi	-5587
akas	-5588
anud	-5589
arre	-5590
asna	-5591
atun	-5592
cent	-5593
erno	-5594
form	-5595
goon	-5596
idia	-5597
ilty	-5598
insa	-5599
iped	-5600
most	-5601
oddì	-5602
ogul	-5603
oked	-5604
omis	-5605
ondo	-5606
orol	-5607
roas	-5608
sely	-5609
tago	-5610
umil	-5611
wang	-5612
ylon	-5613
▁Abo	-5614
▁Did	-5615
▁Gob	-5616
▁Kin	-5617
▁Tig	-5618
▁bed	-5619
▁due	-5620
▁gar	-5621
▁lid	-5622
▁mis	-5623
▁mus	-5624
▁nur	-5625
▁ogn	-5626
▁tie	-5627
▁wet	-5628
Kaniu	-5629
agbas	-5630
agkap	-5631
among	-5632
andaw	-5633
angas	-5634
anged	-5635
angub	-5636
apitu	-5637
aquin	-5638
iboon	-5639
ibriu	-5640
ining	-5641
ipped	-5642
ively	-5643
lihim	-5644
lings	-5645
oisok	-5646
orses	-5647
rates	-5648
tugun	-5649
umana	-5650
uyamu	-5651
while	-5652
▁Bapt	-5653
▁Each	-5654
▁Huda	-5655
▁Nigl	-5656
▁aluk	-5657
▁aren	-5658
▁awos	-5659
▁bene	-5660
▁bent	-5661
▁bitu	-5662
▁bump	-5663
▁fill	-5664
▁hill	-5665
▁huun	-5666
▁igpo	-5667
▁jail	-5668
▁katu	-5669
▁leng	-5670
▁loss	-5671
▁mean	-5672
▁mill	-5673
▁mogd	-5674
▁nang	-5675
▁ogto	-5676
▁priv	-5677
▁pula	-5678
▁saku	-5679
▁samp	-5680
▁sown	-5681
▁sows	-5682
▁surf	-5683
▁terr	-5684
▁viol	-5685
▁weed	-5686
Surely	-5687
abinon	-5688
agbobo	-5689
aliwan	-5690
assion	-5691
atives	-5692
ending	-5693
headed	-5694
ibulus	-5695
ippled	-5696
lendor	-5697
lobong	-5698
okawan	-5699
ourney	-5700
though	-5701
usigon	-5702
▁Their	-5703
▁Troas	-5704
▁added	-5705
▁adult	-5706
▁agree	-5707
▁ambow	-5708
▁amigu	-5709
▁ashes	-5710
▁batok	-5711
▁block	-5712
▁curse	-5713
▁dance	-5714
▁dapit	-5715
▁early	-5716
▁elect	-5717
▁endur	-5718
▁ganna	-5719
▁glass	-5720
▁idols	-5721
▁igbal	-5722
▁igpak	-5723
▁kalas	-5724
▁kuron	-5725
▁linen	-5726
▁lobut	-5727
▁meant	-5728
▁moves	-5729
▁nakar	-5730
▁nigma	-5731
▁ogbol	-5732
▁oghin	-5733
▁ogmat	-5734
▁pitow	-5735
▁revel	-5736
▁rocks	-5737
▁scold	-5738
▁shown	-5739
▁squee	-5740
▁store	-5741
▁taste	-5742
▁tenth	-5743
▁tired	-5744
▁unmar	-5745
▁wages	-5746
▁weeds	-5747
▁withd	-5748
▁worth	-5749
Nangoni	-5750
aliwaro	-5751
amilian	-5752
awangan	-5753
irnador	-5754
someone	-5755
▁Jordan	-5756
▁Lagkos	-5757
▁Markos	-5758
▁arrive	-5759
▁begged	-5760
▁beside	-5761
▁bother	-5762
▁brings	-5763
▁change	-5764
▁cleans	-5765
▁corrup	-5766
▁debris	-5767
▁dishon	-5768
▁dragon	-5769
▁effort	-5770
▁excess	-5771
▁guilty	-5772
▁horses	-5773
▁hunger	-5774
▁imboot	-5775
▁includ	-5776
▁inhimu	-5777
▁insult	-5778
▁interp	-5779
▁malomu	-5780
▁minuna	-5781
▁naabin	-5782
▁naalap	-5783
▁nigsus	-5784
▁noumil	-5785
▁ogboli	-5786
▁ogkako	-5787
▁ogloin	-5788
▁potato	-5789
▁proble	-5790
▁pursue	-5791
▁resist	-5792
▁scroll	-5793
▁season	-5794
▁seeing	-5795
▁silent	-5796
▁sorrow	-5797
▁spring	-5798
▁stands	-5799
▁string	-5800
▁warned	-5801
▁waters	-5802
▁within	-5803
insoinso	-5804
▁Agrippa	-5805
▁Baptist	-5806
▁Joaquin	-5807
▁Lazarus	-5808
▁Magbobo	-5809
▁Maistru	-5810
▁Nigsugu	-5811
▁Someone	-5812
▁clearly	-5813
▁control	-5814
▁disease	-5815
▁foreign	-5816
▁glorify	-5817
▁ibungon	-5818
▁imperno	-5819
▁inangon	-5820
▁inhatod	-5821
▁insalig	-5822
▁journey	-5823
▁karakol	-5824
▁limukon	-5825
▁malotoy	-5826
▁nalagak	-5827
▁ogtahud	-5828
▁pinayag	-5829
▁playing	-5830
▁produce	-5831
▁running	-5832
▁tenants	-5833
▁tobacco	-5834
▁treated	-5835
▁unclean	-5836
▁wonders	-5837
▁wrapped	-5838
▁writing	-5839
albalawan	-5840
anudtanud	-5841
ayandayan	-5842
possessed	-5843
▁Bitlihim	-5844
▁Damascus	-5845
▁Prophets	-5846
▁Remember	-5847
▁crippled	-5848
▁governor	-5849
▁indogpak	-5850
▁kindness	-5851
▁maligsom	-5852
▁napalian	-5853
▁nigdakop	-5854
▁official	-5855
▁ogdaralu	-5856
▁ogkabolu	-5857
▁parables	-5858
▁pogkouma	-5859
▁pregnant	-5860
▁prophecy	-5861
▁splendor	-5862
▁blameless	-5863
▁confident	-5864
▁convinced	-5865
▁hibatanan	-5866
▁justified	-5867
▁mangkuwan	-5868
▁ogkaboros	-5869
▁oglangkad	-5870
▁sinaligan	-5871
▁uncircumc	-5872
▁Gobirnador	-5873
▁collectors	-5874
▁compassion	-5875
▁earthquake	-5876
▁encouraged	-5877
▁hypocrites	-5878
▁impanagana	-5879
▁ingkatubad	-5880
▁ingkoholos	-5881
▁nakalagkos	-5882
▁nighagtong	-5883
▁Ogkapulusan	-5884
▁ogmalayaton	-5885
▁trustworthy	-5886
▁ogbaybayaran	-5887
▁ogkalingawan	-5888
▁ogkannugunan	-5889
▁ogpangumusta	-5890
▁ogpakapangabang	-5891
Th	-5892
bù	-5893
eg	-5894
ny	-5895
tù	-5896
Amo	-5897
Dio	-5898
Ian	-5899
See	-5900
aff	-5901
alt	-5902
anl	-5903
any	-5904
ati	-5905
bre	-5906
doy	-5907
ety	-5908
fru	-5909
han	-5910
hos	-5911
hys	-5912
iat	-5913
irg	-5914
kin	-5915
mat	-5916
mph	-5917
oog	-5918
oru	-5919
oti	-5920
piu	-5921
ran	-5922
toy	-5923
ums	-5924
was	-5925
you	-5926
▁Cy	-5927
▁En	-5928
▁Ty	-5929
▁Ze	-5930
▁ru	-5931
agak	-5932
airs	-5933
alon	-5934
alun	-5935
ands	-5936
aniò	-5937
asig	-5938
cked	-5939
hest	-5940
hood	-5941
igin	-5942
inth	-5943
ipun	-5944
isia	-5945
land	-5946
okol	-5947
ontr	-5948
opus	-5949
osol	-5950
sing	-5951
ugba	-5952
uhoy	-5953
ukan	-5954
upul	-5955
uung	-5956
▁Can	-5957
▁Cor	-5958
▁Day	-5959
▁Get	-5960
▁Igp	-5961
▁Kur	-5962
▁Nab	-5963
▁Noi	-5964
▁Ogg	-5965
▁Sin	-5966
▁Yes	-5967
▁amb	-5968
▁cap	-5969
▁cit	-5970
▁fif	-5971
▁obs	-5972
▁reb	-5973
▁rot	-5974
▁sus	-5975
▁tar	-5976
▁til	-5977
▁tug	-5978
▁unt	-5979
Every	-5980
Jesus	-5981
Simon	-5982
abuti	-5983
acter	-5984
aging	-5985
alene	-5986
aping	-5987
araan	-5988
atter	-5989
biung	-5990
derer	-5991
ented	-5992
hibat	-5993
ident	-5994
iving	-5995
ments	-5996
rough	-5997
suwoy	-5998
ukalo	-5999
undug	-6000
▁Come	-6001
▁Dear	-6002
▁Nabo	-6003
▁Step	-6004
▁ball	-6005
▁bees	-6006
▁bone	-6007
▁boot	-6008
▁bulu	-6009
▁cere	-6010
▁comb	-6011
▁crab	-6012
▁cree	-6013
▁empt	-6014
▁flog	-6015
▁hang	-6016
▁harm	-6017
▁heir	-6018
▁hell	-6019
▁ikug	-6020
▁impa	-6021
▁kern	-6022
▁lang	-6023
▁laug	-6024
▁mast	-6025
▁ogba	-6026
▁ogdi	-6027
▁pali	-6028
▁pity	-6029
▁rope	-6030
▁spit	-6031
▁stor	-6032
▁tang	-6033
▁tong	-6034
▁torn	-6035
Father	-6036
Hondio	-6037
Koykow	-6038
akitan	-6039
alogob	-6040
himuon	-6041
ibutod	-6042
itania	-6043
lessly	-6044
mugong	-6045
omotan	-6046
ountud	-6047
ration	-6048
▁Marta	-6049
▁Ogkas	-6050
▁Ogpan	-6051
▁Small	-6052
▁Titus	-6053
▁Tomas	-6054
▁bangk	-6055
▁bayok	-6056
▁begin	-6057
▁betel	-6058
▁bitil	-6059
▁bones	-6060
▁bulak	-6061
▁color	-6062
▁decor	-6063
▁dirty	-6064
▁divor	-6065
▁dried	-6066
▁drown	-6067
▁force	-6068
▁gabas	-6069
▁green	-6070
▁grows	-6071
▁hired	-6072
▁igira	-6073
▁impar	-6074
▁kalim	-6075
▁labor	-6076
▁liang	-6077
▁metal	-6078
▁moved	-6079
▁ogkar	-6080
▁pangi	-6081
▁persu	-6082
▁pinog	-6083
▁plain	-6084
▁pursu	-6085
▁shoot	-6086
▁sigay	-6087
▁swept	-6088
▁thief	-6089
alintok	-6090
buligoy	-6091
edience	-6092
hondini	-6093
ination	-6094
onditan	-6095
orongan	-6096
▁Simion	-6097
▁almost	-6098
▁alukuy	-6099
▁bogyas	-6100
▁buried	-6101
▁credit	-6102
▁daging	-6103
▁deceit	-6104
▁design	-6105
▁forced	-6106
▁fright	-6107
▁import	-6108
▁indeed	-6109
▁island	-6110
▁judges	-6111
▁kalasi	-6112
▁kawaan	-6113
▁lawful	-6114
▁mature	-6115
▁motion	-6116
▁murder	-6117
▁nangon	-6118
▁nigman	-6119
▁nigpoh	-6120
▁nootow	-6121
▁ogbasa	-6122
▁pangan	-6123
▁picked	-6124
▁piglet	-6125
▁produc	-6126
▁quarre	-6127
▁remind	-6128
▁rushed	-6129
▁sinned	-6130
▁talagt	-6131
▁tambal	-6132
▁thorns	-6133
▁twenty	-6134
▁wonder	-6135
eanwhile	-6136
▁Bitania	-6137
▁Kurintu	-6138
▁Sadusiu	-6139
▁Sagboka	-6140
▁bantaan	-6141
▁ceremon	-6142
▁closely	-6143
▁correct	-6144
▁courage	-6145
▁covered	-6146
▁deceive	-6147
▁defense	-6148
▁delight	-6149
▁deliver	-6150
▁express	-6151
▁ingalat	-6152
▁inholos	-6153
▁jealous	-6154
▁justice	-6155
▁meeting	-6156
▁ogdogil	-6157
▁ogtulin	-6158
▁paragas	-6159
▁pogkoon	-6160
▁praised	-6161
▁process	-6162
▁remains	-6163
▁ungodly	-6164
▁weaving	-6165
▁workers	-6166
adoromdom	-6167
antanuran	-6168
insinogow	-6169
ulbuligoy	-6170
▁Ogsayoon	-6171
▁Pamminog	-6172
▁alibutod	-6173
▁hardship	-6174
▁likewise	-6175
▁murdered	-6176
▁nigdakol	-6177
▁niglopow	-6178
▁nohirogo	-6179
▁ogbayung	-6180
▁ogmaroot	-6181
▁ogpakabo	-6182
▁ogsampit	-6183
▁prisoner	-6184
▁weakness	-6185
hingaranan	-6186
▁Doromdoma	-6187
▁Magdalene	-6188
▁beautiful	-6189
▁certainly	-6190
▁character	-6191
▁glorified	-6192
▁inkasulat	-6193
▁inlansang	-6194
▁kalingawi	-6195
▁nigmarani	-6196
▁offerings	-6197
▁oggoramon	-6198
▁ogkalituk	-6199
▁ogkataman	-6200
▁ogkatapid	-6201
▁ogpakaawo	-6202
▁ogpamangh	-6203
▁relatives	-6204
▁situation	-6205
▁unmarried	-6206
▁concerning	-6207
▁experience	-6208
▁igkahallok	-6209
▁igkanangon	-6210
▁proclaimed	-6211
▁recognized	-6212
▁Nignangonan	-6213
▁authorities	-6214
▁niglogparan	-6215
▁nigpallaguy	-6216
▁nigpabautismu	-6217
▁ogpangabangan	-6218
▁ogpapangumusta	-6219
bò	-6220
ps	-6221
pì	-6222
xe	-6223
▁?	-6224
His	-6225
Nak	-6226
ald	-6227
avy	-6228
bid	-6229
bot	-6230
cha	-6231
cil	-6232
erc	-6233
gar	-6234
hun	-6235
kut	-6236
oit	-6237
sal	-6238
ton	-6239
yad	-6240
zzy	-6241
▁Aw	-6242
▁Ha	-6243
▁La	-6244
▁Sy	-6245
▁pà	-6246
From	-6247
aboy	-6248
akob	-6249
atuu	-6250
emed	-6251
ibuk	-6252
igon	-6253
ilik	-6254
ilow	-6255
ilud	-6256
imua	-6257
kind	-6258
kono	-6259
lias	-6260
ongt	-6261
oppa	-6262
outh	-6263
pros	-6264
resp	-6265
sect	-6266
sive	-6267
unas	-6268
zard	-6269
▁Diò	-6270
▁Has	-6271
▁Hin	-6272
▁Isc	-6273
▁Isk	-6274
▁Mam	-6275
▁Oli	-6276
▁Put	-6277
▁abs	-6278
▁axe	-6279
▁dad	-6280
▁daw	-6281
▁eel	-6282
▁hit	-6283
▁hul	-6284
▁kum	-6285
▁lar	-6286
▁lip	-6287
▁oil	-6288
▁oli	-6289
▁pet	-6290
▁pis	-6291
▁ren	-6292
▁ret	-6293
▁tas	-6294
▁ung	-6295
These	-6296
abbas	-6297
agdok	-6298
agsil	-6299
ailan	-6300
ambag	-6301
andal	-6302
ariah	-6303
contr	-6304
erest	-6305
erson	-6306
front	-6307
goron	-6308
halin	-6309
husoy	-6310
iggle	-6311
imate	-6312
irogò	-6313
itate	-6314
itude	-6315
itute	-6316
ivity	-6317
ogkad	-6318
orong	-6319
outol	-6320
place	-6321
plain	-6322
prosy	-6323
ribut	-6324
ungul	-6325
upung	-6326
▁Acha	-6327
▁Here	-6328
▁High	-6329
▁Levi	-6330
▁Pamp	-6331
▁Pris	-6332
▁Zech	-6333
▁alam	-6334
▁bark	-6335
▁best	-6336
▁bino	-6337
▁bite	-6338
▁bold	-6339
▁bowl	-6340
▁brid	-6341
▁bugs	-6342
▁capt	-6343
▁circ	-6344
▁clay	-6345
▁colt	-6346
▁drum	-6347
▁eggs	-6348
▁fail	-6349
▁fine	-6350
▁fist	-6351
▁gent	-6352
▁grie	-6353
▁hind	-6354
▁igka	-6355
▁jeep	-6356
▁laku	-6357
▁lazy	-6358
▁liar	-6359
▁line	-6360
▁liog	-6361
▁phys	-6362
▁piak	-6363
▁pigb	-6364
▁pigl	-6365
▁plan	-6366
▁pred	-6367
▁puts	-6368
▁rejo	-6369
▁robe	-6370
▁sail	-6371
▁sees	-6372
▁siak	-6373
▁sits	-6374
▁sore	-6375
▁term	-6376
▁tiny	-6377
▁ubal	-6378
▁virg	-6379
▁warm	-6380
agaani	-6381
agmana	-6382
agsang	-6383
arance	-6384
atukan	-6385
monuon	-6386
ohirap	-6387
racted	-6388
uripon	-6389
▁Apoll	-6390
▁Davao	-6391
▁Hairu	-6392
▁Ilias	-6393
▁Joppa	-6394
▁Konad	-6395
▁Large	-6396
▁Nahan	-6397
▁Nokog	-6398
▁Ogkat	-6399
▁Olibu	-6400
▁Pilik	-6401
▁Pitow	-6402
▁Roman	-6403
▁alert	-6404
▁ampui	-6405
▁avoid	-6406
▁baluy	-6407
▁batuk	-6408
▁brush	-6409
▁bukod	-6410
▁citiz	-6411
▁const	-6412
▁diblu	-6413
▁doubt	-6414
▁earli	-6415
▁eight	-6416
▁expen	-6417
▁flour	-6418
▁frust	-6419
▁heavy	-6420
▁hikot	-6421
▁holes	-6422
▁inten	-6423
▁kasal	-6424
▁knees	-6425
▁kohon	-6426
▁kohop	-6427
▁loose	-6428
▁lubid	-6429
▁newly	-6430
▁ogbat	-6431
▁ogpag	-6432
▁ogtug	-6433
▁pogul	-6434
▁round	-6435
▁ruler	-6436
▁salag	-6437
▁sharp	-6438
▁shore	-6439
▁spare	-6440
▁steal	-6441
▁stret	-6442
▁swift	-6443
▁taloy	-6444
▁tears	-6445
▁tombs	-6446
▁towns	-6447
▁treas	-6448
▁wheat	-6449
▁worse	-6450
▁yeast	-6451
Sikoddi	-6452
alagara	-6453
amposan	-6454
andawot	-6455
arangob	-6456
asawoon	-6457
ibongan	-6458
ircumst	-6459
ogsuwoy	-6460
turanan	-6461
ulabung	-6462
▁Andrew	-6463
▁Listra	-6464
▁Magaan	-6465
▁Martha	-6466
▁Olives	-6467
▁Suduma	-6468
▁anoint	-6469
▁ascend	-6470
▁astray	-6471
▁banana	-6472
▁behalf	-6473
▁bogbog	-6474
▁bought	-6475
▁consid	-6476
▁distur	-6477
▁firmly	-6478
▁forget	-6479
▁formed	-6480
▁grains	-6481
▁guards	-6482
▁ibogoy	-6483
▁karina	-6484
▁kommag	-6485
▁mighty	-6486
▁moinit	-6487
▁needed	-6488
▁niglop	-6489
▁ogbayo	-6490
▁ogbayò	-6491
▁ogkali	-6492
▁ogpaag	-6493
▁ogpamm	-6494
▁origin	-6495
▁paraly	-6496
▁pusung	-6497
▁rebell	-6498
▁report	-6499
▁resemb	-6500
▁salapì	-6501
▁sprink	-6502
▁strang	-6503
▁street	-6504
▁supper	-6505
▁swears	-6506
▁tirigu	-6507
▁transf	-6508
▁vision	-6509
ohipanow	-6510
osolobon	-6511
▁12,000,	-6512
▁Babylon	-6513
▁Barabas	-6514
▁Nokouma	-6515
▁balagon	-6516
▁baptize	-6517
▁carabao	-6518
▁claimed	-6519
▁confess	-6520
▁earnest	-6521
▁earthly	-6522
▁fathers	-6523
▁flowers	-6524
▁happens	-6525
▁healing	-6526
▁igholos	-6527
▁igsabuk	-6528
▁leprosy	-6529
▁makogal	-6530
▁malalab	-6531
▁masalig	-6532
▁masolom	-6533
▁matters	-6534
▁mokouma	-6535
▁narinog	-6536
▁natouan	-6537
▁nigpaap	-6538
▁nohogot	-6539
▁ogkapar	-6540
▁pogpang	-6541
▁sandals	-6542
▁sounded	-6543
▁staying	-6544
▁surface	-6545
▁tempted	-6546
▁wounded	-6547
abalangon	-6548
angabangi	-6549
iberately	-6550
imtimulan	-6551
▁Hinibriu	-6552
▁Iscariot	-6553
▁Iskariot	-6554
▁Noinuinu	-6555
▁Whatever	-6556
▁alunggun	-6557
▁arrested	-6558
▁bayokbok	-6559
▁betrayed	-6560
▁circumst	-6561
▁confront	-6562
▁feathers	-6563
▁forehead	-6564
▁greatest	-6565
▁igkoibog	-6566
▁igpamula	-6567
▁impohimu	-6568
▁interrup	-6569
▁kobbiung	-6570
▁makatood	-6571
▁masabuti	-6572
▁mausilom	-6573
▁murderer	-6574
▁nigluyud	-6575
▁nikandan	-6576
▁ogkokoon	-6577
▁ogpatuli	-6578
▁panagana	-6579
▁patience	-6580
▁suddenly	-6581
▁watching	-6582
▁Babilunia	-6583
▁Meanwhile	-6584
▁Nigkagian	-6585
▁Something	-6586
▁Zechariah	-6587
▁hilamunon	-6588
▁igkoirapi	-6589
▁igpatuman	-6590
▁important	-6591
▁intention	-6592
▁listening	-6593
▁neighbors	-6594
▁nigpatuli	-6595
▁ogkaalang	-6596
▁ogkagalat	-6597
▁ogsaligan	-6598
▁persecute	-6599
▁pognangon	-6600
▁pogsagman	-6601
▁approached	-6602
▁directions	-6603
▁discussion	-6604
▁fellowship	-6605
▁foundation	-6606
▁harvesting	-6607
▁igkarangob	-6608
▁igkohirapi	-6609
▁nighinggat	-6610
▁nigtalabau	-6611
▁ogkoubatan	-6612
▁ogloinloin	-6613
▁ogpakaroog	-6614
▁punishment	-6615
▁remembered	-6616
▁sanctified	-6617
▁destruction	-6618
▁ogkapasaylu	-6619
▁ogpakabatuk	-6620
▁ogpakarogil	-6621
▁nakaroromdom	-6622
▁ogpakaligsom	-6623
▁ogtanudtanud	-6624
▁pogpangabang	-6625
▁impananglitan	-6626
▁nigbaybayaran	-6627
▁ogpasalamatan	-6628
▁nigpasalamatan	-6629
▁oglibonglibong	-6630
!'	-6631
?'	-6632
Aw	-6633
ae	-6634
eb	-6635
ex	-6636
pi	-6637
su	-6638
ym	-6639
’?	-6640
▁,	-6641
...	-6642
All	-6643
For	-6644
Igi	-6645
May	-6646
Ogp	-6647
Woy	-6648
abu	-6649
agr	-6650
bag	-6651
bak	-6652
cer	-6653
cia	-6654
iap	-6655
isf	-6656
joy	-6657
kun	-6658
lop	-6659
oip	-6660
pos	-6661
soc	-6662
zab	-6663
▁--	-6664
▁Bl	-6665
▁bi	-6666
▁ho	-6667
▁kò	-6668
▁wà	-6669
Duma	-6670
Even	-6671
Have	-6672
Ogko	-6673
Some	-6674
ache	-6675
adow	-6676
agap	-6677
agas	-6678
agol	-6679
aluy	-6680
arog	-6681
bang	-6682
bato	-6683
duce	-6684
esos	-6685
haps	-6686
ibid	-6687
ibly	-6688
ilam	-6689
imin	-6690
imit	-6691
ingi	-6692
inow	-6693
lies	-6694
oday	-6695
okog	-6696
onah	-6697
opuk	-6698
orop	-6699
otin	-6700
pani	-6701
ries	-6702
rows	-6703
ukal	-6704
ukow	-6705
ukut	-6706
ulas	-6707
ulun	-6708
what	-6709
▁Alm	-6710
▁Amo	-6711
▁Bin	-6712
▁Con	-6713
▁Had	-6714
▁Mel	-6715
▁Ogl	-6716
▁Sug	-6717
▁Was	-6718
▁ann	-6719
▁arg	-6720
▁dam	-6721
▁dro	-6722
▁eun	-6723
▁fil	-6724
▁gas	-6725
▁gun	-6726
▁hen	-6727
▁kuò	-6728
▁lum	-6729
▁lun	-6730
▁sew	-6731
Dakol	-6732
Rabbi	-6733
aanan	-6734
abasa	-6735
about	-6736
aches	-6737
agkot	-6738
ampil	-6739
ances	-6740
antog	-6741
arily	-6742
asier	-6743
atkat	-6744
groom	-6745
icing	-6746
iever	-6747
igbas	-6748
itkit	-6749
iukan	-6750
lavor	-6751
ogayi	-6752
oobos	-6753
ooked	-6754
rated	-6755
rence	-6756
right	-6757
tanow	-6758
unduk	-6759
ungus	-6760
▁Abil	-6761
▁Adam	-6762
▁Bits	-6763
▁Keep	-6764
▁Like	-6765
▁Make	-6766
▁Naan	-6767
▁Nigg	-6768
▁Pogs	-6769
▁Tars	-6770
▁Tiru	-6771
▁Very	-6772
▁Word	-6773
▁abug	-6774
▁acqu	-6775
▁asno	-6776
▁bags	-6777
▁bang	-6778
▁barr	-6779
▁belt	-6780
▁bend	-6781
▁bind	-6782
▁doct	-6783
▁ends	-6784
▁felt	-6785
▁fest	-6786
▁fled	-6787
▁flee	-6788
▁gira	-6789
▁gods	-6790
▁host	-6791
▁huge	-6792
▁hunt	-6793
▁knot	-6794
▁lips	-6795
▁lump	-6796
▁mand	-6797
▁meas	-6798
▁obst	-6799
▁ogti	-6800
▁paid	-6801
▁pigt	-6802
▁plot	-6803
▁recl	-6804
▁ride	-6805
▁rose	-6806
▁scor	-6807
▁sens	-6808
▁sums	-6809
▁sung	-6810
▁task	-6811
▁warn	-6812
▁wave	-6813
▁wept	-6814
▁wish	-6815
▁yard	-6816
Bantoy	-6817
abalan	-6818
alapan	-6819
alintu	-6820
antaan	-6821
ducees	-6822
earing	-6823
formed	-6824
golgol	-6825
ifying	-6826
imoloy	-6827
ongkag	-6828
oyawon	-6829
parent	-6830
ublaan	-6831
zabeth	-6832
▁Amana	-6833
▁Annas	-6834
▁Arist	-6835
▁Feast	-6836
▁Jonah	-6837
▁Kaniu	-6838
▁Litos	-6839
▁Ogpas	-6840
▁River	-6841
▁Takas	-6842
▁Uromo	-6843
▁Warad	-6844
▁anger	-6845
▁assoc	-6846
▁basis	-6847
▁cliff	-6848
▁creek	-6849
▁cured	-6850
▁daily	-6851
▁dwell	-6852
▁empty	-6853
▁falls	-6854
▁feast	-6855
▁fever	-6856
▁gatas	-6857
▁godly	-6858
▁guest	-6859
▁hates	-6860
▁hondo	-6861
▁honey	-6862
▁horns	-6863
▁koddì	-6864
▁lamps	-6865
▁leads	-6866
▁lever	-6867
▁lokob	-6868
▁looks	-6869
▁mabol	-6870
▁malig	-6871
▁noble	-6872
▁noose	-6873
▁ogdur	-6874
▁oghis	-6875
▁ogtub	-6876
▁oppos	-6877
▁outer	-6878
▁pagan	-6879
▁price	-6880
▁purch	-6881
▁quite	-6882
▁risen	-6883
▁sever	-6884
▁shine	-6885
▁smell	-6886
▁spend	-6887
▁stalk	-6888
▁story	-6889
▁sukat	-6890
▁suloy	-6891
▁urged	-6892
▁veget	-6893
▁wasoy	-6894
▁wives	-6895
abayung	-6896
alowbal	-6897
amporan	-6898
angkuan	-6899
itagoon	-6900
mission	-6901
onsider	-6902
ouripon	-6903
quently	-6904
ulungan	-6905
▁Achaia	-6906
▁Before	-6907
▁Dorkas	-6908
▁Hondoi	-6909
▁Kaipas	-6910
▁Rather	-6911
▁Thomas	-6912
▁Tigbal	-6913
▁accuse	-6914
▁alabat	-6915
▁bailan	-6916
▁claims	-6917
▁compet	-6918
▁cursed	-6919
▁demand	-6920
▁dinner	-6921
▁disapp	-6922
▁easier	-6923
▁either	-6924
▁eunuch	-6925
▁famine	-6926
▁former	-6927
▁hondio	-6928
▁houses	-6929
▁humble	-6930
▁landed	-6931
▁length	-6932
▁lizard	-6933
▁market	-6934
▁nearby	-6935
▁nigbab	-6936
▁ogdani	-6937
▁ogkato	-6938
▁ogpaap	-6939
▁papaya	-6940
▁permit	-6941
▁powers	-6942
▁rolled	-6943
▁sapari	-6944
▁satisf	-6945
▁scrape	-6946
▁shaken	-6947
▁shared	-6948
▁shrimp	-6949
▁silver	-6950
▁sinner	-6951
▁strips	-6952
▁strugg	-6953
▁tempor	-6954
▁transg	-6955
▁udling	-6956
▁virgin	-6957
▁wooden	-6958
Ogsayoon	-6959
antanuri	-6960
arusilom	-6961
everance	-6962
irosonan	-6963
▁Apollos	-6964
▁Bethany	-6965
▁Nigdani	-6966
▁Stephen	-6967
▁accompl	-6968
▁bakotin	-6969
▁bathing	-6970
▁bearing	-6971
▁begging	-6972
▁corners	-6973
▁created	-6974
▁deserve	-6975
▁discern	-6976
▁earlier	-6977
▁fasting	-6978
▁fingers	-6979
▁garment	-6980
▁imbayad	-6981
▁immoral	-6982
▁inhabit	-6983
▁letters	-6984
▁masters	-6985
▁nagangu	-6986
▁nanduma	-6987
▁nigsayo	-6988
▁nikaniu	-6989
▁noiniat	-6990
▁ogkalig	-6991
▁ogkoima	-6992
▁oglayag	-6993
▁oglopow	-6994
▁ogpogos	-6995
▁ogtagad	-6996
▁problem	-6997
▁refused	-6998
▁respons	-6999
▁sincere	-7000
▁squeeze	-7001
▁tightly	-7002
▁torment	-7003
▁watched	-7004
▁whisper	-7005
anglimang	-7006
▁Almighty	-7007
▁Bitsaida	-7008
▁Nigdinog	-7009
▁Pharisee	-7010
▁accepted	-7011
▁accompan	-7012
▁becoming	-7013
▁blessing	-7014
▁credited	-7015
▁diseases	-7016
▁dwelling	-7017
▁holiness	-7018
▁iglagkos	-7019
▁igsumpul	-7020
▁imbayung	-7021
▁inhondio	-7022
▁interest	-7023
▁mabolbol	-7024
▁mogtokod	-7025
▁mourning	-7026
▁nakatagu	-7027
▁nalagkos	-7028
▁nigdogil	-7029
▁noinuinu	-7030
▁ogdumoon	-7031
▁ogkaayat	-7032
▁ogpaboot	-7033
▁ogpakoon	-7034
▁ogtangko	-7035
▁ogtiboon	-7036
▁overcome	-7037
▁potatoes	-7038
▁precious	-7039
▁realized	-7040
▁required	-7041
▁separate	-7042
▁tangkulu	-7043
▁troubled	-7044
▁withdrew	-7045
lotiblotib	-7046
▁Elizabeth	-7047
▁Iskarioti	-7048
▁Magdalina	-7049
▁Ogbogayan	-7050
▁Sadducees	-7051
▁affection	-7052
▁expecting	-7053
▁firstborn	-7054
▁igmaroyow	-7055
▁imparokot	-7056
▁interpret	-7057
▁lightning	-7058
▁mogligkat	-7059
▁nakaponga	-7060
▁nigbantoy	-7061
▁nigboboot	-7062
▁ogbayaran	-7063
▁oggutasan	-7064
▁ogkaasawa	-7065
▁ogmanokal	-7066
▁ogpakabat	-7067
▁ogpasabut	-7068
▁ogsulatan	-7069
▁rebellion	-7070
▁sosolobon	-7071
▁surprised	-7072
ugongmugong	-7073
▁bridegroom	-7074
▁distressed	-7075
▁everywhere	-7076
▁impapirisu	-7077
▁lobonganan	-7078
▁nigdalapak	-7079
▁nigsoloran	-7080
▁ogkabantug	-7081
▁ogpakaboot	-7082
▁ogpakasayo	-7083
▁revelation	-7084
▁sufferings	-7085
▁surrounded	-7086
▁unbeliever	-7087
▁acknowledge	-7088
▁forgiveness	-7089
▁ogkagawayan	-7090
▁ogkatalaran	-7091
▁ogmaroyawon	-7092
▁ogpakapurut	-7093
▁ogpakasokod	-7094
▁ogpokounawa	-7095
▁instructions	-7096
▁nabaybayaran	-7097
▁nigpaagbotan	-7098
▁nigpakimatoy	-7099
▁ogbautismuan	-7100
▁ogtantanuran	-7101
▁Nigbabansagon	-7102
▁niglimudlimud	-7103
▁ogkohimatayan	-7104
▁ogpakabalabag	-7105
▁uncircumcised	-7106
▁Nabolongbolong	-7107
);	-7108
44	-7109
St	-7110
Wa	-7111
ha	-7112
ne	-7113
py	-7114
pù	-7115
▁.	-7116
Pig	-7117
Usi	-7118
Woe	-7119
cle	-7120
cut	-7121
ena	-7122
epr	-7123
hug	-7124
hul	-7125
kal	-7126
kop	-7127
lig	-7128
mba	-7129
nus	-7130
ony	-7131
otì	-7132
roc	-7133
sup	-7134
uga	-7135
who	-7136
▁Bo	-7137
▁Ex	-7138
▁Gr	-7139
▁Kr	-7140
▁ri	-7141
▁ug	-7142
Konò	-7143
Love	-7144
Tell	-7145
Very	-7146
ably	-7147
abok	-7148
acel	-7149
aged	-7150
agle	-7151
agom	-7152
alen	-7153
amin	-7154
ancy	-7155
anuy	-7156
apig	-7157
ayas	-7158
bayo	-7159
cean	-7160
cial	-7161
dish	-7162
from	-7163
ibon	-7164
icia	-7165
ikid	-7166
ilob	-7167
imun	-7168
inny	-7169
iria	-7170
just	-7171
kins	-7172
laud	-7173
lian	-7174
lima	-7175
lmed	-7176
odom	-7177
ogas	-7178
ohun	-7179
okob	-7180
omit	-7181
opos	-7182
oros	-7183
pent	-7184
ract	-7185
rain	-7186
resh	-7187
ubun	-7188
udes	-7189
ukul	-7190
uluy	-7191
unud	-7192
upan	-7193
uted	-7194
wali	-7195
▁144	-7196
▁Ali	-7197
▁Ear	-7198
▁Gin	-7199
▁Kai	-7200
▁Lot	-7201
▁Per	-7202
▁Sea	-7203
▁Tis	-7204
▁bro	-7205
▁cal	-7206
▁cel	-7207
▁emp	-7208
▁gib	-7209
▁hat	-7210
▁hum	-7211
▁jar	-7212
▁kag	-7213
▁kot	-7214
▁las	-7215
▁raw	-7216
▁sad	-7217
▁tet	-7218
▁tow	-7219
acing	-7220
aguan	-7221
agues	-7222
akang	-7223
akopa	-7224
alama	-7225
alomi	-7226
aluub	-7227
angag	-7228
angol	-7229
aputi	-7230
awalu	-7231
awoil	-7232
ayati	-7233
bedee	-7234
break	-7235
estic	-7236
ilaan	-7237
iluan	-7238
imata	-7239
imuan	-7240
infor	-7241
iopia	-7242
ipuas	-7243
isimu	-7244
itism	-7245
itoon	-7246
olkol	-7247
ongos	-7248
oping	-7249
oumow	-7250
ouple	-7251
tingu	-7252
ulate	-7253
ulioy	-7254
uruta	-7255
utter	-7256
water	-7257
▁Ipap	-7258
▁Jere	-7259
▁Kain	-7260
▁Laod	-7261
▁Last	-7262
▁Magu	-7263
▁Mark	-7264
▁Mery	-7265
▁Nigm	-7266
▁Pila	-7267
▁Rome	-7268
▁acts	-7269
▁ages	-7270
▁alas	-7271
▁alig	-7272
▁amag	-7273
▁conn	-7274
▁drag	-7275
▁duty	-7276
▁exal	-7277
▁humb	-7278
▁inno	-7279
▁kand	-7280
▁koon	-7281
▁lant	-7282
▁leap	-7283
▁less	-7284
▁lust	-7285
▁malu	-7286
▁mass	-7287
▁miss	-7288
▁mogp	-7289
▁mort	-7290
▁mutu	-7291
▁nato	-7292
▁nign	-7293
▁note	-7294
▁onow	-7295
▁seal	-7296
▁shut	-7297
▁suck	-7298
▁tamb	-7299
▁tent	-7300
▁thro	-7301
▁tied	-7302
▁tind	-7303
▁tune	-7304
▁ugat	-7305
▁uras	-7306
acious	-7307
ainted	-7308
apping	-7309
eprice	-7310
giving	-7311
gongon	-7312
ically	-7313
icious	-7314
iporan	-7315
lasing	-7316
liness	-7317
ogpari	-7318
okoban	-7319
olinoy	-7320
oloron	-7321
onduon	-7322
overed	-7323
string	-7324
uyunoy	-7325
wardly	-7326
▁Akila	-7327
▁Elena	-7328
▁Great	-7329
▁Greek	-7330
▁Hunas	-7331
▁Judah	-7332
▁Krita	-7333
▁Later	-7334
▁Nakas	-7335
▁Natan	-7336
▁Never	-7337
▁Patil	-7338
▁Place	-7339
▁Sodom	-7340
▁Valen	-7341
▁alibu	-7342
▁angga	-7343
▁balat	-7344
▁balun	-7345
▁beads	-7346
▁bulut	-7347
▁dilig	-7348
▁drove	-7349
▁error	-7350
▁exact	-7351
▁exerc	-7352
▁faces	-7353
▁fetch	-7354
▁fragr	-7355
▁hairs	-7356
▁igkab	-7357
▁igpas	-7358
▁insul	-7359
▁invol	-7360
▁kabil	-7361
▁karay	-7362
▁kibol	-7363
▁knock	-7364
▁laugh	-7365
▁loses	-7366
▁nakag	-7367
▁names	-7368
▁ocean	-7369
▁oglan	-7370
▁ogpon	-7371
▁olive	-7372
▁prove	-7373
▁recip	-7374
▁sayaa	-7375
▁sayop	-7376
▁sends	-7377
▁songs	-7378
▁space	-7379
▁spent	-7380
▁tails	-7381
▁thigh	-7382
▁walls	-7383
▁waves	-7384
▁weary	-7385
▁winds	-7386
▁wines	-7387
▁wrest	-7388
Because	-7389
alunika	-7390
ambogoy	-7391
emption	-7392
hagtong	-7393
ibility	-7394
igtawan	-7395
ingsing	-7396
whelmed	-7397
▁Andres	-7398
▁Arimat	-7399
▁Balaam	-7400
▁Doming	-7401
▁Having	-7402
▁Nasuli	-7403
▁Nohimu	-7404
▁Ogkagi	-7405
▁Others	-7406
▁action	-7407
▁amount	-7408
▁appeal	-7409
▁ataboy	-7410
▁atolug	-7411
▁attend	-7412
▁bantug	-7413
▁bulung	-7414
▁chewed	-7415
▁chicks	-7416
▁comfor	-7417
▁cooked	-7418
▁couple	-7419
▁dalama	-7420
▁denied	-7421
▁flavor	-7422
▁flower	-7423
▁fruits	-7424
▁gained	-7425
▁growth	-7426
▁handle	-7427
▁helped	-7428
▁hollow	-7429
▁hurled	-7430
▁igbuyu	-7431
▁igpang	-7432
▁mouths	-7433
▁naroog	-7434
▁nearly	-7435
▁noubus	-7436
▁obtain	-7437
▁oghilu	-7438
▁ogmaal	-7439
▁ogpoul	-7440
▁pagans	-7441
▁pakpak	-7442
▁proved	-7443
▁pulled	-7444
▁puntuk	-7445
▁rebuke	-7446
▁shadow	-7447
▁showed	-7448
▁snakes	-7449
▁stream	-7450
▁tagkos	-7451
▁yellow	-7452
alasulod	-7453
lingotan	-7454
ogdongan	-7455
umalagon	-7456
▁Alihand	-7457
▁Corinth	-7458
▁Gentile	-7459
▁However	-7460
▁Nigduma	-7461
▁Ogkohoy	-7462
▁Zebedee	-7463
▁belongs	-7464
▁benefit	-7465
▁citizen	-7466
▁daragun	-7467
▁exposed	-7468
▁finally	-7469
▁freedom	-7470
▁guarant	-7471
▁healthy	-7472
▁herself	-7473
▁highest	-7474
▁hipanow	-7475
▁igsapad	-7476
▁igsokod	-7477
▁igtahud	-7478
▁include	-7479
▁intabak	-7480
▁kalabow	-7481
▁lawless	-7482
▁leaning	-7483
▁mababow	-7484
▁maistru	-7485
▁mankind	-7486
▁messeng	-7487
▁natural	-7488
▁nigtubu	-7489
▁ogkabay	-7490
▁oglapas	-7491
▁ogligad	-7492
▁oglituk	-7493
▁ogliwan	-7494
▁ogluyud	-7495
▁ogpakag	-7496
▁passing	-7497
▁plagues	-7498
▁pointed	-7499
▁protect	-7500
▁putting	-7501
▁related	-7502
▁sagmana	-7503
▁scratch	-7504
▁several	-7505
▁sinning	-7506
▁support	-7507
▁teaches	-7508
▁weather	-7509
▁working	-7510
▁Consider	-7511
▁Ginirigu	-7512
▁Kapalong	-7513
▁Oghondio	-7514
▁Valencia	-7515
▁affected	-7516
▁arranged	-7517
▁covering	-7518
▁determin	-7519
▁distress	-7520
▁festival	-7521
▁goodness	-7522
▁husbands	-7523
▁increase	-7524
▁inggalat	-7525
▁kalayati	-7526
▁location	-7527
▁nakaamut	-7528
▁nigkolog	-7529
▁nigtagbu	-7530
▁nigtuuan	-7531
▁obedient	-7532
▁officers	-7533
▁ogbayaan	-7534
▁oggongon	-7535
▁ogkabuhi	-7536
▁ogkamolu	-7537
▁ogkoulug	-7538
▁oglangub	-7539
▁oglogsad	-7540
▁ogpamula	-7541
▁ogparoog	-7542
▁patiukan	-7543
▁praising	-7544
▁problima	-7545
▁produced	-7546
▁promises	-7547
▁publicly	-7548
▁sasindog	-7549
▁sexually	-7550
▁subjects	-7551
▁talangas	-7552
▁transfer	-7553
▁Pogkataga	-7554
▁disciplin	-7555
▁endurance	-7556
▁expensive	-7557
▁followers	-7558
▁impahatod	-7559
▁impasabut	-7560
▁increased	-7561
▁kalimmaan	-7562
▁kasagboka	-7563
▁limuranan	-7564
▁nighondii	-7565
▁nigkokoon	-7566
▁nigpoomot	-7567
▁officials	-7568
▁ogdogilon	-7569
▁ogkalagak	-7570
▁ogmalotoy	-7571
▁ogpalawod	-7572
▁ogsabukan	-7573
▁ogsaparan	-7574
▁overcomes	-7575
▁poglogpad	-7576
▁possessed	-7577
▁prisoners	-7578
▁privately	-7579
▁returning	-7580
▁testified	-7581
▁testifies	-7582
▁tradition	-7583
▁treatment	-7584
▁wineskins	-7585
▁Matuwarong	-7586
▁Tisalunika	-7587
▁appearance	-7588
▁difficulty	-7589
▁favoritism	-7590
▁frightened	-7591
▁frustrated	-7592
▁igduwaruwa	-7593
▁igkoinuinu	-7594
▁nanhipanow	-7595
▁niggutasan	-7596
▁nighimatoy	-7597
▁nigsaligan	-7598
▁nigtugunan	-7599
▁ogkalasing	-7600
▁ogpakaraat	-7601
▁ogpokoiman	-7602
▁ogsumpalit	-7603
▁redemption	-7604
▁sacrificed	-7605
▁Ogkoiniatan	-7606
▁destination	-7607
▁inhabitants	-7608
▁nakasinogow	-7609
▁nigdoromdom	-7610
▁nigpohitaga	-7611
▁ogkatangkob	-7612
▁ogkohirapan	-7613
▁ogkoilingan	-7614
▁overwhelmed	-7615
▁patalasulod	-7616
▁proclaiming	-7617
▁igpangulibot	-7618
▁nigpangabang	-7619
▁ogbalbalawan	-7620
▁ogbayadbayad	-7621
▁ogkabobootan	-7622
▁ogpamanghoon	-7623
▁ogpamminogan	-7624
▁perseverance	-7625
▁circumstances	-7626
▁intentionally	-7627
▁nigsusumpalit	-7628
▁nigpangabangan	-7629
gr	-7630
ix	-7631
lù	-7632
▁-	-7633
▁2	-7634
Kai	-7635
Men	-7636
Ogd	-7637
aca	-7638
apu	-7639
aws	-7640
bit	-7641
bun	-7642
eed	-7643
een	-7644
eks	-7645
erv	-7646
hoo	-7647
iel	-7648
ils	-7649
kad	-7650
kom	-7651
kot	-7652
lag	-7653
ley	-7654
loi	-7655
moi	-7656
nut	-7657
pal	-7658
ras	-7659
rod	-7660
sad	-7661
sil	-7662
ubu	-7663
uls	-7664
ulò	-7665
urù	-7666
uwo	-7667
yss	-7668
▁15	-7669
▁Cl	-7670
▁Il	-7671
▁Mo	-7672
▁Pl	-7673
▁Sk	-7674
▁ow	-7675
▁ox	-7676
▁ti	-7677
Amoy	-7678
John	-7679
Kona	-7680
Pila	-7681
adab	-7682
agam	-7683
ahag	-7684
ails	-7685
alus	-7686
anda	-7687
angi	-7688
anon	-7689
aper	-7690
apes	-7691
ariu	-7692
arua	-7693
aton	-7694
avel	-7695
crip	-7696
elze	-7697
erer	-7698
ewed	-7699
flow	-7700
four	-7701
igar	-7702
inid	-7703
iple	-7704
ipri	-7705
itru	-7706
made	-7707
monu	-7708
obol	-7709
omaw	-7710
onat	-7711
orog	-7712
osit	-7713
osob	-7714
osut	-7715
otan	-7716
play	-7717
pper	-7718
thew	-7719
time	-7720
uddo	-7721
ukon	-7722
ulit	-7723
ulog	-7724
usud	-7725
uton	-7726
uwad	-7727
ymph	-7728
▁Amp	-7729
▁Ask	-7730
▁Cep	-7731
▁Ins	-7732
▁Its	-7733
▁Nic	-7734
▁Nik	-7735
▁Out	-7736
▁Pak	-7737
▁Pap	-7738
▁Pir	-7739
▁Pra	-7740
▁Reg	-7741
▁Rep	-7742
▁Ter	-7743
▁Tin	-7744
▁Usi	-7745
▁awo	-7746
▁hos	-7747
▁hun	-7748
▁inj	-7749
▁kay	-7750
▁key	-7751
▁kur	-7752
▁nut	-7753
▁owe	-7754
▁rad	-7755
▁sne	-7756
▁ste	-7757
▁tir	-7758
▁val	-7759
▁wol	-7760
Litos	-7761
Sulod	-7762
Their	-7763
Watch	-7764
abayò	-7765
alkuy	-7766
aloin	-7767
andig	-7768
andog	-7769
anggì	-7770
anket	-7771
anlas	-7772
arden	-7773
asted	-7774
aster	-7775
ayang	-7776
enced	-7777
erday	-7778
honat	-7779
ibood	-7780
icted	-7781
ikagi	-7782
imbal	-7783
iment	-7784
ingki	-7785
itary	-7786
ituan	-7787
joice	-7788
kuniu	-7789
labow	-7790
lease	-7791
lehem	-7792
luhud	-7793
ogota	-7794
ologi	-7795
ongol	-7796
oples	-7797
orant	-7798
plane	-7799
print	-7800
reams	-7801
ropri	-7802
sasow	-7803
songo	-7804
stone	-7805
ungkù	-7806
untit	-7807
using	-7808
verse	-7809
wards	-7810
▁Alph	-7811
▁Aram	-7812
▁Does	-7813
▁Love	-7814
▁Nath	-7815
▁Noah	-7816
▁Only	-7817
▁Pogd	-7818
▁Pray	-7819
▁Sara	-7820
▁Stop	-7821
▁Tell	-7822
▁Thus	-7823
▁Tyre	-7824
▁abal	-7825
▁ampu	-7826
▁ayad	-7827
▁dare	-7828
▁dawn	-7829
▁deny	-7830
▁disg	-7831
▁dugi	-7832
▁dump	-7833
▁eats	-7834
▁exam	-7835
▁exch	-7836
▁gnas	-7837
▁grey	-7838
▁idle	-7839
▁igtu	-7840
▁inqu	-7841
▁kali	-7842
▁kara	-7843
▁lest	-7844
▁ling	-7845
▁luck	-7846
▁lugì	-7847
▁mani	-7848
▁moug	-7849
▁napu	-7850
▁niug	-7851
▁nois	-7852
▁noko	-7853
▁noon	-7854
▁ogdu	-7855
▁ogho	-7856
▁oglo	-7857
▁oglu	-7858
▁olog	-7859
▁pear	-7860
▁poke	-7861
▁prey	-7862
▁rede	-7863
▁rely	-7864
▁ripe	-7865
▁salò	-7866
▁sang	-7867
▁sell	-7868
▁sets	-7869
▁soak	-7870
▁stud	-7871
▁tall	-7872
▁tamp	-7873
▁taro	-7874
▁tigg	-7875
▁toss	-7876
▁ubun	-7877
▁unoy	-7878
▁vain	-7879
▁vict	-7880
Nataga	-7881
agpits	-7882
akoban	-7883
akogal	-7884
alabau	-7885
alipun	-7886
alogon	-7887
aluhud	-7888
ambabo	-7889
apolis	-7890
aritan	-7891
avened	-7892
ayagan	-7893
ayunan	-7894
chized	-7895
iaphas	-7896
ibidiu	-7897
ieving	-7898
lingoy	-7899
okouma	-7900
ounced	-7901
ructed	-7902
stairs	-7903
ugpaan	-7904
ulugon	-7905
umitru	-7906
▁	-7907
o	-7908
a	-7909
n	-7910
i	-7911
t	-7912
e	-7913
g	-7914
s	-7915
u	-7916
k	-7917
d	-7918
r	-7919
h	-7920
l	-7921
m	-7922
w	-7923
b	-7924
y	-7925
p	-7926
,	-7927
.	-7928
f	-7929
c	-7930
-	-7931
v	-7932
H	-7933
I	-7934
M	-7935
K	-7936
N	-7937
T	-7938
S	-7939
“	-7940
A	-7941
”	-7942
P	-7943
D	-7944
W	-7945
ò	-7946
G	-7947
J	-7948
"	-7949
L	-7950
B	-7951
O	-7952
?	-7953
’	-7954
;	-7955
'	-7956
F	-7957
C	-7958
j	-7959
–	-7960
x	-7961
[	-7962
]	-7963
‘	-7964
:	-7965
!	-7966
z	-7967
Y	-7968
E	-7969
(	-7970
)	-7971
q	-7972
ù	-7973
ì	-7974
R	-7975
U	-7976
—	-7977
/	-7978
à	-7979
0	-7980
1	-7981
Z	-7982
2	-7983
V	-7984
6	-7985
4	-7986
5	-7987
3	-7988
Q	-7989
9	-7990
7	-7991
|	-7992
8	-7993
`	-7994
}	-7995
&	-7996
