<unk>	0
<s>	0
</s>	0
▁t	-0
he	-1
▁a	-2
▁w	-3
▁the	-4
▁s	-5
in	-6
▁o	-7
re	-8
▁b	-9
▁i	-10
▁h	-11
ou	-12
nd	-13
▁f	-14
▁to	-15
▁c	-16
er	-17
at	-18
ed	-19
▁m	-20
es	-21
▁and	-22
▁p	-23
▁d	-24
ll	-25
or	-26
ing	-27
▁of	-28
on	-29
▁th	-30
is	-31
▁y	-32
en	-33
▁g	-34
▁l	-35
▁you	-36
▁be	-37
▁he	-38
om	-39
it	-40
▁n	-41
▁wh	-42
▁in	-43
us	-44
an	-45
as	-46
ar	-47
ot	-48
ve	-49
▁is	-50
ut	-51
ow	-52
▁e	-53
▁we	-54
▁ha	-55
le	-56
▁on	-57
ill	-58
im	-59
▁j	-60
▁for	-61
ay	-62
od	-63
▁that	-64
se	-65
▁it	-66
id	-67
▁re	-68
▁will	-69
▁who	-70
et	-71
ac	-72
her	-73
▁as	-74
ld	-75
ith	-76
▁not	-77
ic	-78
ir	-79
▁they	-80
▁him	-81
ver	-82
gh	-83
ent	-84
▁with	-85
▁r	-86
ur	-87
▁sa	-88
▁k	-89
▁was	-90
▁an	-91
▁are	-92
▁whe	-93
▁st	-94
ly	-95
▁fr	-96
▁u	-97
am	-98
▁his	-99
al	-100
ome	-101
▁have	-102
ad	-103
▁do	-104
▁ch	-105
▁but	-106
ak	-107
▁them	-108
▁god	-109
st	-110
▁or	-111
▁when	-112
▁from	-113
▁bec	-114
▁so	-115
ght	-116
ion	-117
▁se	-118
▁me	-119
esus	-120
▁jesus	-121
▁li	-122
ce	-123
ers	-124
op	-125
▁sp	-126
▁pr	-127
▁your	-128
▁go	-129
one	-130
▁this	-131
▁if	-132
▁one	-133
▁by	-134
all	-135
ord	-136
▁de	-137
use	-138
il	-139
▁man	-140
th	-141
ul	-142
ain	-143
ven	-144
▁sh	-145
▁has	-146
▁what	-147
▁all	-148
ist	-149
▁there	-150
ause	-151
ess	-152
ge	-153
red	-154
▁said	-155
▁because	-156
ri	-157
▁at	-158
est	-159
▁my	-160
▁ab	-161
ie	-162
rou	-163
▁were	-164
ose	-165
ch	-166
▁out	-167
ore	-168
▁te	-169
▁had	-170
▁al	-171
ra	-172
ant	-173
▁then	-174
ame	-175
▁up	-176
▁us	-177
▁pe	-178
and	-179
ok	-180
ight	-181
ong	-182
nt	-183
▁lo	-184
ft	-185
ich	-186
other	-187
ind	-188
▁le	-189
▁com	-190
ct	-191
hing	-192
▁kn	-193
ip	-194
out	-195
ive	-196
ust	-197
ard	-198
▁ne	-199
▁am	-200
▁some	-201
▁their	-202
▁which	-203
▁su	-204
▁br	-205
ake	-206
▁pl	-207
very	-208
▁no	-209
▁lord	-210
ves	-211
▁wor	-212
ace	-213
pp	-214
▁peop	-215
▁our	-216
ould	-217
▁people	-218
▁int	-219
um	-220
▁dis	-221
fe	-222
ather	-223
el	-224
ep	-225
▁know	-226
▁con	-227
▁ag	-228
os	-229
▁those	-230
▁fe	-231
ild	-232
les	-233
▁tr	-234
ab	-235
▁say	-236
ings	-237
ther	-238
ast	-239
ke	-240
▁her	-241
sel	-242
row	-243
▁any	-244
rist	-245
▁come	-246
▁she	-247
▁pers	-248
▁bl	-249
▁about	-250
▁christ	-251
▁v	-252
ved	-253
ig	-254
▁into	-255
ood	-256
▁person	-257
▁day	-258
res	-259
ous	-260
▁every	-261
▁sin	-262
▁father	-263
pt	-264
reat	-265
▁other	-266
ice	-267
ied	-268
▁cl	-269
▁been	-270
▁can	-271
▁did	-272
way	-273
ish	-274
ree	-275
fore	-276
ate	-277
qu	-278
ked	-279
irit	-280
art	-281
▁co	-282
▁spirit	-283
ud	-284
▁son	-285
▁la	-286
▁again	-287
▁hou	-288
▁tim	-289
ach	-290
ation	-291
omet	-292
▁came	-293
own	-294
▁somet	-295
ide	-296
▁wat	-297
so	-298
▁now	-299
▁call	-300
▁over	-301
▁something	-302
ry	-303
▁child	-304
▁ex	-305
▁fa	-306
un	-307
▁un	-308
ack	-309
▁ho	-310
if	-311
▁bel	-312
▁disc	-313
hed	-314
▁see	-315
▁house	-316
ick	-317
ness	-318
ity	-319
▁like	-320
ont	-321
▁went	-322
▁spe	-323
▁rep	-324
rough	-325
ag	-326
ound	-327
▁through	-328
▁off	-329
are	-330
ise	-331
ving	-332
urn	-333
▁tw	-334
▁gi	-335
▁time	-336
▁good	-337
ter	-338
ered	-339
▁just	-340
▁ear	-341
▁how	-342
▁may	-343
▁also	-344
ath	-345
wn	-346
▁ac	-347
ave	-348
▁down	-349
▁many	-350
▁gr	-351
▁does	-352
▁someone	-353
ile	-354
▁brother	-355
▁word	-356
▁fo	-357
orn	-358
▁ro	-359
self	-360
▁hand	-361
▁hea	-362
▁law	-363
▁things	-364
nder	-365
round	-366
▁tell	-367
▁jo	-368
itt	-369
▁faith	-370
▁kind	-371
▁wr	-372
▁discip	-373
me	-374
▁give	-375
ol	-376
▁its	-377
iz	-378
ment	-379
▁belie	-380
fter	-381
▁water	-382
▁after	-383
▁let	-384
hes	-385
ure	-386
▁even	-387
▁would	-388
ine	-389
▁heaven	-390
ew	-391
▁put	-392
ade	-393
llow	-394
▁ar	-395
▁eat	-396
▁away	-397
▁right	-398
▁jud	-399
ort	-400
▁before	-401
ap	-402
mp	-403
▁ser	-404
▁great	-405
▁where	-406
ue	-407
▁bod	-408
▁fl	-409
▁these	-410
▁gl	-411
▁mar	-412
ful	-413
ect	-414
▁make	-415
▁get	-416
▁per	-417
▁pre	-418
▁under	-419
▁cr	-420
▁asked	-421
ink	-422
ren	-423
▁bo	-424
▁saw	-425
▁way	-426
▁en	-427
▁men	-428
our	-429
▁take	-430
▁place	-431
uth	-432
▁sc	-433
thing	-434
▁disciples	-435
age	-436
led	-437
ever	-438
▁made	-439
▁become	-440
▁sl	-441
▁fir	-442
▁called	-443
▁prop	-444
ro	-445
▁beg	-446
▁wom	-447
▁long	-448
▁against	-449
▁love	-450
▁king	-451
▁pa	-452
ts	-453
ull	-454
ies	-455
ire	-456
▁body	-457
▁comp	-458
read	-459
▁life	-460
ia	-461
▁another	-462
mb	-463
ost	-464
▁two	-465
▁look	-466
ck	-467
▁own	-468
sp	-469
▁than	-470
▁speak	-471
▁sm	-472
ount	-473
▁heard	-474
ite	-475
▁name	-476
▁anyone	-477
oss	-478
▁paul	-479
▁acc	-480
▁each	-481
▁world	-482
▁brothers	-483
get	-484
ance	-485
▁app	-486
▁back	-487
dom	-488
▁more	-489
▁teac	-490
ans	-491
▁jew	-492
▁only	-493
▁want	-494
▁ad	-495
ally	-496
▁whom	-497
alk	-498
ass	-499
▁work	-500
▁ra	-501
▁crow	-502
▁dont	-503
▁ones	-504
▁earth	-505
▁first	-506
▁ca	-507
▁po	-508
ars	-509
▁sw	-510
ough	-511
▁should	-512
ised	-513
ble	-514
eter	-515
▁str	-516
▁cont	-517
▁sent	-518
ened	-519
ress	-520
▁des	-521
▁pro	-522
ried	-523
▁used	-524
selves	-525
▁follow	-526
ang	-527
able	-528
▁pri	-529
▁gods	-530
▁pray	-531
gether	-532
ions	-533
▁together	-534
▁ent	-535
ale	-536
▁left	-537
▁comm	-538
▁dead	-539
▁holy	-540
▁ph	-541
lied	-542
▁rece	-543
▁serv	-544
cl	-545
sw	-546
arge	-547
▁glor	-548
▁here	-549
▁given	-550
ower	-551
▁yet	-552
▁head	-553
▁very	-554
▁peter	-555
▁prophe	-556
▁children	-557
og	-558
igh	-559
▁why	-560
▁answ	-561
ign	-562
ated	-563
▁bet	-564
▁among	-565
▁priest	-566
▁replied	-567
▁mo	-568
▁qu	-569
--	-570
em	-571
oth	-572
ning	-573
▁same	-574
▁tree	-575
▁going	-576
▁stand	-577
▁bu	-578
▁gave	-579
▁must	-580
▁dr	-581
▁cut	-582
▁rice	-583
▁while	-584
hn	-585
vil	-586
ants	-587
▁john	-588
▁heart	-589
▁mother	-590
sh	-591
eep	-592
gel	-593
▁ey	-594
ield	-595
▁days	-596
▁fish	-597
▁told	-598
▁woman	-599
ff	-600
ted	-601
▁around	-602
▁himself	-603
ase	-604
ught	-605
▁ob	-606
▁bir	-607
▁test	-608
med	-609
▁ap	-610
▁took	-611
▁being	-612
ult	-613
▁mat	-614
▁well	-615
▁angel	-616
▁crowd	-617
▁car	-618
▁still	-619
▁therefore	-620
▁tak	-621
▁hear	-622
ence	-623
less	-624
▁jer	-625
▁power	-626
amb	-627
▁el	-628
▁gu	-629
▁im	-630
▁op	-631
illed	-632
▁happ	-633
▁ask	-634
▁unt	-635
▁kingdom	-636
ared	-637
oke	-638
▁ord	-639
ors	-640
▁exp	-641
▁light	-642
▁believe	-643
alem	-644
eous	-645
imon	-646
ship	-647
▁rem	-648
▁res	-649
▁keep	-650
▁live	-651
usalem	-652
▁field	-653
▁jerusalem	-654
iver	-655
▁ret	-656
▁death	-657
▁small	-658
▁answered	-659
iv	-660
uit	-661
▁gre	-662
▁new	-663
▁jews	-664
▁such	-665
▁temp	-666
▁da	-667
side	-668
▁turn	-669
▁truth	-670
▁others	-671
▁everything	-672
ng	-673
▁att	-674
▁tra	-675
▁fall	-676
▁everyone	-677
ung	-678
▁since	-679
▁until	-680
▁lea	-681
▁fire	-682
▁grace	-683
▁righteous	-684
ned	-685
not	-686
▁cle	-687
▁large	-688
▁might	-689
▁set	-690
▁brou	-691
▁found	-692
▁brought	-693
ark	-694
▁evil	-695
▁high	-696
▁teacher	-697
ged	-698
ized	-699
▁pig	-700
▁food	-701
▁need	-702
▁coming	-703
▁ye	-704
ward	-705
▁end	-706
itten	-707
▁glory	-708
▁never	-709
▁return	-710
▁command	-711
we	-712
uch	-713
ious	-714
▁corn	-715
▁part	-716
▁fruit	-717
umb	-718
▁har	-719
▁comes	-720
▁could	-721
▁without	-722
▁written	-723
▁ba	-724
▁gent	-725
▁whole	-726
▁temple	-727
▁pay	-728
▁done	-729
▁words	-730
▁nothing	-731
mon	-732
str	-733
▁fin	-734
▁able	-735
irc	-736
ways	-737
▁feet	-738
▁cannot	-739
▁saying	-740
bb	-741
ham	-742
oice	-743
ction	-744
▁full	-745
▁shall	-746
▁always	-747
▁whoever	-748
aim	-749
▁bapt	-750
▁chur	-751
▁wa	-752
▁mak	-753
▁red	-754
▁show	-755
▁blood	-756
▁anything	-757
ary	-758
▁af	-759
▁ta	-760
ison	-761
▁though	-762
te	-763
att	-764
ert	-765
ife	-766
aled	-767
▁tri	-768
▁fore	-769
▁began	-770
▁bring	-771
▁peace	-772
act	-773
cept	-774
head	-775
ived	-776
essed	-777
▁much	-778
▁pass	-779
▁walk	-780
▁chick	-781
▁hands	-782
▁three	-783
▁sk	-784
outh	-785
uthor	-786
▁appe	-787
▁eyes	-788
▁taken	-789
▁author	-790
▁compan	-791
lp	-792
ump	-793
▁old	-794
▁clot	-795
▁mess	-796
▁says	-797
▁night	-798
▁plant	-799
▁think	-800
▁ground	-801
be	-802
▁wo	-803
ying	-804
▁rel	-805
▁hard	-806
▁drink	-807
oses	-808
▁conf	-809
▁send	-810
▁river	-811
co	-812
iles	-813
ject	-814
ting	-815
▁imp	-816
▁bird	-817
▁city	-818
▁mount	-819
pe	-820
ason	-821
▁pur	-822
stand	-823
▁find	-824
▁lead	-825
▁phar	-826
▁wood	-827
▁living	-828
oo	-829
ens	-830
▁ill	-831
ittle	-832
▁help	-833
▁seed	-834
▁sins	-835
▁throw	-836
ief	-837
ize	-838
ling	-839
oney	-840
▁sat	-841
▁sur	-842
▁cons	-843
▁hold	-844
▁servant	-845
ern	-846
ial	-847
oud	-848
▁sy	-849
▁ple	-850
▁dark	-851
▁stay	-852
▁little	-853
▁pharise	-854
az	-855
leep	-856
spel	-857
ified	-858
▁abra	-859
▁pres	-860
▁prom	-861
▁mouth	-862
▁seven	-863
▁white	-864
▁gospel	-865
cy	-866
iah	-867
▁bar	-868
▁pat	-869
▁ever	-870
▁list	-871
▁seen	-872
▁sign	-873
ty	-874
amp	-875
ily	-876
ches	-877
rael	-878
▁bur	-879
▁war	-880
ached	-881
ircum	-882
▁dest	-883
▁kill	-884
▁open	-885
▁israel	-886
▁abraham	-887
ey	-888
lf	-889
vest	-890
▁sun	-891
▁fell	-892
▁apost	-893
▁priests	-894
▁understand	-895
ced	-896
ual	-897
ible	-898
tern	-899
▁che	-900
▁cur	-901
▁use	-902
▁forg	-903
▁hair	-904
▁mind	-905
▁near	-906
▁sist	-907
▁prophets	-908
▁yourselves	-909
ify	-910
ope	-911
ited	-912
ately	-913
ished	-914
▁dist	-915
▁home	-916
▁cross	-917
▁demon	-918
▁order	-919
▁gentiles	-920
▁authority	-921
ib	-922
ub	-923
vel	-924
▁died	-925
▁judg	-926
▁once	-927
▁side	-928
▁talk	-929
▁along	-930
▁doing	-931
▁whose	-932
▁strong	-933
▁pharisees	-934
ains	-935
oken	-936
raid	-937
▁bre	-938
▁del	-939
▁sub	-940
▁bread	-941
▁money	-942
▁moses	-943
ci	-944
▁sn	-945
iend	-946
▁gal	-947
▁care	-948
▁read	-949
▁suff	-950
▁begin	-951
▁leave	-952
▁friend	-953
▁harvest	-954
vid	-955
omes	-956
ones	-957
▁cat	-958
▁hum	-959
▁rec	-960
▁reg	-961
▁sound	-962
▁church	-963
▁received	-964
ah	-965
int	-966
▁es	-967
ched	-968
▁div	-969
▁sal	-970
▁sit	-971
▁gift	-972
▁thir	-973
▁voice	-974
ug	-975
for	-976
ove	-977
▁hor	-978
▁bamb	-979
▁afraid	-980
▁became	-981
▁contin	-982
▁suffer	-983
▁whatever	-984
ix	-985
fic	-986
ote	-987
▁ind	-988
▁mer	-989
▁last	-990
▁wife	-991
ircumc	-992
▁listen	-993
ks	-994
ider	-995
ring	-996
▁nor	-997
▁ref	-998
▁else	-999
▁land	-1000
▁rest	-1001
▁wont	-1002
▁clear	-1003
▁enter	-1004
▁simon	-1005
▁accord	-1006
▁bamboo	-1007
▁galile	-1008
▁receive	-1009
als	-1010
thy	-1011
▁hu	-1012
vers	-1013
▁dif	-1014
▁vis	-1015
▁arri	-1016
▁mean	-1017
▁prep	-1018
▁town	-1019
ations	-1020
▁build	-1021
▁young	-1022
▁reason	-1023
▁teaching	-1024
▁righteousness	-1025
old	-1026
▁beh	-1027
▁dec	-1028
▁lit	-1029
▁sac	-1030
▁cond	-1031
▁raised	-1032
▁blessed	-1033
ze	-1034
ulf	-1035
ute	-1036
▁bab	-1037
▁bad	-1038
▁par	-1039
▁too	-1040
▁tre	-1041
▁mary	-1042
▁poss	-1043
▁chief	-1044
▁creat	-1045
▁known	-1046
▁short	-1047
▁prison	-1048
pr	-1049
ket	-1050
nag	-1051
fect	-1052
▁bas	-1053
▁die	-1054
▁joy	-1055
nagog	-1056
▁mast	-1057
▁sold	-1058
▁ahead	-1059
▁greet	-1060
▁perse	-1061
▁stood	-1062
▁longer	-1063
▁chicken	-1064
▁galilee	-1065
▁synagog	-1066
▁worship	-1067
xt	-1068
ces	-1069
oura	-1070
▁got	-1071
▁hes	-1072
▁unc	-1073
▁stop	-1074
▁blind	-1075
▁sleep	-1076
▁watch	-1077
▁leaves	-1078
▁teachers	-1079
ob	-1080
ph	-1081
ept	-1082
ret	-1083
aced	-1084
lesh	-1085
rent	-1086
▁dog	-1087
▁eld	-1088
▁gen	-1089
▁feel	-1090
▁move	-1091
▁horse	-1092
▁having	-1093
▁hearts	-1094
▁prophet	-1095
▁judgment	-1096
den	-1097
uct	-1098
memb	-1099
▁pie	-1100
▁pra	-1101
▁hope	-1102
▁flesh	-1103
▁angels	-1104
▁doesnt	-1105
▁rememb	-1106
ier	-1107
the	-1108
ient	-1109
ives	-1110
ures	-1111
ween	-1112
▁hus	-1113
▁sil	-1114
ought	-1115
ready	-1116
▁baby	-1117
▁grow	-1118
▁stra	-1119
▁vill	-1120
▁boast	-1121
▁lives	-1122
▁already	-1123
▁between	-1124
▁apostles	-1125
▁happened	-1126
lc	-1127
alm	-1128
mor	-1129
rew	-1130
band	-1131
▁enc	-1132
▁sea	-1133
▁thr	-1134
▁tou	-1135
▁both	-1136
▁fulf	-1137
▁vine	-1138
▁count	-1139
▁instr	-1140
▁sacri	-1141
▁comple	-1142
ense	-1143
ript	-1144
▁add	-1145
▁inv	-1146
▁wit	-1147
▁coll	-1148
▁fear	-1149
▁four	-1150
▁free	-1151
▁next	-1152
▁supp	-1153
▁true	-1154
▁break	-1155
▁eating	-1156
▁sisters	-1157
▁speaking	-1158
gg	-1159
uc	-1160
eds	-1161
ater	-1162
▁act	-1163
ained	-1164
ently	-1165
ledge	-1166
rying	-1167
▁char	-1168
▁numb	-1169
▁wind	-1170
ention	-1171
▁david	-1172
▁quick	-1173
▁teach	-1174
▁elders	-1175
▁making	-1176
▁spread	-1177
▁believed	-1178
▁standing	-1179
aw	-1180
iss	-1181
▁nam	-1182
▁anim	-1183
▁born	-1184
▁step	-1185
ternal	-1186
▁guard	-1187
▁mercy	-1188
▁thing	-1189
▁women	-1190
▁fellow	-1191
▁themselves	-1192
ott	-1193
ray	-1194
ased	-1195
ined	-1196
▁ins	-1197
▁wis	-1198
▁dece	-1199
▁trap	-1200
▁weak	-1201
▁welc	-1202
▁gener	-1203
▁judge	-1204
▁shout	-1205
▁belong	-1206
▁circumc	-1207
▁eternal	-1208
▁husband	-1209
oc	-1210
pl	-1211
ped	-1212
ues	-1213
▁ed	-1214
rest	-1215
▁cam	-1216
▁hon	-1217
▁hur	-1218
▁swe	-1219
attan	-1220
▁burn	-1221
▁cent	-1222
▁requ	-1223
▁twel	-1224
▁means	-1225
▁stone	-1226
▁looked	-1227
▁outside	-1228
▁present	-1229
▁servants	-1230
▁beginning	-1231
ots	-1232
ush	-1233
cend	-1234
▁fam	-1235
▁mon	-1236
▁pil	-1237
bbath	-1238
imony	-1239
ither	-1240
ition	-1241
▁hung	-1242
▁resp	-1243
▁wild	-1244
▁close	-1245
▁herod	-1246
▁spoke	-1247
▁write	-1248
▁rattan	-1249
▁repent	-1250
▁twelve	-1251
▁wisdom	-1252
▁clothes	-1253
▁sabbath	-1254
▁village	-1255
▁followed	-1256
▁yourself	-1257
▁testimony	-1258
gn	-1259
ows	-1260
uly	-1261
athe	-1262
▁far	-1263
▁opp	-1264
▁enem	-1265
▁kept	-1266
▁stri	-1267
▁birth	-1268
▁claim	-1269
▁spear	-1270
▁healed	-1271
▁looking	-1272
▁mountain	-1273
eth	-1274
ock	-1275
ons	-1276
ates	-1277
▁dra	-1278
▁boat	-1279
▁cert	-1280
▁deep	-1281
▁goes	-1282
▁sick	-1283
▁skin	-1284
▁human	-1285
▁truly	-1286
▁destro	-1287
▁happen	-1288
▁script	-1289
▁spirits	-1290
▁baptized	-1291
▁according	-1292
cut	-1293
cess	-1294
cond	-1295
iled	-1296
ites	-1297
▁inc	-1298
▁met	-1299
▁mir	-1300
iting	-1301
▁caes	-1302
▁five	-1303
▁foot	-1304
▁gold	-1305
▁rain	-1306
▁catch	-1307
▁third	-1308
▁second	-1309
▁faithful	-1310
ms	-1311
up	-1312
oin	-1313
uck	-1314
ided	-1315
ired	-1316
▁lay	-1317
aring	-1318
claim	-1319
▁dear	-1320
▁play	-1321
ressed	-1322
▁pilate	-1323
▁turned	-1324
▁collect	-1325
▁destroy	-1326
▁returned	-1327
ner	-1328
urd	-1329
reng	-1330
▁dri	-1331
▁squ	-1332
▁wid	-1333
icked	-1334
▁caus	-1335
▁lear	-1336
▁obey	-1337
▁phil	-1338
▁offer	-1339
▁saved	-1340
▁sight	-1341
▁start	-1342
▁stick	-1343
▁times	-1344
▁treat	-1345
▁years	-1346
▁filled	-1347
▁number	-1348
▁streng	-1349
▁throne	-1350
▁certain	-1351
▁encoura	-1352
▁darkness	-1353
irl	-1354
▁id	-1355
medi	-1356
▁ban	-1357
▁eye	-1358
▁nat	-1359
ually	-1360
▁inst	-1361
▁tomb	-1362
▁tong	-1363
▁appro	-1364
▁honor	-1365
▁sheep	-1366
▁accept	-1367
▁immedi	-1368
▁killed	-1369
▁remember	-1370
▁companions	-1371
ps	-1372
ss	-1373
ail	-1374
ane	-1375
per	-1376
alse	-1377
ames	-1378
▁cor	-1379
▁deb	-1380
▁min	-1381
▁fast	-1382
▁jude	-1383
▁mans	-1384
▁meet	-1385
▁false	-1386
▁mirac	-1387
▁named	-1388
▁demons	-1389
▁spoken	-1390
▁friends	-1391
▁companion	-1392
▁knowledge	-1393
▁synagogue	-1394
ead	-1395
gar	-1396
ict	-1397
aves	-1398
vent	-1399
▁dry	-1400
▁rul	-1401
▁ten	-1402
arent	-1403
iness	-1404
▁face	-1405
▁fing	-1406
▁lift	-1407
▁most	-1408
▁sing	-1409
▁sure	-1410
▁wine	-1411
itting	-1412
ousand	-1413
spring	-1414
▁basket	-1415
▁condem	-1416
▁master	-1417
▁myself	-1418
▁witness	-1419
▁appeared	-1420
▁consider	-1421
▁thousand	-1422
▁offspring	-1423
▁immediately	-1424
day	-1425
its	-1426
▁sec	-1427
▁ter	-1428
▁yes	-1429
ision	-1430
▁cruc	-1431
▁heal	-1432
▁loud	-1433
▁save	-1434
▁soon	-1435
▁apart	-1436
▁contr	-1437
▁gives	-1438
▁judas	-1439
▁loved	-1440
▁makes	-1441
▁opened	-1442
▁unless	-1443
▁carried	-1444
▁meaning	-1445
ru	-1446
aces	-1447
fered	-1448
ience	-1449
▁cook	-1450
▁cour	-1451
▁knew	-1452
▁murd	-1453
▁pull	-1454
▁slow	-1455
▁heshe	-1456
▁judea	-1457
▁later	-1458
▁share	-1459
▁trans	-1460
▁betray	-1461
▁thrown	-1462
▁arrived	-1463
▁country	-1464
▁message	-1465
▁talking	-1466
▁whether	-1467
▁complete	-1468
▁attention	-1469
ee	-1470
ere	-1471
omp	-1472
vor	-1473
▁ze	-1474
full	-1475
ners	-1476
osen	-1477
▁gra	-1478
▁mag	-1479
▁reb	-1480
fully	-1481
ndred	-1482
ument	-1483
▁amaz	-1484
▁barn	-1485
▁news	-1486
▁rele	-1487
▁rich	-1488
▁self	-1489
▁trou	-1490
aching	-1491
▁didnt	-1492
▁behind	-1493
▁better	-1494
▁inside	-1495
▁plants	-1496
▁entered	-1497
▁greater	-1498
▁hundred	-1499
▁married	-1500
▁proclaim	-1501
▁straight	-1502
ek	-1503
end	-1504
▁run	-1505
▁san	-1506
▁area	-1507
▁firm	-1508
▁girl	-1509
▁gone	-1510
▁hour	-1511
▁palm	-1512
▁real	-1513
▁reve	-1514
▁rock	-1515
▁alive	-1516
▁beast	-1517
▁lords	-1518
▁trust	-1519
athered	-1520
▁caught	-1521
▁charge	-1522
▁philip	-1523
▁descend	-1524
▁instead	-1525
▁messiah	-1526
▁thought	-1527
vi	-1528
ime	-1529
olo	-1530
vin	-1531
▁em	-1532
arch	-1533
ests	-1534
pped	-1535
▁ago	-1536
▁ant	-1537
▁leg	-1538
▁sex	-1539
▁tor	-1540
▁door	-1541
▁fool	-1542
▁half	-1543
▁poor	-1544
▁purp	-1545
▁stom	-1546
▁black	-1547
▁bound	-1548
▁inter	-1549
▁james	-1550
▁ready	-1551
▁serve	-1552
▁jewish	-1553
▁rather	-1554
▁becomes	-1555
▁neither	-1556
▁preached	-1557
ilt	-1558
ism	-1559
mar	-1560
uss	-1561
▁ty	-1562
abas	-1563
ange	-1564
ines	-1565
ires	-1566
osed	-1567
ream	-1568
ured	-1569
wise	-1570
▁bow	-1571
▁col	-1572
▁isa	-1573
▁mid	-1574
▁rej	-1575
erial	-1576
oseph	-1577
▁book	-1578
▁decl	-1579
▁dire	-1580
▁ears	-1581
▁lake	-1582
▁lamb	-1583
▁raft	-1584
▁roll	-1585
▁diffe	-1586
▁teeth	-1587
▁chosen	-1588
▁confid	-1589
▁enough	-1590
▁except	-1591
▁joseph	-1592
▁perfor	-1593
▁remain	-1594
▁gathered	-1595
▁promised	-1596
▁sacrific	-1597
ash	-1598
key	-1599
oun	-1600
iers	-1601
ints	-1602
peci	-1603
▁bag	-1604
▁dep	-1605
▁flo	-1606
▁tax	-1607
▁woe	-1608
▁path	-1609
▁pick	-1610
▁sand	-1611
▁soil	-1612
▁year	-1613
ughter	-1614
▁above	-1615
▁alone	-1616
▁breat	-1617
▁carry	-1618
▁signs	-1619
▁wrong	-1620
▁especi	-1621
▁expect	-1622
▁finish	-1623
▁regard	-1624
▁sitting	-1625
▁stomach	-1626
▁soldiers	-1627
▁ourselves	-1628
▁especially	-1629
▁,	-1630
air	-1631
arp	-1632
bed	-1633
eal	-1634
ift	-1635
ins	-1636
mit	-1637
whe	-1638
▁ur	-1639
▁ve	-1640
cest	-1641
fort	-1642
iven	-1643
▁ang	-1644
▁ast	-1645
▁cra	-1646
▁dam	-1647
▁den	-1648
▁hid	-1649
▁lot	-1650
▁pot	-1651
▁bear	-1652
▁chew	-1653
▁fest	-1654
▁lost	-1655
▁rebu	-1656
ointed	-1657
▁agree	-1658
▁cloud	-1659
▁trees	-1660
▁visit	-1661
▁ancest	-1662
▁passed	-1663
▁please	-1664
▁praise	-1665
▁wicked	-1666
▁forgive	-1667
▁however	-1668
▁barnabas	-1669
▁continue	-1670
▁forgiven	-1671
▁material	-1672
▁persecut	-1673
ls	-1674
ene	-1675
ian	-1676
rie	-1677
ude	-1678
ages	-1679
▁air	-1680
▁dur	-1681
▁ele	-1682
▁loc	-1683
▁med	-1684
▁pas	-1685
▁sim	-1686
▁val	-1687
▁wra	-1688
ality	-1689
ative	-1690
herit	-1691
iders	-1692
▁bolo	-1693
▁conc	-1694
▁inde	-1695
▁laid	-1696
vation	-1697
▁aside	-1698
▁calls	-1699
▁deser	-1700
▁devil	-1701
▁front	-1702
▁kings	-1703
▁loves	-1704
▁ought	-1705
▁piece	-1706
▁table	-1707
▁touch	-1708
▁amazed	-1709
▁broken	-1710
▁family	-1711
▁gather	-1712
▁hungry	-1713
▁report	-1714
▁stayed	-1715
▁thanks	-1716
▁worthy	-1717
▁account	-1718
▁fathers	-1719
▁inherit	-1720
▁nations	-1721
▁subject	-1722
▁believers	-1723
??	-1724
to	-1725
mer	-1726
odu	-1727
▁hy	-1728
vert	-1729
▁buy	-1730
▁esc	-1731
▁ign	-1732
▁six	-1733
▁sou	-1734
ustom	-1735
▁beat	-1736
▁fact	-1737
▁held	-1738
▁pain	-1739
▁sake	-1740
ficult	-1741
orning	-1742
▁accus	-1743
▁coven	-1744
▁deeds	-1745
▁sharp	-1746
▁surpr	-1747
rection	-1748
▁wanted	-1749
▁discuss	-1750
▁quickly	-1751
▁respect	-1752
▁disciple	-1753
▁different	-1754
▁difficult	-1755
▁salvation	-1756
▁scripture	-1757
▁generation	-1758
vy	-1759
abb	-1760
ius	-1761
lic	-1762
ogn	-1763
ths	-1764
ical	-1765
ored	-1766
ripp	-1767
▁eas	-1768
▁egg	-1769
▁est	-1770
▁led	-1771
orrow	-1772
sover	-1773
▁incl	-1774
▁repe	-1775
▁wall	-1776
▁cause	-1777
▁cover	-1778
▁knows	-1779
▁lived	-1780
▁point	-1781
▁sugar	-1782
▁today	-1783
▁uncle	-1784
▁breath	-1785
▁camote	-1786
▁indeed	-1787
▁recogn	-1788
▁reject	-1789
▁speaks	-1790
▁taught	-1791
▁toward	-1792
▁forever	-1793
▁ordered	-1794
▁parable	-1795
▁walking	-1796
urrection	-1797
▁daughter	-1798
▁finished	-1799
▁passover	-1800
▁relation	-1801
▁surround	-1802
▁fulfilled	-1803
▁circumcised	-1804
gy	-1805
of	-1806
wh	-1807
zy	-1808
app	-1809
con	-1810
elf	-1811
jah	-1812
unk	-1813
wor	-1814
ighb	-1815
ourn	-1816
rupt	-1817
yard	-1818
▁adv	-1819
▁spl	-1820
anged	-1821
itted	-1822
lling	-1823
▁adul	-1824
▁lack	-1825
▁lang	-1826
▁lose	-1827
▁mark	-1828
▁moon	-1829
▁room	-1830
▁saul	-1831
▁wise	-1832
▁immor	-1833
▁pound	-1834
▁produ	-1835
▁satan	-1836
▁shake	-1837
▁shell	-1838
▁wants	-1839
▁arrest	-1840
▁bodies	-1841
▁matter	-1842
▁neighb	-1843
▁parent	-1844
▁pieces	-1845
▁prayer	-1846
▁remove	-1847
▁result	-1848
▁comfort	-1849
▁fulfill	-1850
▁leaders	-1851
▁morning	-1852
▁oneself	-1853
▁sinners	-1854
▁younger	-1855
▁covenant	-1856
▁crucified	-1857
ao	-1858
dle	-1859
hem	-1860
ike	-1861
law	-1862
let	-1863
ses	-1864
▁ep	-1865
▁ma	-1866
ager	-1867
ging	-1868
iful	-1869
semb	-1870
▁cup	-1871
▁eli	-1872
▁fur	-1873
▁jac	-1874
▁pen	-1875
otion	-1876
▁flow	-1877
▁idol	-1878
▁leaf	-1879
▁pure	-1880
▁purs	-1881
▁tail	-1882
▁clean	-1883
▁favor	-1884
▁gifts	-1885
▁marry	-1886
▁owner	-1887
▁quest	-1888
▁smoke	-1889
▁sword	-1890
▁thorn	-1891
▁tribe	-1892
▁tried	-1893
▁works	-1894
▁animal	-1895
▁answer	-1896
▁direct	-1897
▁finger	-1898
▁minist	-1899
▁nature	-1900
▁placed	-1901
▁really	-1902
▁trying	-1903
▁adulter	-1904
▁animals	-1905
▁desires	-1906
▁divided	-1907
▁reached	-1908
▁request	-1909
▁prepared	-1910
▁revealed	-1911
▁vineyard	-1912
▁ancestors	-1913
io	-1914
ys	-1915
ery	-1916
ges	-1917
ias	-1918
hold	-1919
ters	-1920
vern	-1921
▁age	-1922
▁ass	-1923
▁cap	-1924
▁dev	-1925
▁fre	-1926
▁mix	-1927
▁pun	-1928
▁rat	-1929
▁ris	-1930
▁sol	-1931
ander	-1932
asure	-1933
right	-1934
veled	-1935
▁bran	-1936
▁case	-1937
▁dise	-1938
▁dove	-1939
▁feed	-1940
▁isnt	-1941
▁memb	-1942
▁neck	-1943
▁pigs	-1944
▁prot	-1945
▁soft	-1946
▁weep	-1947
acedon	-1948
▁birds	-1949
▁floor	-1950
▁older	-1951
▁pract	-1952
▁roost	-1953
▁slave	-1954
▁wound	-1955
▁woven	-1956
▁during	-1957
▁guests	-1958
▁enemies	-1959
▁finally	-1960
▁learned	-1961
▁macedon	-1962
▁promise	-1963
▁shouted	-1964
▁churches	-1965
▁encourage	-1966
▁instrument	-1967
▁relationship	-1968
▁resurrection	-1969
asp	-1970
iet	-1971
imb	-1972
now	-1973
sed	-1974
ases	-1975
born	-1976
oose	-1977
ries	-1978
▁ate	-1979
▁dou	-1980
▁fig	-1981
▁lib	-1982
▁rid	-1983
▁sib	-1984
arrow	-1985
ility	-1986
ities	-1987
oured	-1988
velop	-1989
vered	-1990
▁amen	-1991
▁glad	-1992
▁gree	-1993
▁lamp	-1994
▁meat	-1995
▁oath	-1996
▁pour	-1997
▁rise	-1998
▁road	-1999
▁root	-2000
edient	-2001
▁escap	-2002
▁knife	-2003
▁tight	-2004
▁centur	-2005
▁crowds	-2006
▁itself	-2007
▁letter	-2008
▁monkey	-2009
▁preach	-2010
▁surely	-2011
▁leaving	-2012
▁payment	-2013
▁purpose	-2014
▁telling	-2015
▁believes	-2016
▁heavenly	-2017
▁witnesses	-2018
no	-2019
add	-2020
ana	-2021
bel	-2022
ech	-2023
eng	-2024
ume	-2025
▁aw	-2026
▁ru	-2027
fice	-2028
oked	-2029
otes	-2030
vior	-2031
▁arm	-2032
▁sho	-2033
▁tip	-2034
▁win	-2035
river	-2036
umble	-2037
▁cred	-2038
▁edge	-2039
▁entr	-2040
▁tent	-2041
▁wait	-2042
▁bless	-2043
▁broke	-2044
▁enemy	-2045
▁fully	-2046
▁grain	-2047
▁incre	-2048
▁needs	-2049
▁offic	-2050
▁press	-2051
▁shame	-2052
▁yours	-2053
▁poison	-2054
▁reward	-2055
▁sexual	-2056
▁sinful	-2057
▁tongue	-2058
▁travel	-2059
▁current	-2060
▁evening	-2061
▁forward	-2062
▁perfect	-2063
▁possess	-2064
▁praying	-2065
▁rejoice	-2066
▁instruct	-2067
▁appointed	-2068
▁following	-2069
▁greetings	-2070
▁strengthe	-2071
gle	-2072
iff	-2073
gypt	-2074
herd	-2075
ides	-2076
ills	-2077
ouse	-2078
roll	-2079
▁alm	-2080
▁alt	-2081
▁few	-2082
▁naz	-2083
▁net	-2084
▁sky	-2085
▁top	-2086
ample	-2087
anger	-2088
ously	-2089
pherd	-2090
umpet	-2091
under	-2092
ushed	-2093
▁band	-2094
▁bott	-2095
▁drag	-2096
▁gets	-2097
▁lets	-2098
▁roof	-2099
▁ship	-2100
▁song	-2101
▁stor	-2102
▁tast	-2103
▁cloth	-2104
▁egypt	-2105
▁flood	-2106
▁heads	-2107
▁jacob	-2108
▁overc	-2109
▁scatt	-2110
▁takes	-2111
▁thank	-2112
▁wrote	-2113
▁appear	-2114
▁desire	-2115
▁elijah	-2116
▁fallen	-2117
▁handed	-2118
▁hidden	-2119
▁nazare	-2120
▁object	-2121
▁poured	-2122
▁secret	-2123
▁contain	-2124
▁foolish	-2125
▁illness	-2126
▁parents	-2127
▁patient	-2128
▁pleased	-2129
▁prophes	-2130
▁testify	-2131
▁touched	-2132
▁trumpet	-2133
▁willing	-2134
▁clothing	-2135
▁declared	-2136
▁presence	-2137
▁repeated	-2138
▁thinking	-2139
▁centurion	-2140
▁creatures	-2141
▁macedonia	-2142
▁preaching	-2143
▁sacrifice	-2144
▁suffering	-2145
na	-2146
ny	-2147
oy	-2148
▁z	-2149
has	-2150
mpt	-2151
ocr	-2152
ond	-2153
par	-2154
▁ly	-2155
cane	-2156
enty	-2157
ices	-2158
like	-2159
pocr	-2160
▁boy	-2161
▁fly	-2162
▁hot	-2163
▁sow	-2164
ables	-2165
atter	-2166
▁beth	-2167
▁drop	-2168
▁hole	-2169
▁hurt	-2170
▁inad	-2171
▁mult	-2172
▁resc	-2173
▁soul	-2174
▁thin	-2175
▁upon	-2176
▁weed	-2177
liness	-2178
▁altar	-2179
▁beach	-2180
▁built	-2181
▁crown	-2182
▁disob	-2183
▁eaten	-2184
▁keeps	-2185
▁samar	-2186
▁separ	-2187
▁silas	-2188
▁tempt	-2189
▁unbel	-2190
▁widow	-2191
▁bottom	-2192
▁causes	-2193
▁crying	-2194
▁custom	-2195
▁fields	-2196
▁hypocr	-2197
▁places	-2198
▁saints	-2199
▁sister	-2200
▁struck	-2201
▁calling	-2202
▁camotes	-2203
▁invited	-2204
▁offered	-2205
▁planted	-2206
▁raiders	-2207
▁rooster	-2208
▁service	-2209
▁carrying	-2210
▁commands	-2211
▁creation	-2212
▁inadvert	-2213
▁nazareth	-2214
▁possible	-2215
▁shepherd	-2216
▁someones	-2217
▁strength	-2218
▁container	-2219
▁household	-2220
▁spiritual	-2221
▁sugarcane	-2222
▁repeatedly	-2223
..	-2224
any	-2225
aut	-2226
but	-2227
els	-2228
ilk	-2229
iot	-2230
nds	-2231
set	-2232
ten	-2233
ubs	-2234
unt	-2235
▁ol	-2236
aken	-2237
akes	-2238
atch	-2239
ding	-2240
erer	-2241
ians	-2242
iber	-2243
ilar	-2244
omed	-2245
othy	-2246
vere	-2247
▁bes	-2248
▁def	-2249
▁dwe	-2250
▁kap	-2251
▁mal	-2252
▁sir	-2253
▁try	-2254
cious	-2255
unity	-2256
▁boil	-2257
▁debt	-2258
▁dust	-2259
▁gain	-2260
▁grie	-2261
▁hate	-2262
▁legs	-2263
▁pool	-2264
▁scra	-2265
▁sons	-2266
▁term	-2267
▁type	-2268
▁weal	-2269
▁beaut	-2270
▁conce	-2271
▁eager	-2272
▁ephes	-2273
▁exper	-2274
▁feast	-2275
▁kinds	-2276
▁langu	-2277
▁libog	-2278
▁maamb	-2279
▁reign	-2280
▁sanct	-2281
▁snake	-2282
▁wrath	-2283
▁asleep	-2284
▁attack	-2285
▁burned	-2286
▁caused	-2287
▁choose	-2288
▁consci	-2289
▁courts	-2290
▁edible	-2291
▁giving	-2292
▁govern	-2293
▁middle	-2294
▁nation	-2295
▁slaves	-2296
▁hearing	-2297
▁keeping	-2298
▁miracul	-2299
▁pattern	-2300
▁prayers	-2301
▁similar	-2302
▁timothy	-2303
▁tongues	-2304
▁waiting	-2305
▁ministry	-2306
▁sleeping	-2307
▁condemned	-2308
▁mountains	-2309
▁scattered	-2310
▁synagogues	-2311
▁circumcision	-2312
▁inadvertently	-2313
irt	-2314
men	-2315
anon	-2316
area	-2317
know	-2318
miss	-2319
noon	-2320
ross	-2321
▁amb	-2322
▁arg	-2323
▁bal	-2324
▁bus	-2325
▁emb	-2326
▁fle	-2327
▁inf	-2328
▁lie	-2329
▁sad	-2330
▁spr	-2331
▁ste	-2332
▁sud	-2333
hamed	-2334
iving	-2335
vince	-2336
▁blow	-2337
▁cast	-2338
▁horn	-2339
▁kiss	-2340
▁milk	-2341
▁none	-2342
▁reap	-2343
▁seek	-2344
▁wide	-2345
ishing	-2346
▁allow	-2347
▁arent	-2348
▁medic	-2349
▁mixed	-2350
▁pregn	-2351
▁steps	-2352
▁sweet	-2353
▁wings	-2354
osition	-2355
▁across	-2356
▁caesar	-2357
▁center	-2358
▁isaiah	-2359
▁leader	-2360
▁loaves	-2361
▁opport	-2362
▁rulers	-2363
▁search	-2364
▁speech	-2365
▁submit	-2366
▁taking	-2367
▁thirst	-2368
▁burning	-2369
▁condemn	-2370
▁cutting	-2371
▁develop	-2372
▁dressed	-2373
▁example	-2374
▁prepare	-2375
▁release	-2376
▁sibling	-2377
▁started	-2378
▁stopped	-2379
▁warning	-2380
▁building	-2381
▁caesarea	-2382
▁distance	-2383
▁likewise	-2384
▁question	-2385
▁shouting	-2386
▁welcomes	-2387
▁afternoon	-2388
▁agreement	-2389
▁performed	-2390
▁throughout	-2391
▁continually	-2392
▁opportunity	-2393
▁understanding	-2394
bs	-2395
cc	-2396
ago	-2397
hen	-2398
iew	-2399
iny	-2400
ued	-2401
und	-2402
▁ce	-2403
▁er	-2404
▁vi	-2405
aded	-2406
ioch	-2407
ural	-2408
▁cry	-2409
▁det	-2410
▁pap	-2411
▁pub	-2412
▁ran	-2413
▁sha	-2414
▁sme	-2415
▁suf	-2416
▁tie	-2417
▁wed	-2418
ising	-2419
isted	-2420
riage	-2421
▁arms	-2422
▁asia	-2423
▁crop	-2424
▁dogs	-2425
▁doub	-2426
▁draw	-2427
▁expl	-2428
▁heat	-2429
▁inte	-2430
▁lean	-2431
▁mine	-2432
▁mist	-2433
▁myst	-2434
▁past	-2435
▁salt	-2436
▁shed	-2437
▁star	-2438
▁stir	-2439
▁upro	-2440
▁view	-2441
▁week	-2442
morrow	-2443
▁angry	-2444
▁blame	-2445
▁blasp	-2446
▁climb	-2447
▁crack	-2448
▁drive	-2449
▁early	-2450
▁freed	-2451
▁greed	-2452
▁johns	-2453
▁least	-2454
▁quiet	-2455
▁raise	-2456
▁threw	-2457
▁troub	-2458
ination	-2459
▁accomp	-2460
▁concer	-2461
▁endure	-2462
▁festiv	-2463
▁manage	-2464
▁narrow	-2465
▁orders	-2466
▁perish	-2467
▁region	-2468
▁savior	-2469
▁strike	-2470
▁sudden	-2471
▁antioch	-2472
▁apostle	-2473
▁ashamed	-2474
▁careful	-2475
▁conduct	-2476
▁entrust	-2477
▁getting	-2478
▁heavens	-2479
▁masters	-2480
▁sending	-2481
▁unclean	-2482
▁adultery	-2483
▁branches	-2484
▁chickens	-2485
▁contrary	-2486
▁glorious	-2487
▁maambago	-2488
▁medicine	-2489
▁miracles	-2490
▁province	-2491
▁reported	-2492
▁suffered	-2493
▁tomorrow	-2494
▁traveled	-2495
▁welcomed	-2496
▁destroyed	-2497
▁downriver	-2498
▁liboganon	-2499
▁worshiped	-2500
▁completely	-2501
▁confidence	-2502
▁immorality	-2503
▁repentance	-2504
▁sacrifices	-2505
▁scriptures	-2506
gr	-2507
bac	-2508
cil	-2509
lon	-2510
oll	-2511
ool	-2512
ury	-2513
▁ir	-2514
fish	-2515
hedr	-2516
ises	-2517
male	-2518
ming	-2519
▁aff	-2520
▁ble	-2521
▁dem	-2522
▁fel	-2523
▁kne	-2524
▁var	-2525
andon	-2526
ashed	-2527
bacco	-2528
conut	-2529
ffect	-2530
ierce	-2531
ments	-2532
where	-2533
▁asks	-2534
▁capt	-2535
▁cold	-2536
▁dies	-2537
▁dish	-2538
▁fill	-2539
▁fine	-2540
▁gate	-2541
▁grew	-2542
▁grou	-2543
▁jump	-2544
▁lame	-2545
▁perf	-2546
▁plan	-2547
▁remo	-2548
▁sack	-2549
▁size	-2550
▁swim	-2551
▁wash	-2552
▁bride	-2553
▁burst	-2554
▁charm	-2555
▁cried	-2556
▁dried	-2557
▁drunk	-2558
▁fault	-2559
▁flour	-2560
▁grubs	-2561
▁loose	-2562
▁lying	-2563
▁value	-2564
▁acknow	-2565
▁asking	-2566
▁breast	-2567
▁commit	-2568
▁danger	-2569
▁female	-2570
▁forest	-2571
▁hisher	-2572
▁impure	-2573
▁prayed	-2574
▁public	-2575
▁punish	-2576
▁refuse	-2577
▁resist	-2578
▁sailed	-2579
▁served	-2580
▁stones	-2581
▁wealth	-2582
▁abandon	-2583
▁baptism	-2584
▁charges	-2585
▁coconut	-2586
▁decided	-2587
▁ephesus	-2588
▁express	-2589
▁knowing	-2590
▁sanhedr	-2591
▁shallow	-2592
▁slander	-2593
▁thunder	-2594
▁tobacco	-2595
▁trouble	-2596
▁turning	-2597
▁unbelie	-2598
▁festival	-2599
▁marriage	-2600
▁neighbor	-2601
▁position	-2602
▁practice	-2603
▁released	-2604
▁suddenly	-2605
▁surprise	-2606
▁thoughts	-2607
▁carefully	-2608
▁commander	-2609
▁conscience	-2610
▁miraculous	-2611
▁descendants	-2612
ae	-2613
pa	-2614
abl	-2615
alf	-2616
aly	-2617
asc	-2618
aum	-2619
bod	-2620
fit	-2621
oak	-2622
ror	-2623
▁??	-2624
▁lu	-2625
erve	-2626
fied	-2627
mend	-2628
oted	-2629
quet	-2630
rect	-2631
uing	-2632
▁ali	-2633
▁big	-2634
▁dig	-2635
▁equ	-2636
▁ext	-2637
▁fed	-2638
▁fet	-2639
▁lab	-2640
▁lin	-2641
▁log	-2642
▁mom	-2643
▁occ	-2644
▁ric	-2645
▁rip	-2646
▁scr	-2647
▁smo	-2648
▁sum	-2649
anted	-2650
ating	-2651
gress	-2652
ifies	-2653
izing	-2654
ouses	-2655
▁bees	-2656
▁disp	-2657
▁form	-2658
▁lime	-2659
▁male	-2660
▁mute	-2661
▁onto	-2662
▁pole	-2663
▁prov	-2664
▁rabb	-2665
▁thro	-2666
▁tiny	-2667
▁trad	-2668
▁urge	-2669
▁ways	-2670
▁whis	-2671
▁wond	-2672
athers	-2673
ernaum	-2674
erness	-2675
worthy	-2676
▁aston	-2677
▁chose	-2678
▁cloak	-2679
▁color	-2680
▁fight	-2681
▁forth	-2682
▁forty	-2683
▁grass	-2684
▁image	-2685
▁isaac	-2686
▁learn	-2687
▁minds	-2688
▁often	-2689
▁parts	-2690
▁repay	-2691
▁split	-2692
▁stars	-2693
▁trial	-2694
▁trigg	-2695
▁upset	-2696
▁using	-2697
▁waist	-2698
▁walks	-2699
▁borrow	-2700
▁bright	-2701
▁change	-2702
▁clouds	-2703
▁convin	-2704
▁delive	-2705
▁easily	-2706
▁establ	-2707
▁hunger	-2708
▁includ	-2709
▁lifted	-2710
▁moment	-2711
▁necess	-2712
▁proper	-2713
▁riches	-2714
▁seated	-2715
▁seeing	-2716
▁seized	-2717
▁severe	-2718
▁single	-2719
▁widows	-2720
▁within	-2721
▁address	-2722
▁banquet	-2723
▁cooking	-2724
▁holding	-2725
▁members	-2726
▁mystery	-2727
▁peoples	-2728
▁perfume	-2729
▁produce	-2730
▁realize	-2731
▁rebuked	-2732
▁stumble	-2733
▁wedding	-2734
▁weeping	-2735
▁welcome	-2736
▁bringing	-2737
▁deceived	-2738
▁drinking	-2739
▁language	-2740
▁powerful	-2741
▁rejected	-2742
▁beautiful	-2743
▁capernaum	-2744
▁commanded	-2745
▁committed	-2746
▁sanhedrin	-2747
▁uncircumc	-2748
▁israelites	-2749
▁wickedness	-2750
▁wilderness	-2751
▁disobedient	-2752
▁inheritance	-2753
by	-2754
aps	-2755
car	-2756
etr	-2757
god	-2758
oes	-2759
ris	-2760
tle	-2761
uff	-2762
ugl	-2763
zar	-2764
▁av	-2765
▁cy	-2766
▁gn	-2767
acle	-2768
aked	-2769
char	-2770
cing	-2771
empt	-2772
ents	-2773
fend	-2774
ific	-2775
lend	-2776
room	-2777
used	-2778
yond	-2779
▁ann	-2780
▁arr	-2781
▁bit	-2782
▁eff	-2783
▁fat	-2784
▁hos	-2785
▁mud	-2786
▁mus	-2787
▁mut	-2788
▁pow	-2789
▁rom	-2790
▁shr	-2791
▁tab	-2792
▁tit	-2793
acked	-2794
alked	-2795
antly	-2796
orses	-2797
otten	-2798
rated	-2799
zarus	-2800
▁bead	-2801
▁bene	-2802
▁bite	-2803
▁earn	-2804
▁envy	-2805
▁hell	-2806
▁kugl	-2807
▁meal	-2808
▁mere	-2809
▁rebe	-2810
▁situ	-2811
▁viol	-2812
▁wear	-2813
▁zeal	-2814
anging	-2815
fected	-2816
lessly	-2817
though	-2818
▁ashes	-2819
▁cripp	-2820
▁dance	-2821
▁deter	-2822
▁finds	-2823
▁flock	-2824
▁glass	-2825
▁green	-2826
▁hears	-2827
▁idols	-2828
▁mourn	-2829
▁recon	-2830
▁rocks	-2831
▁roots	-2832
▁seeds	-2833
▁stret	-2834
▁tenth	-2835
▁thick	-2836
▁wasnt	-2837
cessive	-2838
▁assemb	-2839
▁beyond	-2840
▁chains	-2841
▁damasc	-2842
▁deeply	-2843
▁disapp	-2844
▁disown	-2845
▁effect	-2846
▁effort	-2847
▁escape	-2848
▁festus	-2849
▁greeks	-2850
▁horses	-2851
▁joined	-2852
▁judged	-2853
▁mighty	-2854
▁months	-2855
▁partic	-2856
▁prepar	-2857
▁pursue	-2858
▁rescue	-2859
▁sevent	-2860
▁smooth	-2861
▁unable	-2862
▁washed	-2863
▁waters	-2864
▁worked	-2865
▁changed	-2866
▁correct	-2867
▁deliver	-2868
▁disease	-2869
▁earthqu	-2870
▁glorify	-2871
▁greatly	-2872
▁kuglung	-2873
▁lacking	-2874
▁lazarus	-2875
▁measure	-2876
▁removed	-2877
▁thirsty	-2878
▁trigger	-2879
▁belonged	-2880
▁boasting	-2881
▁crippled	-2882
▁governor	-2883
▁certainly	-2884
▁completed	-2885
▁confident	-2886
▁convinced	-2887
▁delivered	-2888
▁entrusted	-2889
▁excessive	-2890
▁necessary	-2891
▁recognize	-2892
▁accordance	-2893
▁astonished	-2894
▁collectors	-2895
▁hypocrites	-2896
▁persecuted	-2897
▁possessions	-2898
fr	-2899
ne	-2900
▁?	-2901
ats	-2902
imp	-2903
ium	-2904
ple	-2905
rac	-2906
sol	-2907
uce	-2908
yth	-2909
aint	-2910
arre	-2911
body	-2912
ilty	-2913
inth	-2914
irty	-2915
poss	-2916
tain	-2917
ular	-2918
▁bat	-2919
▁bed	-2920
▁ben	-2921
▁due	-2922
▁fit	-2923
▁hit	-2924
▁hop	-2925
▁nur	-2926
▁pet	-2927
▁wet	-2928
ances	-2929
aving	-2930
ected	-2931
ining	-2932
light	-2933
lings	-2934
ordan	-2935
rippa	-2936
while	-2937
▁bent	-2938
▁bold	-2939
▁brid	-2940
▁bump	-2941
▁circ	-2942
▁comb	-2943
▁drow	-2944
▁hill	-2945
▁inse	-2946
▁jail	-2947
▁jeal	-2948
▁knot	-2949
▁leng	-2950
▁loss	-2951
▁mill	-2952
▁plag	-2953
▁port	-2954
▁priv	-2955
▁sore	-2956
▁sown	-2957
▁surf	-2958
▁tear	-2959
▁wrap	-2960
assion	-2961
atives	-2962
headed	-2963
lendor	-2964
ourney	-2965
▁added	-2966
▁adult	-2967
▁betel	-2968
▁block	-2969
▁eight	-2970
▁endur	-2971
▁ignor	-2972
▁linen	-2973
▁meant	-2974
▁metal	-2975
▁moved	-2976
▁moves	-2977
▁potat	-2978
▁rabbi	-2979
▁revel	-2980
▁scold	-2981
▁shown	-2982
▁smell	-2983
▁spend	-2984
▁squee	-2985
▁steal	-2986
▁store	-2987
▁taste	-2988
▁terri	-2989
▁tired	-2990
▁ungod	-2991
▁unmar	-2992
▁wages	-2993
▁weeds	-2994
▁withd	-2995
▁wives	-2996
▁worry	-2997
▁worth	-2998
fection	-2999
▁arrive	-3000
▁begged	-3001
▁beside	-3002
▁bother	-3003
▁brings	-3004
▁burden	-3005
▁cleans	-3006
▁debris	-3007
▁design	-3008
▁dishon	-3009
▁dragon	-3010
▁grains	-3011
▁guilty	-3012
▁insult	-3013
▁intend	-3014
▁interp	-3015
▁jordan	-3016
▁mature	-3017
▁motion	-3018
▁proble	-3019
▁quarre	-3020
▁remind	-3021
▁scroll	-3022
▁season	-3023
▁silent	-3024
▁sorrow	-3025
▁spring	-3026
▁stands	-3027
▁stream	-3028
▁string	-3029
▁thorns	-3030
▁twenty	-3031
▁warned	-3032
▁agrippa	-3033
▁baptist	-3034
▁clearly	-3035
▁commend	-3036
▁concern	-3037
▁confess	-3038
▁control	-3039
▁corrupt	-3040
▁covered	-3041
▁discipl	-3042
▁foreign	-3043
▁journey	-3044
▁justice	-3045
▁persons	-3046
▁playing	-3047
▁running	-3048
▁tenants	-3049
▁treated	-3050
▁wonders	-3051
▁wrapped	-3052
▁writing	-3053
possessed	-3054
▁although	-3055
▁damascus	-3056
▁kindness	-3057
▁official	-3058
▁parables	-3059
▁pregnant	-3060
▁prophecy	-3061
▁splendor	-3062
▁justified	-3063
▁compassion	-3064
▁concerning	-3065
▁earthquake	-3066
▁encouraged	-3067
▁trustworthy	-3068
rr	-3069
▁-	-3070
agr	-3071
bre	-3072
dal	-3073
hab	-3074
man	-3075
oid	-3076
tha	-3077
uel	-3078
ula	-3079
cked	-3080
cute	-3081
iced	-3082
land	-3083
pass	-3084
reet	-3085
sing	-3086
zard	-3087
▁ach	-3088
▁cit	-3089
▁dom	-3090
▁gar	-3091
▁hig	-3092
▁lid	-3093
▁low	-3094
▁mel	-3095
▁mis	-3096
▁obs	-3097
▁pin	-3098
▁pit	-3099
▁sco	-3100
acter	-3101
adder	-3102
anias	-3103
fruit	-3104
inate	-3105
pping	-3106
ribut	-3107
stone	-3108
▁ball	-3109
▁bark	-3110
▁bone	-3111
▁cant	-3112
▁cere	-3113
▁cree	-3114
▁empt	-3115
▁fift	-3116
▁flee	-3117
▁flog	-3118
▁harm	-3119
▁heir	-3120
▁host	-3121
▁kern	-3122
▁lazy	-3123
▁leap	-3124
▁line	-3125
▁mour	-3126
▁phys	-3127
▁pity	-3128
▁poin	-3129
▁robb	-3130
▁sail	-3131
▁shel	-3132
▁sows	-3133
▁torn	-3134
▁warn	-3135
angers	-3136
dalene	-3137
ourage	-3138
▁apoll	-3139
▁arrow	-3140
▁avoid	-3141
▁bones	-3142
▁curse	-3143
▁decor	-3144
▁dirty	-3145
▁divor	-3146
▁doubt	-3147
▁force	-3148
▁grows	-3149
▁hired	-3150
▁labor	-3151
▁newly	-3152
▁persu	-3153
▁plain	-3154
▁round	-3155
▁ruler	-3156
▁shore	-3157
▁swift	-3158
▁thief	-3159
▁titus	-3160
edience	-3161
▁almost	-3162
▁ascend	-3163
▁attend	-3164
▁banana	-3165
▁buried	-3166
▁credit	-3167
▁deceit	-3168
▁forced	-3169
▁forget	-3170
▁formed	-3171
▁former	-3172
▁fright	-3173
▁humble	-3174
▁import	-3175
▁island	-3176
▁judges	-3177
▁lawful	-3178
▁martha	-3179
▁murder	-3180
▁picked	-3181
▁rebell	-3182
▁resemb	-3183
▁rushed	-3184
▁secure	-3185
▁shared	-3186
▁sinned	-3187
▁street	-3188
▁supper	-3189
▁wonder	-3190
▁ceremon	-3191
▁closely	-3192
▁courage	-3193
▁deceive	-3194
▁defense	-3195
▁deliber	-3196
▁delight	-3197
▁flowers	-3198
▁jealous	-3199
▁meeting	-3200
▁praised	-3201
▁process	-3202
▁remains	-3203
▁tightly	-3204
▁ungodly	-3205
▁weaving	-3206
▁workers	-3207
▁accompan	-3208
▁blasphem	-3209
▁goodness	-3210
▁hardship	-3211
▁husbands	-3212
▁murdered	-3213
▁murderer	-3214
▁prisoner	-3215
▁weakness	-3216
▁wherever	-3217
▁blameless	-3218
▁character	-3219
▁glorified	-3220
▁magdalene	-3221
▁meanwhile	-3222
▁offerings	-3223
▁relatives	-3224
▁situation	-3225
▁unmarried	-3226
▁experience	-3227
▁harvesting	-3228
▁proclaimed	-3229
▁recognized	-3230
▁authorities	-3231
▁uncircumcised	-3232
xe	-3233
▁.	-3234
aff	-3235
ask	-3236
bes	-3237
eem	-3238
ili	-3239
ips	-3240
irg	-3241
isc	-3242
isy	-3243
osy	-3244
rop	-3245
ugh	-3246
zed	-3247
▁,,	-3248
ails	-3249
airs	-3250
amin	-3251
anna	-3252
ator	-3253
cont	-3254
form	-3255
hand	-3256
ince	-3257
iung	-3258
oppa	-3259
ront	-3260
tend	-3261
ults	-3262
▁abs	-3263
▁axe	-3264
▁dut	-3265
▁eel	-3266
▁eun	-3267
▁fil	-3268
▁fla	-3269
▁inn	-3270
▁lar	-3271
▁oil	-3272
▁pes	-3273
▁rub	-3274
▁sap	-3275
▁sew	-3276
▁tun	-3277
▁wig	-3278
abbas	-3279
aking	-3280
asing	-3281
attle	-3282
ening	-3283
ented	-3284
hered	-3285
imate	-3286
itate	-3287
itude	-3288
itute	-3289
ivity	-3290
prosy	-3291
vened	-3292
▁acha	-3293
▁agre	-3294
▁best	-3295
▁bowl	-3296
▁clay	-3297
▁colt	-3298
▁coun	-3299
▁dawn	-3300
▁deal	-3301
▁depe	-3302
▁doct	-3303
▁drum	-3304
▁earl	-3305
▁eggs	-3306
▁exce	-3307
▁fail	-3308
▁fist	-3309
▁flat	-3310
▁liar	-3311
▁lump	-3312
▁meas	-3313
▁orig	-3314
▁pred	-3315
▁proc	-3316
▁puts	-3317
▁robe	-3318
▁rope	-3319
▁sadd	-3320
▁scar	-3321
▁sees	-3322
▁sits	-3323
▁spit	-3324
▁stem	-3325
▁virg	-3326
angled	-3327
cariot	-3328
racted	-3329
ushing	-3330
▁alert	-3331
▁brush	-3332
▁carab	-3333
▁citiz	-3334
▁cough	-3335
▁elect	-3336
▁frust	-3337
▁godly	-3338
▁grand	-3339
▁group	-3340
▁heavy	-3341
▁holes	-3342
▁horns	-3343
▁joint	-3344
▁joppa	-3345
▁knees	-3346
▁laugh	-3347
▁month	-3348
▁noose	-3349
▁outer	-3350
▁purch	-3351
▁roman	-3352
▁sever	-3353
▁shine	-3354
▁solom	-3355
▁spare	-3356
▁sprou	-3357
▁swept	-3358
▁tears	-3359
▁tombs	-3360
▁towns	-3361
▁treas	-3362
▁wheat	-3363
▁worse	-3364
▁yeast	-3365
chariah	-3366
ircumst	-3367
ruction	-3368
umbling	-3369
▁accuse	-3370
▁amount	-3371
▁andrew	-3372
▁astray	-3373
▁behalf	-3374
▁bought	-3375
▁cursed	-3376
▁determ	-3377
▁distur	-3378
▁either	-3379
▁firmly	-3380
▁guards	-3381
▁insect	-3382
▁lizard	-3383
▁needed	-3384
▁olives	-3385
▁paraly	-3386
▁silver	-3387
▁sinner	-3388
▁sprink	-3389
▁swears	-3390
▁tempor	-3391
▁transf	-3392
▁vision	-3393
▁ananias	-3394
▁babylon	-3395
▁baptize	-3396
▁claimed	-3397
▁crucify	-3398
▁earnest	-3399
▁earthly	-3400
▁happens	-3401
▁healing	-3402
▁leprosy	-3403
▁matters	-3404
▁perform	-3405
▁samarit	-3406
▁sounded	-3407
▁staying	-3408
▁support	-3409
▁surface	-3410
▁tempted	-3411
▁whisper	-3412
▁wounded	-3413
▁argument	-3414
▁arrested	-3415
▁betrayed	-3416
▁circumst	-3417
▁confront	-3418
▁feathers	-3419
▁forehead	-3420
▁greatest	-3421
▁iscariot	-3422
▁patience	-3423
▁persever	-3424
▁watching	-3425
▁whenever	-3426
▁important	-3427
▁intention	-3428
▁interrupt	-3429
▁lightning	-3430
▁listening	-3431
▁neighbors	-3432
▁persecute	-3433
▁zechariah	-3434
▁approached	-3435
▁directions	-3436
▁discussion	-3437
▁fellowship	-3438
▁foundation	-3439
▁punishment	-3440
▁remembered	-3441
▁sanctified	-3442
▁strengthen	-3443
▁destruction	-3444
▁deliberately	-3445
bo	-3446
fl	-3447
go	-3448
ho	-3449
po	-3450
sl	-3451
aid	-3452
aph	-3453
bul	-3454
ids	-3455
joy	-3456
lea	-3457
lly	-3458
obb	-3459
ony	-3460
oop	-3461
ubb	-3462
ugi	-3463
uls	-3464
▁ig	-3465
▁je	-3466
ache	-3467
adow	-3468
aeus	-3469
alms	-3470
ancy	-3471
haps	-3472
hest	-3473
host	-3474
iped	-3475
izab	-3476
lace	-3477
lete	-3478
omas	-3479
ompl	-3480
onah	-3481
soci	-3482
that	-3483
▁dil	-3484
▁din	-3485
▁dro	-3486
▁emp	-3487
▁eng	-3488
▁hen	-3489
▁mot	-3490
▁nod	-3491
▁pag	-3492
▁rap	-3493
▁raw	-3494
▁sla	-3495
▁sup	-3496
aches	-3497
arily	-3498
eding	-3499
groom	-3500
habit	-3501
ighty	-3502
ipped	-3503
oming	-3504
place	-3505
rence	-3506
ucees	-3507
vious	-3508
▁acqu	-3509
▁adam	-3510
▁bags	-3511
▁belt	-3512
▁bend	-3513
▁bind	-3514
▁desp	-3515
▁ends	-3516
▁evid	-3517
▁exal	-3518
▁exam	-3519
▁exer	-3520
▁felt	-3521
▁fled	-3522
▁huge	-3523
▁hunt	-3524
▁join	-3525
▁levi	-3526
▁lips	-3527
▁paid	-3528
▁plot	-3529
▁push	-3530
▁recl	-3531
▁rein	-3532
▁rejo	-3533
▁ride	-3534
▁rose	-3535
▁safe	-3536
▁scor	-3537
▁seal	-3538
▁sens	-3539
▁task	-3540
▁wept	-3541
▁wish	-3542
▁yard	-3543
aining	-3544
ifying	-3545
struct	-3546
▁anger	-3547
▁basis	-3548
▁brace	-3549
▁cliff	-3550
▁const	-3551
▁creek	-3552
▁cured	-3553
▁daily	-3554
▁dream	-3555
▁dwell	-3556
▁elses	-3557
▁empty	-3558
▁falls	-3559
▁fetch	-3560
▁fever	-3561
▁fragr	-3562
▁guest	-3563
▁hates	-3564
▁honey	-3565
▁invol	-3566
▁jonah	-3567
▁lamps	-3568
▁leads	-3569
▁lever	-3570
▁looks	-3571
▁loses	-3572
▁names	-3573
▁noble	-3574
▁papay	-3575
▁pesos	-3576
▁price	-3577
▁quite	-3578
▁recip	-3579
▁risen	-3580
▁satis	-3581
▁stalk	-3582
▁story	-3583
▁strug	-3584
▁thigh	-3585
▁urged	-3586
▁veget	-3587
▁waves	-3588
▁wrest	-3589
izabeth	-3590
mission	-3591
quently	-3592
▁appeal	-3593
▁associ	-3594
▁claims	-3595
▁compet	-3596
▁demand	-3597
▁dinner	-3598
▁easier	-3599
▁eunuch	-3600
▁famine	-3601
▁fierce	-3602
▁flavor	-3603
▁greedy	-3604
▁growth	-3605
▁hollow	-3606
▁houses	-3607
▁kapugi	-3608
▁landed	-3609
▁market	-3610
▁mouths	-3611
▁nearby	-3612
▁powers	-3613
▁rebuke	-3614
▁rolled	-3615
▁scrape	-3616
▁shaken	-3617
▁strips	-3618
▁thomas	-3619
▁wooden	-3620
▁yellow	-3621
▁accompl	-3622
▁apollos	-3623
▁bathing	-3624
▁bearing	-3625
▁begging	-3626
▁bethany	-3627
▁carabao	-3628
▁created	-3629
▁deserve	-3630
▁disappe	-3631
▁earlier	-3632
▁fasting	-3633
▁fingers	-3634
▁garment	-3635
▁immoral	-3636
▁inhabit	-3637
▁leaning	-3638
▁letters	-3639
▁mothers	-3640
▁natural	-3641
▁perhaps	-3642
▁problem	-3643
▁provide	-3644
▁refused	-3645
▁respons	-3646
▁samaria	-3647
▁sandals	-3648
▁several	-3649
▁sincere	-3650
▁squeeze	-3651
▁stephen	-3652
▁suppose	-3653
▁torment	-3654
▁watched	-3655
▁accepted	-3656
▁almighty	-3657
▁barabbas	-3658
▁becoming	-3659
▁believer	-3660
▁blessing	-3661
▁credited	-3662
▁diseases	-3663
▁dwelling	-3664
▁holiness	-3665
▁increase	-3666
▁interest	-3667
▁mourning	-3668
▁overcome	-3669
▁planting	-3670
▁potatoes	-3671
▁precious	-3672
▁prophesy	-3673
▁realized	-3674
▁required	-3675
▁separate	-3676
▁troubled	-3677
▁withdrew	-3678
▁affection	-3679
▁elizabeth	-3680
▁expecting	-3681
▁firstborn	-3682
▁interpret	-3683
▁possessed	-3684
▁rebellion	-3685
▁returning	-3686
▁sadducees	-3687
▁surprised	-3688
▁bridegroom	-3689
▁distressed	-3690
▁everywhere	-3691
▁revelation	-3692
▁sufferings	-3693
▁surrounded	-3694
▁transgress	-3695
▁acknowledge	-3696
▁destination	-3697
▁forgiveness	-3698
▁instructions	-3699
▁perseverance	-3700
br	-3701
ex	-3702
ik	-3703
my	-3704
uz	-3705
ym	-3706
ams	-3707
bir	-3708
een	-3709
epr	-3710
ety	-3711
ger	-3712
iap	-3713
kud	-3714
min	-3715
pit	-3716
ria	-3717
val	-3718
ably	-3719
agle	-3720
ansp	-3721
cean	-3722
cial	-3723
dish	-3724
icia	-3725
inal	-3726
kind	-3727
kins	-3728
lets	-3729
lled	-3730
lmed	-3731
medy	-3732
odom	-3733
over	-3734
ract	-3735
resh	-3736
ture	-3737
udes	-3738
unch	-3739
▁bro	-3740
▁cou	-3741
▁cre	-3742
▁diz	-3743
▁don	-3744
▁dug	-3745
▁exc	-3746
▁gun	-3747
▁haw	-3748
▁imm	-3749
▁jar	-3750
▁key	-3751
▁tur	-3752
▁und	-3753
acing	-3754
anket	-3755
arant	-3756
break	-3757
estic	-3758
ident	-3759
itism	-3760
owing	-3761
ulate	-3762
utter	-3763
▁acts	-3764
▁ages	-3765
▁conn	-3766
▁cove	-3767
▁crim	-3768
▁duty	-3769
▁fung	-3770
▁gall	-3771
▁hail	-3772
▁hind	-3773
▁humb	-3774
▁itch	-3775
▁jeep	-3776
▁kobb	-3777
▁less	-3778
▁lone	-3779
▁lust	-3780
▁mass	-3781
▁miss	-3782
▁mort	-3783
▁pang	-3784
▁rome	-3785
▁sell	-3786
▁shri	-3787
▁shut	-3788
▁stud	-3789
▁suck	-3790
▁tied	-3791
▁toss	-3792
▁tune	-3793
▁warm	-3794
acious	-3795
ainted	-3796
ashing	-3797
ensive	-3798
eprice	-3799
giving	-3800
ically	-3801
icious	-3802
rolled	-3803
string	-3804
wardly	-3805
▁aware	-3806
▁beads	-3807
▁bears	-3808
▁conse	-3809
▁dilig	-3810
▁drove	-3811
▁error	-3812
▁event	-3813
▁exact	-3814
▁exerc	-3815
▁faces	-3816
▁ghost	-3817
▁greek	-3818
▁hairs	-3819
▁hurry	-3820
▁innoc	-3821
▁judah	-3822
▁knock	-3823
▁ocean	-3824
▁olive	-3825
▁oppos	-3826
▁overt	-3827
▁protr	-3828
▁prove	-3829
▁reach	-3830
▁restr	-3831
▁sends	-3832
▁shaft	-3833
▁shirt	-3834
▁slice	-3835
▁sodom	-3836
▁south	-3837
▁space	-3838
▁spent	-3839
▁squir	-3840
▁state	-3841
▁tails	-3842
▁thats	-3843
▁tooth	-3844
▁tremb	-3845
▁upper	-3846
▁walls	-3847
▁weary	-3848
▁winds	-3849
▁wines	-3850
▁wrink	-3851
▁youre	-3852
▁zebed	-3853
emption	-3854
ibility	-3855
whelmed	-3856
▁achaia	-3857
▁action	-3858
▁bitter	-3859
▁chewed	-3860
▁chicks	-3861
▁cooked	-3862
▁corner	-3863
▁couple	-3864
▁denied	-3865
▁desert	-3866
▁divide	-3867
▁flower	-3868
▁fourth	-3869
▁fruits	-3870
▁gained	-3871
▁handle	-3872
▁helped	-3873
▁hurled	-3874
▁indign	-3875
▁multip	-3876
▁nearly	-3877
▁obtain	-3878
▁offend	-3879
▁pagans	-3880
▁papaya	-3881
▁prince	-3882
▁proved	-3883
▁pulled	-3884
▁reconc	-3885
▁remedy	-3886
▁shadow	-3887
▁showed	-3888
▁snakes	-3889
▁theirs	-3890
▁transp	-3891
▁belongs	-3892
▁benefit	-3893
▁blanket	-3894
▁caesars	-3895
▁christs	-3896
▁citizen	-3897
▁corinth	-3898
▁emotion	-3899
▁exposed	-3900
▁freedom	-3901
▁further	-3902
▁gentile	-3903
▁guarant	-3904
▁healthy	-3905
▁herself	-3906
▁highest	-3907
▁include	-3908
▁lawless	-3909
▁mankind	-3910
▁messeng	-3911
▁passing	-3912
▁plagues	-3913
▁pointed	-3914
▁protect	-3915
▁putting	-3916
▁reddish	-3917
▁reinfor	-3918
▁related	-3919
▁scratch	-3920
▁sinning	-3921
▁teaches	-3922
▁various	-3923
▁weather	-3924
▁working	-3925
▁abrahams	-3926
▁affected	-3927
▁arranged	-3928
▁covering	-3929
▁distress	-3930
▁domestic	-3931
▁kobbiung	-3932
▁location	-3933
▁obedient	-3934
▁officers	-3935
▁praising	-3936
▁produced	-3937
▁promises	-3938
▁publicly	-3939
▁sexually	-3940
▁subjects	-3941
▁transfer	-3942
▁endurance	-3943
▁expensive	-3944
▁followers	-3945
▁including	-3946
▁increased	-3947
▁officials	-3948
▁overcomes	-3949
▁prisoners	-3950
▁privately	-3951
▁strangers	-3952
▁terrified	-3953
▁testified	-3954
▁testifies	-3955
▁tradition	-3956
▁treatment	-3957
▁wineskins	-3958
▁appearance	-3959
▁brideprice	-3960
▁difficulty	-3961
▁favoritism	-3962
▁frightened	-3963
▁frustrated	-3964
▁redemption	-3965
▁sacrificed	-3966
▁inhabitants	-3967
▁overwhelmed	-3968
▁proclaiming	-3969
▁surrounding	-3970
▁circumstances	-3971
▁intentionally	-3972
ga	-3973
ha	-3974
mn	-3975
oe	-3976
va	-3977
▁;	-3978
aca	-3979
ama	-3980
ank	-3981
aws	-3982
ber	-3983
eks	-3984
fly	-3985
hip	-3986
how	-3987
ila	-3988
ior	-3989
iti	-3990
mph	-3991
nel	-3992
new	-3993
pes	-3994
rog	-3995
utt	-3996
yss	-3997
▁ev	-3998
▁ok	-3999
▁ow	-4000
▁ox	-4001
brow	-4002
elze	-4003
erty	-4004
even	-4005
four	-4006
ibly	-4007
idon	-4008
istr	-4009
just	-4010
lebr	-4011
lect	-4012
osit	-4013
pent	-4014
thew	-4015
tion	-4016
tled	-4017
uish	-4018
umin	-4019
▁aqu	-4020
▁cep	-4021
▁fan	-4022
▁fox	-4023
▁inj	-4024
▁nic	-4025
▁nut	-4026
▁owe	-4027
▁pal	-4028
▁pus	-4029
▁rad	-4030
▁ram	-4031
▁sne	-4032
▁spo	-4033
▁sus	-4034
▁uns	-4035
arden	-4036
ashes	-4037
asted	-4038
aters	-4039
cover	-4040
cript	-4041
enced	-4042
erday	-4043
ially	-4044
iance	-4045
icted	-4046
iding	-4047
iment	-4048
itary	-4049
ivers	-4050
lehem	-4051
ounce	-4052
plane	-4053
ropri	-4054
wards	-4055
water	-4056
▁alph	-4057
▁arou	-4058
▁beet	-4059
▁bore	-4060
▁burd	-4061
▁cana	-4062
▁conv	-4063
▁dare	-4064
▁deny	-4065
▁desc	-4066
▁dump	-4067
▁eats	-4068
▁exch	-4069
▁frog	-4070
▁grey	-4071
▁hawk	-4072
▁idle	-4073
▁inqu	-4074
▁item	-4075
▁knee	-4076
▁late	-4077
▁lest	-4078
▁lots	-4079
▁luck	-4080
▁nath	-4081
▁nine	-4082
▁noah	-4083
▁noon	-4084
▁nose	-4085
▁note	-4086
▁pear	-4087
▁pest	-4088
▁poke	-4089
▁post	-4090
▁quit	-4091
▁rely	-4092
▁ripe	-4093
▁rush	-4094
▁sets	-4095
▁stab	-4096
▁tall	-4097
▁thus	-4098
▁tips	-4099
▁tyre	-4100
▁vain	-4101
▁vict	-4102
▁wave	-4103
▁yest	-4104
chized	-4105
iaphas	-4106
mitted	-4107
ounced	-4108
stairs	-4109
uction	-4110
▁abaca	-4111
▁abund	-4112
▁abyss	-4113
▁agkud	-4114
▁armed	-4115
▁cheer	-4116
▁chest	-4117
▁cries	-4118
▁crows	-4119
▁delay	-4120
▁dress	-4121
▁extra	-4122
▁faint	-4123
▁fifty	-4124
▁grief	-4125
▁happy	-4126
▁hated	-4127
▁horiz	-4128
▁indul	-4129
▁inner	-4130
▁layer	-4131
▁naked	-4132
▁pangi	-4133
▁pauls	-4134
▁prost	-4135
▁proud	-4136
▁relig	-4137
▁rises	-4138
▁robes	-4139
▁rocky	-4140
▁shoot	-4141
▁sidon	-4142
▁slide	-4143
▁spark	-4144
▁spill	-4145
▁stiff	-4146
▁sting	-4147
▁super	-4148
▁swing	-4149
▁taxes	-4150
▁trail	-4151
▁tramp	-4152
▁unlea	-4153
▁untie	-4154
▁veins	-4155
andered	-4156
atively	-4157
ernacle	-4158
ression	-4159
sidered	-4160
ustomed	-4161
▁battle	-4162
▁beelze	-4163
▁begins	-4164
▁beings	-4165
▁boldly	-4166
▁branch	-4167
▁burrow	-4168
▁celebr	-4169
▁cephas	-4170
▁chills	-4171
▁closed	-4172
▁collap	-4173
▁curved	-4174
▁donkey	-4175
▁extend	-4176
▁footst	-4177
▁freely	-4178
▁garden	-4179
▁gentle	-4180
▁golden	-4181
▁havent	-4182
▁hospit	-4183
▁incomp	-4184
▁ladder	-4185
▁length	-4186
▁locked	-4187
▁locust	-4188
▁loudly	-4189
▁merely	-4190
▁mocked	-4191
▁mutual	-4192
▁overfl	-4193
▁plenty	-4194
▁pounds	-4195
▁raider	-4196
▁redeem	-4197
▁relent	-4198
▁rotten	-4199
▁skinny	-4200
▁spears	-4201
▁spouse	-4202
▁sticky	-4203
▁supply	-4204
▁talked	-4205
▁throat	-4206
▁uncons	-4207
▁united	-4208
▁virgin	-4209
▁werent	-4210
▁wiggle	-4211
chizedek	-4212
structed	-4213
▁accepts	-4214
▁accused	-4215
▁advance	-4216
▁breasts	-4217
▁clothed	-4218
▁deposit	-4219
▁discern	-4220
▁divorce	-4221
▁driving	-4222
▁explain	-4223
▁falling	-4224
▁falsely	-4225
▁fishing	-4226
▁furious	-4227
▁granted	-4228
▁halfway	-4229
▁hanging	-4230
▁imitate	-4231
▁intense	-4232
▁kernels	-4233
▁marries	-4234
▁matthew	-4235
▁passage	-4236
▁plainly	-4237
▁portion	-4238
▁procons	-4239
▁reserve	-4240
▁restore	-4241
▁rushing	-4242
▁selfish	-4243
▁seventh	-4244
▁singing	-4245
▁stirred	-4246
▁strands	-4247
▁stretch	-4248
▁thrones	-4249
▁wearing	-4250
▁weeding	-4251
▁worried	-4252
▁airplane	-4253
▁arriving	-4254
▁assembly	-4255
▁business	-4256
▁caiaphas	-4257
▁cleansed	-4258
▁creature	-4259
▁decision	-4260
▁deserves	-4261
▁estimate	-4262
▁feelings	-4263
▁fullness	-4264
▁generous	-4265
▁ignorant	-4266
▁innocent	-4267
▁jealousy	-4268
▁mistreat	-4269
▁multiple	-4270
▁necklace	-4271
▁offering	-4272
▁pharisee	-4273
▁physical	-4274
▁possibly	-4275
▁property	-4276
▁purchase	-4277
▁pursuing	-4278
▁reaching	-4279
▁receives	-4280
▁solitary	-4281
▁treasure	-4282
▁uprooted	-4283
▁villages	-4284
controlled	-4285
▁abandoned	-4286
▁associate	-4287
▁baptizing	-4288
▁basketful	-4289
▁bethlehem	-4290
▁conceited	-4291
▁descended	-4292
▁direction	-4293
▁disturbed	-4294
▁establish	-4295
▁godliness	-4296
▁guarantee	-4297
▁otherwise	-4298
▁paralyzed	-4299
▁presented	-4300
▁questions	-4301
▁regarding	-4302
▁samaritan	-4303
▁secondary	-4304
▁separated	-4305
▁shoulders	-4306
▁yesterday	-4307
▁accomplish	-4308
▁considered	-4309
▁constantly	-4310
▁tabernacle	-4311
▁underwater	-4312
▁unleavened	-4313
▁approaching	-4314
▁established	-4315
▁fulfillment	-4316
▁instruction	-4317
▁melchizedek	-4318
▁persecution	-4319
▁preparation	-4320
▁unconscious	-4321
▁strengthened	-4322
▁encouragement	-4323
▁responsibility	-4324
hy	-4325
uy	-4326
aqu	-4327
arm	-4328
aro	-4329
bey	-4330
bit	-4331
der	-4332
erv	-4333
inc	-4334
iod	-4335
lex	-4336
nut	-4337
ode	-4338
ory	-4339
ply	-4340
raw	-4341
roc	-4342
vao	-4343
▁rh	-4344
acks	-4345
aida	-4346
aman	-4347
anas	-4348
aper	-4349
arsh	-4350
atus	-4351
ceed	-4352
fold	-4353
iate	-4354
iety	-4355
ilan	-4356
ists	-4357
itch	-4358
lict	-4359
obey	-4360
oint	-4361
olis	-4362
ping	-4363
play	-4364
prus	-4365
quer	-4366
race	-4367
rene	-4368
stra	-4369
time	-4370
work	-4371
▁anx	-4372
▁bul	-4373
▁cow	-4374
▁exe	-4375
▁fut	-4376
▁gro	-4377
▁hat	-4378
▁heb	-4379
▁lap	-4380
▁lim	-4381
▁lux	-4382
▁maj	-4383
▁pol	-4384
▁por	-4385
▁rot	-4386
▁sle	-4387
▁sor	-4388
▁tag	-4389
▁tam	-4390
▁toe	-4391
▁vip	-4392
▁vom	-4393
▁wax	-4394
▁zen	-4395
airus	-4396
aming	-4397
anael	-4398
ansom	-4399
arely	-4400
armed	-4401
arted	-4402
aster	-4403
bbing	-4404
birth	-4405
ciful	-4406
elius	-4407
erate	-4408
erity	-4409
erved	-4410
grace	-4411
iator	-4412
icate	-4413
iliar	-4414
ively	-4415
night	-4416
onged	-4417
ooked	-4418
orted	-4419
stood	-4420
thood	-4421
tyard	-4422
urity	-4423
venge	-4424
verse	-4425
verty	-4426
ython	-4427
▁abst	-4428
▁adop	-4429
▁alex	-4430
▁anch	-4431
▁bank	-4432
▁base	-4433
▁beha	-4434
▁busy	-4435
▁cott	-4436
▁cure	-4437
▁defe	-4438
▁excl	-4439
▁goss	-4440
▁harp	-4441
▁hide	-4442
▁hoop	-4443
▁huun	-4444
▁hymn	-4445
▁icon	-4446
▁liqu	-4447
▁lull	-4448
▁mott	-4449
▁peel	-4450
▁pepp	-4451
▁pier	-4452
▁prof	-4453
▁sang	-4454
▁shes	-4455
▁sift	-4456
▁sour	-4457
▁suit	-4458
▁taro	-4459
▁ties	-4460
▁toes	-4461
▁tres	-4462
▁wail	-4463
▁weap	-4464
▁worm	-4465
▁worn	-4466
aneous	-4467
erving	-4468
formed	-4469
iation	-4470
icient	-4471
ighted	-4472
itudes	-4473
licted	-4474
parent	-4475
resent	-4476
veling	-4477
▁alien	-4478
▁arrog	-4479
▁assum	-4480
▁badly	-4481
▁beans	-4482
▁beths	-4483
▁blows	-4484
▁brown	-4485
▁clink	-4486
▁clust	-4487
▁compl	-4488
▁court	-4489
▁crabs	-4490
▁crops	-4491
▁davao	-4492
▁decay	-4493
▁decre	-4494
▁dizzy	-4495
▁doves	-4496
▁drawn	-4497
▁enjoy	-4498
▁equal	-4499
▁felix	-4500
▁flash	-4501
▁foods	-4502
▁forfe	-4503
▁grasp	-4504
▁habit	-4505
▁hades	-4506
▁harsh	-4507
▁lymph	-4508
▁magic	-4509
▁maybe	-4510
▁memor	-4511
▁music	-4512
▁nodes	-4513
▁pinch	-4514
▁plays	-4515
▁pluck	-4516
▁refer	-4517
▁resol	-4518
▁rules	-4519
▁seems	-4520
▁sense	-4521
▁shook	-4522
▁sides	-4523
▁sixth	-4524
▁skirt	-4525
▁smart	-4526
▁songs	-4527
▁swall	-4528
▁swear	-4529
▁syria	-4530
▁trick	-4531
▁turns	-4532
▁warri	-4533
▁wiped	-4534
attened	-4535
fulness	-4536
ossible	-4537
▁absent	-4538
▁advice	-4539
▁agrees	-4540
▁assign	-4541
▁biting	-4542
▁blouse	-4543
▁builds	-4544
▁burial	-4545
▁carved	-4546
▁circle	-4547
▁cities	-4548
▁cliffs	-4549
▁clothe	-4550
▁cyprus	-4551
▁devour	-4552
▁divine	-4553
▁double	-4554
▁driven	-4555
▁eleven	-4556
▁encirc	-4557
▁enters	-4558
▁entire	-4559
▁flying	-4560
▁forces	-4561
▁fungus	-4562
▁gently	-4563
▁grapes	-4564
▁height	-4565
▁ignore	-4566
▁inform	-4567
▁invite	-4568
▁jailer	-4569
▁jairus	-4570
▁landsl	-4571
▁laying	-4572
▁lovers	-4573
▁lystra	-4574
▁manner	-4575
▁member	-4576
▁moving	-4577
▁needle	-4578
▁oppose	-4579
▁outlet	-4580
▁overse	-4581
▁owners	-4582
▁pearls	-4583
▁penetr	-4584
▁period	-4585
▁pestle	-4586
▁pierce	-4587
▁piglet	-4588
▁provid	-4589
▁purple	-4590
▁python	-4591
▁ransom	-4592
▁repeat	-4593
▁robbed	-4594
▁scream	-4595
▁serves	-4596
▁settle	-4597
▁shield	-4598
▁shrimp	-4599
▁sickle	-4600
▁simply	-4601
▁slowly	-4602
▁spider	-4603
▁sticks	-4604
▁theres	-4605
▁thighs	-4606
▁thread	-4607
▁threat	-4608
▁trials	-4609
▁triump	-4610
▁uproar	-4611
▁walked	-4612
▁wasted	-4613
▁worker	-4614
▁ability	-4615
▁actions	-4616
▁airborn	-4617
▁appears	-4618
▁council	-4619
▁cracked	-4620
▁crossed	-4621
▁customs	-4622
▁declare	-4623
▁devoted	-4624
▁disobey	-4625
▁display	-4626
▁dragged	-4627
▁escaped	-4628
▁exalted	-4629
▁exclaim	-4630
▁feeling	-4631
▁greeted	-4632
▁grumble	-4633
▁helping	-4634
▁honored	-4635
▁horizon	-4636
▁hosanna	-4637
▁iconium	-4638
▁incense	-4639
▁insults	-4640
▁killing	-4641
▁manager	-4642
▁mottled	-4643
▁nursing	-4644
▁opening	-4645
▁pierced	-4646
▁piglets	-4647
▁poverty	-4648
▁pressed	-4649
▁prevent	-4650
▁rescued	-4651
▁respond	-4652
▁selling	-4653
▁setting	-4654
▁seventy	-4655
▁shelter	-4656
▁showing	-4657
▁slashed	-4658
▁smaller	-4659
▁sparrow	-4660
▁special	-4661
▁stepped	-4662
▁twisted	-4663
▁violent	-4664
▁wanting	-4665
▁worldly	-4666
▁wrestle	-4667
▁zebedee	-4668
ification	-4669
▁accusing	-4670
▁activity	-4671
▁ambition	-4672
▁betelnut	-4673
▁bleeding	-4674
▁breaking	-4675
▁climbing	-4676
▁daylight	-4677
▁directed	-4678
▁directly	-4679
▁disgrace	-4680
▁evidence	-4681
▁familiar	-4682
▁formerly	-4683
▁fragrant	-4684
▁greeting	-4685
▁guardian	-4686
▁humility	-4687
▁langilan	-4688
▁mediator	-4689
▁merciful	-4690
▁motioned	-4691
▁opposite	-4692
▁particip	-4693
▁peaceful	-4694
▁protrude	-4695
▁punished	-4696
▁remained	-4697
▁requires	-4698
▁severely	-4699
▁shouldnt	-4700
▁sickness	-4701
▁starting	-4702
▁stepping	-4703
▁struggle	-4704
▁swelling	-4705
▁touching	-4706
▁trespass	-4707
▁troubles	-4708
▁upstairs	-4709
▁withered	-4710
▁bethsaida	-4711
▁blasphemy	-4712
▁collector	-4713
▁comforted	-4714
▁commended	-4715
▁continued	-4716
▁cornelius	-4717
▁courtyard	-4718
▁decorated	-4719
▁dishonest	-4720
▁earnestly	-4721
▁forgotten	-4722
▁gathering	-4723
▁indignant	-4724
▁nathanael	-4725
▁obedience	-4726
▁persuaded	-4727
▁proconsul	-4728
▁reclining	-4729
▁relations	-4730
▁represent	-4731
▁sharpened	-4732
▁shepherds	-4733
▁shriveled	-4734
▁sprinkled	-4735
▁stretched	-4736
▁stumbling	-4737
▁thousands	-4738
▁trembling	-4739
▁accustomed	-4740
▁acquainted	-4741
▁basketfuls	-4742
▁descendant	-4743
▁distracted	-4744
▁impossible	-4745
▁prostitute	-4746
▁reconciled	-4747
▁understood	-4748
▁whispering	-4749
▁commandment	-4750
▁countryside	-4751
▁disciplined	-4752
▁emotionally	-4753
▁grandparent	-4754
▁transparent	-4755
▁unbelieving	-4756
▁preparations	-4757
▁relentlessly	-4758
▁thanksgiving	-4759
af	-4760
de	-4761
gs	-4762
tw	-4763
wa	-4764
yr	-4765
arr	-4766
cia	-4767
equ	-4768
gam	-4769
hus	-4770
hyl	-4771
ibs	-4772
ito	-4773
kes	-4774
oas	-4775
oph	-4776
orm	-4777
ron	-4778
tic	-4779
uli	-4780
who	-4781
xed	-4782
yal	-4783
▁--	-4784
▁ps	-4785
▁ub	-4786
ards	-4787
aret	-4788
esty	-4789
hens	-4790
here	-4791
hers	-4792
hood	-4793
icho	-4794
icus	-4795
ieve	-4796
illa	-4797
itic	-4798
king	-4799
llig	-4800
mind	-4801
more	-4802
ocod	-4803
oers	-4804
osqu	-4805
rets	-4806
ripe	-4807
teen	-4808
ythm	-4809
▁ark	-4810
▁bra	-4811
▁cil	-4812
▁cob	-4813
▁der	-4814
▁dip	-4815
▁exh	-4816
▁ive	-4817
▁jun	-4818
▁lad	-4819
▁lev	-4820
▁neg	-4821
▁nin	-4822
▁non	-4823
▁ocl	-4824
▁sam	-4825
▁sar	-4826
▁suc	-4827
▁tub	-4828
▁unw	-4829
▁ver	-4830
▁vig	-4831
acher	-4832
ading	-4833
along	-4834
amaic	-4835
amped	-4836
angel	-4837
annel	-4838
aquin	-4839
asion	-4840
assed	-4841
azing	-4842
domen	-4843
edged	-4844
eness	-4845
erers	-4846
field	-4847
glect	-4848
gling	-4849
hylia	-4850
icing	-4851
losed	-4852
neath	-4853
ossom	-4854
racks	-4855
ribed	-4856
uable	-4857
ulfur	-4858
umber	-4859
undry	-4860
▁bang	-4861
▁brie	-4862
▁bush	-4863
▁cain	-4864
▁cats	-4865
▁chop	-4866
▁cool	-4867
▁cord	-4868
▁core	-4869
▁crab	-4870
▁drew	-4871
▁east	-4872
▁fare	-4873
▁flex	-4874
▁forb	-4875
▁game	-4876
▁glow	-4877
▁goal	-4878
▁groo	-4879
▁hall	-4880
▁herd	-4881
▁hive	-4882
▁hook	-4883
▁infl	-4884
▁iron	-4885
▁jere	-4886
▁kick	-4887
▁lawa	-4888
▁luke	-4889
▁marm	-4890
▁nerv	-4891
▁nest	-4892
▁obst	-4893
▁ours	-4894
▁pack	-4895
▁pamp	-4896
▁pile	-4897
▁pill	-4898
▁pont	-4899
▁prey	-4900
▁pula	-4901
▁rash	-4902
▁rent	-4903
▁rept	-4904
▁ring	-4905
▁riot	-4906
▁rule	-4907
▁sard	-4908
▁sinc	-4909
▁slip	-4910
▁spot	-4911
▁ston	-4912
▁surv	-4913
▁susp	-4914
▁sway	-4915
▁tars	-4916
▁tetr	-4917
▁till	-4918
▁tire	-4919
▁topp	-4920
▁unit	-4921
▁unob	-4922
▁uses	-4923
▁wake	-4924
▁wars	-4925
▁webs	-4926
▁whip	-4927
▁whir	-4928
▁wore	-4929
▁yell	-4930
▁yoke	-4931
▁zion	-4932
antage	-4933
apolis	-4934
apping	-4935
crated	-4936
cripts	-4937
fruits	-4938
iction	-4939
idents	-4940
isible	-4941
istent	-4942
itions	-4943
iverse	-4944
otches	-4945
umbled	-4946
▁alike	-4947
▁apply	-4948
▁arist	-4949
▁babys	-4950
▁bands	-4951
▁bathe	-4952
▁blist	-4953
▁boats	-4954
▁books	-4955
▁brill	-4956
▁brood	-4957
▁broom	-4958
▁burnt	-4959
▁canoe	-4960
▁chase	-4961
▁check	-4962
▁choke	-4963
▁coals	-4964
▁covet	-4965
▁craft	-4966
▁crime	-4967
▁denar	-4968
▁depri	-4969
▁desol	-4970
▁doors	-4971
▁dough	-4972
▁dying	-4973
▁eagle	-4974
▁elder	-4975
▁exile	-4976
▁feels	-4977
▁fense	-4978
▁flint	-4979
▁float	-4980
▁foref	-4981
▁fresh	-4982
▁gates	-4983
▁gover	-4984
▁grant	-4985
▁groan	-4986
▁groin	-4987
▁heirs	-4988
▁heron	-4989
▁hills	-4990
▁homes	-4991
▁hurts	-4992
▁imper	-4993
▁inapp	-4994
▁jason	-4995
▁kneel	-4996
▁liars	-4997
▁lower	-4998
▁lunch	-4999
▁manus	-5000
▁mosqu	-5001
▁mound	-5002
▁nests	-5003
▁noise	-5004
▁noisy	-5005
▁occup	-5006
▁occur	-5007
▁pains	-5008
▁patch	-5009
▁plane	-5010
▁pries	-5011
▁prisc	-5012
▁reced	-5013
▁renew	-5014
▁rider	-5015
▁royal	-5016
▁scare	-5017
▁scorp	-5018
▁seize	-5019
▁shred	-5020
▁shrew	-5021
▁sixty	-5022
▁skull	-5023
▁slash	-5024
▁sober	-5025
▁stems	-5026
▁stern	-5027
▁storm	-5028
▁stubb	-5029
▁stump	-5030
▁stung	-5031
▁suppl	-5032
▁trade	-5033
▁traps	-5034
▁tries	-5035
▁troas	-5036
▁twice	-5037
▁twist	-5038
▁vomit	-5039
▁weave	-5040
▁yield	-5041
ointing	-5042
ributed	-5043
ringent	-5044
theless	-5045
ughters	-5046
▁affect	-5047
▁ambush	-5048
▁aquila	-5049
▁beetle	-5050
▁behave	-5051
▁breaks	-5052
▁butter	-5053
▁cloaks	-5054
▁common	-5055
▁confir	-5056
▁cotton	-5057
▁course	-5058
▁coward	-5059
▁crocod	-5060
▁crowns	-5061
▁cyrene	-5062
▁defend	-5063
▁depend	-5064
▁detour	-5065
▁devote	-5066
▁doctor	-5067
▁drying	-5068
▁excell	-5069
▁excuse	-5070
▁execut	-5071
▁exting	-5072
▁farmer	-5073
▁felled	-5074
▁flames	-5075
▁footpr	-5076
▁future	-5077
▁gladly	-5078
▁gossip	-5079
▁grieve	-5080
▁hearth	-5081
▁hebrew	-5082
▁himher	-5083
▁injury	-5084
▁insist	-5085
▁intest	-5086
▁luxury	-5087
▁millet	-5088
▁minute	-5089
▁mortar	-5090
▁ninety	-5091
▁oclock	-5092
▁origin	-5093
▁palace	-5094
▁paying	-5095
▁permit	-5096
▁propag	-5097
▁rapids	-5098
▁realms	-5099
▁regret	-5100
▁remote	-5101
▁rhythm	-5102
▁rights	-5103
▁ruined	-5104
▁sacred	-5105
▁scoots	-5106
▁sealed	-5107
▁shaman	-5108
▁shares	-5109
▁shoots	-5110
▁signal	-5111
▁soaked	-5112
▁sought	-5113
▁sprout	-5114
▁stored	-5115
▁strain	-5116
▁sulfur	-5117
▁swords	-5118
▁tested	-5119
▁thinks	-5120
▁throws	-5121
▁turtle	-5122
▁unripe	-5123
▁vipers	-5124
▁visits	-5125
▁womans	-5126
▁zenith	-5127
aneously	-5128
attering	-5129
istrates	-5130
ribution	-5131
▁abdomen	-5132
▁abstain	-5133
▁alarmed	-5134
▁approve	-5135
▁aramaic	-5136
▁arguing	-5137
▁arrange	-5138
▁attract	-5139
▁besides	-5140
▁blasphe	-5141
▁blazing	-5142
▁blossom	-5143
▁briefly	-5144
▁casting	-5145
▁chained	-5146
▁channel	-5147
▁cilicia	-5148
▁company	-5149
▁consent	-5150
▁content	-5151
▁continu	-5152
▁corners	-5153
▁crooked	-5154
▁depends	-5155
▁despise	-5156
▁dismiss	-5157
▁dispute	-5158
▁endured	-5159
▁examine	-5160
▁fitting	-5161
▁flogged	-5162
▁godless	-5163
▁hunting	-5164
▁hurried	-5165
▁jericho	-5166
▁joaquin	-5167
▁laundry	-5168
▁leading	-5169
▁loosely	-5170
▁majesty	-5171
▁manners	-5172
▁musical	-5173
▁mustard	-5174
▁neglect	-5175
▁numbers	-5176
▁opposed	-5177
▁partner	-5178
▁planned	-5179
▁pleaded	-5180
▁pleases	-5181
▁rolling	-5182
▁roofing	-5183
▁satiate	-5184
▁serious	-5185
▁serving	-5186
▁settled	-5187
▁sharpen	-5188
▁shining	-5189
▁solomon	-5190
▁spreads	-5191
▁streets	-5192
▁swallow	-5193
▁tangled	-5194
▁trusted	-5195
▁upriver	-5196
▁washing	-5197
▁wouldnt	-5198
▁wrinkle	-5199
▁zealous	-5200
▁addition	-5201
▁airborne	-5202
▁approach	-5203
▁barracks	-5204
▁behavior	-5205
▁beheaded	-5206
▁builders	-5207
▁ceremony	-5208
▁claiming	-5209
▁collects	-5210
▁crossing	-5211
▁darkened	-5212
▁daybreak	-5213
▁deceives	-5214
▁demanded	-5215
▁demonstr	-5216
▁deserted	-5217
▁entrance	-5218
▁exchange	-5219
▁exercise	-5220
▁expected	-5221
▁fastened	-5222
▁gnashing	-5223
▁gracious	-5224
▁impurity	-5225
▁included	-5226
▁infected	-5227
▁intellig	-5228
▁intended	-5229
▁kapalong	-5230
▁leverage	-5231
▁listened	-5232
▁measured	-5233
▁minister	-5234
▁mosquito	-5235
▁pressure	-5236
▁quarrels	-5237
▁reasoned	-5238
▁reciproc	-5239
▁reconcil	-5240
▁regarded	-5241
▁reptiles	-5242
▁restored	-5243
▁shameful	-5244
▁shoulder	-5245
▁siblings	-5246
▁solomons	-5247
▁stranger	-5248
▁strongly	-5249
▁tetrarch	-5250
▁trampled	-5251
▁treasury	-5252
▁universe	-5253
▁valuable	-5254
▁wandered	-5255
▁worrying	-5256
▁accompany	-5257
▁acknowled	-5258
▁advantage	-5259
▁afflicted	-5260
▁afterward	-5261
▁assembled	-5262
▁attitudes	-5263
▁believing	-5264
▁collected	-5265
▁conceived	-5266
▁condition	-5267
▁connected	-5268
▁corrupted	-5269
▁crosswise	-5270
▁deserving	-5271
▁disappear	-5272
▁disclosed	-5273
▁effective	-5274
▁fireplace	-5275
▁footstool	-5276
▁foreigner	-5277
▁harvested	-5278
▁hypocrisy	-5279
▁idolaters	-5280
▁ignorance	-5281
▁intensely	-5282
▁invisible	-5283
▁messenger	-5284
▁multitude	-5285
▁murderers	-5286
▁observing	-5287
▁pamphylia	-5288
▁poisonous	-5289
▁pregnancy	-5290
▁priscilla	-5291
▁receiving	-5292
▁residents	-5293
▁satisfied	-5294
▁shellfish	-5295
▁sincerity	-5296
▁surrounds	-5297
▁teachings	-5298
▁temporary	-5299
▁traveling	-5300
▁vegetable	-5301
▁worthless	-5302
▁accusation	-5303
▁adulteries	-5304
▁astringent	-5305
▁beforehand	-5306
▁childbirth	-5307
▁determined	-5308
▁frequently	-5309
▁generously	-5310
▁impression	-5311
▁inappropri	-5312
▁incomplete	-5313
▁instructed	-5314
▁permission	-5315
▁priesthood	-5316
▁prophesied	-5317
▁resembling	-5318
▁underneath	-5319
▁accompanied	-5320
▁consecrated	-5321
▁encouraging	-5322
▁excessively	-5323
▁firstfruits	-5324
▁interrupted	-5325
▁magistrates	-5326
▁manuscripts	-5327
▁temporarily	-5328
▁unbelievers	-5329
▁commandments	-5330
▁disobedience	-5331
▁domesticated	-5332
▁mountainside	-5333
▁nevertheless	-5334
▁persecutions	-5335
▁unobstructed	-5336
ax	-5337
ec	-5338
gu	-5339
rs	-5340
sk	-5341
zz	-5342
▁!	-5343
...	-5344
acy	-5345
ada	-5346
ads	-5347
afe	-5348
ape	-5349
arf	-5350
aud	-5351
ays	-5352
aze	-5353
bin	-5354
bow	-5355
bub	-5356
ees	-5357
elt	-5358
elu	-5359
gon	-5360
hew	-5361
hic	-5362
hos	-5363
hud	-5364
ica	-5365
ipe	-5366
isp	-5367
leg	-5368
lls	-5369
mas	-5370
nes	-5371
onn	-5372
rah	-5373
ran	-5374
ric	-5375
rip	-5376
rob	-5377
rrh	-5378
tal	-5379
tem	-5380
uan	-5381
ube	-5382
udd	-5383
ugt	-5384
was	-5385
you	-5386
▁ak	-5387
▁dw	-5388
acts	-5389
aism	-5390
alon	-5391
aped	-5392
aphr	-5393
aria	-5394
atly	-5395
come	-5396
dess	-5397
emus	-5398
enes	-5399
excl	-5400
fall	-5401
fast	-5402
fted	-5403
have	-5404
holy	-5405
icea	-5406
icin	-5407
iery	-5408
ifth	-5409
ilet	-5410
inte	-5411
ivid	-5412
lcer	-5413
mbol	-5414
nine	-5415
oard	-5416
okes	-5417
olar	-5418
omew	-5419
omor	-5420
onge	-5421
ouch	-5422
post	-5423
pted	-5424
rain	-5425
rand	-5426
reme	-5427
resp	-5428
rigg	-5429
rine	-5430
thol	-5431
uana	-5432
ubun	-5433
uded	-5434
urdy	-5435
uted	-5436
utes	-5437
uzzy	-5438
wood	-5439
worm	-5440
▁abi	-5441
▁aim	-5442
▁awe	-5443
▁bee	-5444
▁bew	-5445
▁cic	-5446
▁cop	-5447
▁dan	-5448
▁gle	-5449
▁jab	-5450
▁jas	-5451
▁kid	-5452
▁lyd	-5453
▁mod	-5454
▁mur	-5455
▁nas	-5456
▁obl	-5457
▁obt	-5458
▁pan	-5459
▁pul	-5460
▁rev	-5461
▁rod	-5462
▁rop	-5463
▁sto	-5464
▁sty	-5465
▁thy	-5466
▁tow	-5467
▁wol	-5468
▁won	-5469
▁zer	-5470
anary	-5471
athea	-5472
ators	-5473
board	-5474
cloth	-5475
ealog	-5476
ement	-5477
ences	-5478
encia	-5479
ernal	-5480
grate	-5481
ildew	-5482
imbed	-5483
imeon	-5484
inary	-5485
inent	-5486
inion	-5487
ishes	-5488
istic	-5489
itter	-5490
ivate	-5491
jamin	-5492
oking	-5493
older	-5494
olish	-5495
ollen	-5496
oping	-5497
order	-5498
orged	-5499
ourse	-5500
rance	-5501
rison	-5502
sized	-5503
temis	-5504
ulted	-5505
ymied	-5506
▁abel	-5507
▁alik	-5508
▁anci	-5509
▁arch	-5510
▁arim	-5511
▁bala	-5512
▁bere	-5513
▁bits	-5514
▁blue	-5515
▁buck	-5516
▁bull	-5517
▁calf	-5518
▁cane	-5519
▁clam	-5520
▁code	-5521
▁cult	-5522
▁cuts	-5523
▁diss	-5524
▁elen	-5525
▁encl	-5526
▁ener	-5527
▁eyel	-5528
▁flap	-5529
▁furn	-5530
▁gnaw	-5531
▁grab	-5532
▁grat	-5533
▁hang	-5534
▁haul	-5535
▁hips	-5536
▁hire	-5537
▁laod	-5538
▁leak	-5539
▁lion	-5540
▁lung	-5541
▁magu	-5542
▁mong	-5543
▁moth	-5544
▁nail	-5545
▁nets	-5546
▁null	-5547
▁omen	-5548
▁oper	-5549
▁outs	-5550
▁poet	-5551
▁poll	-5552
▁pots	-5553
▁pret	-5554
▁prol	-5555
▁puff	-5556
▁quen	-5557
▁race	-5558
▁rage	-5559
▁rats	-5560
▁ribs	-5561
▁roar	-5562
▁sear	-5563
▁seat	-5564
▁seiz	-5565
▁shoo	-5566
▁slap	-5567
▁soap	-5568
▁soup	-5569
▁tend	-5570
▁thor	-5571
▁tore	-5572
▁trip	-5573
▁tube	-5574
▁twin	-5575
▁ubun	-5576
▁uncl	-5577
▁unhe	-5578
▁unst	-5579
▁veil	-5580
▁wilt	-5581
▁womb	-5582
action	-5583
archus	-5584
athery	-5585
atural	-5586
butary	-5587
cepter	-5588
cooked	-5589
elujah	-5590
epress	-5591
issors	-5592
itical	-5593
nowing	-5594
odemus	-5595
olored	-5596
places	-5597
plexed	-5598
riarch	-5599
rovers	-5600
shaped	-5601
ssalon	-5602
stream	-5603
ulsion	-5604
velled	-5605
velous	-5606
▁accur	-5607
▁acted	-5608
▁admin	-5609
▁admon	-5610
▁advoc	-5611
▁agony	-5612
▁annas	-5613
▁atone	-5614
▁based	-5615
▁batch	-5616
▁belly	-5617
▁below	-5618
▁bites	-5619
▁blade	-5620
▁board	-5621
▁bowed	-5622
▁bowls	-5623
▁braid	-5624
▁brass	-5625
▁cheek	-5626
▁chips	-5627
▁claud	-5628
▁claws	-5629
▁coast	-5630
▁cogon	-5631
▁coins	-5632
▁consp	-5633
▁creep	-5634
▁crete	-5635
▁crisp	-5636
▁crumb	-5637
▁defec	-5638
▁depra	-5639
▁dishe	-5640
▁drops	-5641
▁dwarf	-5642
▁ended	-5643
▁evild	-5644
▁explo	-5645
▁feeds	-5646
▁fence	-5647
▁fiber	-5648
▁fiery	-5649
▁fifth	-5650
▁figur	-5651
▁filth	-5652
▁flame	-5653
▁flute	-5654
▁fools	-5655
▁fuzzy	-5656
▁galat	-5657
▁glutt	-5658
▁goats	-5659
▁gomor	-5660
▁grown	-5661
▁guilt	-5662
▁heels	-5663
▁hesit	-5664
▁holds	-5665
▁knelt	-5666
▁lambs	-5667
▁leech	-5668
▁lumpy	-5669
▁manip	-5670
▁manob	-5671
▁marks	-5672
▁myrrh	-5673
▁myths	-5674
▁paper	-5675
▁party	-5676
▁paths	-5677
▁patil	-5678
▁peals	-5679
▁penny	-5680
▁perch	-5681
▁queen	-5682
▁react	-5683
▁realm	-5684
▁refle	-5685
▁refus	-5686
▁regul	-5687
▁reply	-5688
▁rough	-5689
▁sandp	-5690
▁scoff	-5691
▁seeks	-5692
▁shing	-5693
▁shone	-5694
▁sings	-5695
▁slain	-5696
▁smile	-5697
▁snail	-5698
▁sniff	-5699
▁solid	-5700
▁souls	-5701
▁sowed	-5702
▁speck	-5703
▁spool	-5704
▁staff	-5705
▁stage	-5706
▁steam	-5707
▁steep	-5708
▁strip	-5709
▁stuff	-5710
▁subst	-5711
▁sunny	-5712
▁sweep	-5713
▁tagan	-5714
▁tells	-5715
▁theft	-5716
▁trunk	-5717
▁ulcer	-5718
▁unity	-5719
▁valid	-5720
▁vehic	-5721
▁vicin	-5722
▁vigor	-5723
▁vines	-5724
▁weeks	-5725
▁worms	-5726
covered	-5727
fearing	-5728
hearted	-5729
ichrist	-5730
ishable	-5731
ividual	-5732
ouraged	-5733
passing	-5734
redited	-5735
veloped	-5736
whether	-5737
▁aboard	-5738
▁abound	-5739
▁acting	-5740
▁advers	-5741
▁agreed	-5742
▁aliens	-5743
▁arouse	-5744
▁attach	-5745
▁baliti	-5746
▁beasts	-5747
▁boasts	-5748
▁bounce	-5749
▁bumped	-5750
▁bursts	-5751
▁buying	-5752
▁cavern	-5753
▁cement	-5754
▁childs	-5755
▁choice	-5756
▁choked	-5757
▁cicada	-5758
▁critic	-5759
▁curses	-5760
▁dammed	-5761
▁decide	-5762
▁detach	-5763
▁dishes	-5764
▁embarr	-5765
▁emphas	-5766
▁epaphr	-5767
▁errand	-5768
▁events	-5769
▁expose	-5770
▁failed	-5771
▁feared	-5772
▁fetish	-5773
▁figure	-5774
▁forbid	-5775
▁fought	-5776
▁ghosts	-5777
▁graves	-5778
▁groups	-5779
▁harden	-5780
▁highly	-5781
▁iguana	-5782
▁immort	-5783
▁impart	-5784
▁improb	-5785
▁inches	-5786
▁jasper	-5787
▁joints	-5788
▁jumped	-5789
▁kernel	-5790
▁kissed	-5791
▁lights	-5792
▁liquid	-5793
▁locate	-5794
▁lonely	-5795
▁longed	-5796
▁louder	-5797
▁malice	-5798
▁mildew	-5799
▁mirror	-5800
▁multic	-5801
▁nasuli	-5802
▁native	-5803
▁neatly	-5804
▁nights	-5805
▁obeyed	-5806
▁pencil	-5807
▁pepper	-5808
▁perman	-5809
▁plague	-5810
▁powder	-5811
▁profit	-5812
▁psalms	-5813
▁rained	-5814
▁rarely	-5815
▁recept	-5816
▁refers	-5817
▁refres	-5818
▁relate	-5819
▁rented	-5820
▁richly	-5821
▁riding	-5822
▁rising	-5823
▁rivers	-5824
▁satisf	-5825
▁sawing	-5826
▁seemed	-5827
▁senses	-5828
▁shines	-5829
▁shrewd	-5830
▁simeon	-5831
▁simult	-5832
▁slices	-5833
▁snatch	-5834
▁spices	-5835
▁sponge	-5836
▁stalks	-5837
▁status	-5838
▁strict	-5839
▁sturdy	-5840
▁summer	-5841
▁symbol	-5842
▁tables	-5843
▁tarsus	-5844
▁tasted	-5845
▁tender	-5846
▁theyll	-5847
▁thirty	-5848
▁trance	-5849
▁trusts	-5850
▁unsafe	-5851
▁useful	-5852
▁wander	-5853
▁winter	-5854
▁wolves	-5855
▁yearly	-5856
▁zealot	-5857
ortation	-5858
tholomew	-5859
untarily	-5860
▁allowed	-5861
▁anguish	-5862
▁anybody	-5863
▁anyones	-5864
▁appoint	-5865
▁arrives	-5866
▁artemis	-5867
▁balance	-5868
▁bananas	-5869
▁beating	-5870
▁boiling	-5871
▁capture	-5872
▁chatter	-5873
▁cheated	-5874
▁climbed	-5875
▁commits	-5876
▁compare	-5877
▁confisc	-5878
▁contrad	-5879
▁convers	-5880
▁convert	-5881
▁counsel	-5882
▁crushed	-5883
▁curtain	-5884
▁digging	-5885
▁doorway	-5886
▁drowned	-5887
▁eagerly	-5888
▁element	-5889
▁embrace	-5890
▁eunuchs	-5891
▁experts	-5892
▁eyebrow	-5893
▁fearing	-5894
▁feeding	-5895
▁fingern	-5896
▁fistful	-5897
▁flashes	-5898
▁foaming	-5899
▁forfeit	-5900
▁forgets	-5901
▁goddess	-5902
▁grafted	-5903
▁granary	-5904
▁grieved	-5905
▁growing	-5906
▁highway	-5907
▁humbles	-5908
▁ignited	-5909
▁illumin	-5910
▁incline	-5911
▁indulge	-5912
▁infants	-5913
▁insects	-5914
▁insight	-5915
▁itching	-5916
▁judaism	-5917
▁justify	-5918
▁kindled	-5919
▁letting	-5920
▁listens	-5921
▁locusts	-5922
▁malaria	-5923
▁marmots	-5924
▁mention	-5925
▁miracle	-5926
▁mixture	-5927
▁mudfish	-5928
▁nullify	-5929
▁observe	-5930
▁obvious	-5931
▁offense	-5932
▁opposes	-5933
▁orderly	-5934
▁painful	-5935
▁philipp	-5936
▁pledged	-5937
▁plunder	-5938
▁preying	-5939
▁protest	-5940
▁pulling	-5941
▁pursued	-5942
▁quarrel	-5943
▁raising	-5944
▁reaches	-5945
▁reading	-5946
▁rebuild	-5947
▁recover	-5948
▁reigned	-5949
▁resting	-5950
▁revenge	-5951
▁roasted	-5952
▁robbers	-5953
▁scepter	-5954
▁scolded	-5955
▁secrets	-5956
▁section	-5957
▁seizing	-5958
▁serpent	-5959
▁sharing	-5960
▁silence	-5961
▁slavery	-5962
▁slipped	-5963
▁somehow	-5964
▁sonship	-5965
▁speaker	-5966
▁spilled	-5967
▁strange	-5968
▁streams	-5969
▁stymied	-5970
▁swollen	-5971
▁testing	-5972
▁torture	-5973
▁triumph	-5974
▁upright	-5975
▁upwards	-5976
▁useless	-5977
▁vinegar	-5978
▁visible	-5979
▁visited	-5980
▁wasting	-5981
▁weapons	-5982
▁windows	-5983
▁worries	-5984
roversies	-5985
▁accident	-5986
▁actually	-5987
▁adoption	-5988
▁alphaeus	-5989
▁anointed	-5990
▁approved	-5991
▁arrogant	-5992
▁ascended	-5993
▁assigned	-5994
▁attached	-5995
▁attacked	-5996
▁attitude	-5997
▁bearable	-5998
▁benjamin	-5999
▁betrayer	-6000
▁boastful	-6001
▁borrowed	-6002
▁boundary	-6003
▁bracelet	-6004
▁breastpl	-6005
▁burdened	-6006
▁circular	-6007
▁contamin	-6008
▁contempt	-6009
▁counting	-6010
▁cowardly	-6011
▁crowding	-6012
▁destined	-6013
▁dividing	-6014
▁division	-6015
▁doctrine	-6016
▁drowning	-6017
▁executed	-6018
▁flexible	-6019
▁flooring	-6020
▁fourteen	-6021
▁genealog	-6022
▁gomorrah	-6023
▁headache	-6024
▁herodias	-6025
▁hollowed	-6026
▁imprison	-6027
▁insisted	-6028
▁interced	-6029
▁involved	-6030
▁inwardly	-6031
▁joyfully	-6032
▁junction	-6033
▁laodicea	-6034
▁midnight	-6035
▁movement	-6036
▁negative	-6037
▁numbered	-6038
▁obtained	-6039
▁overflow	-6040
▁overseer	-6041
▁particle	-6042
▁partners	-6043
▁passions	-6044
▁previous	-6045
▁prompted	-6046
▁properly	-6047
▁purposes	-6048
▁quenched	-6049
▁recently	-6050
▁recourse	-6051
▁redeemed	-6052
▁relative	-6053
▁religion	-6054
▁repented	-6055
▁requests	-6056
▁restrain	-6057
▁sanctify	-6058
▁scissors	-6059
▁secretly	-6060
▁securely	-6061
▁shedding	-6062
▁shortcut	-6063
▁sparrows	-6064
▁stripped	-6065
▁suitable	-6066
▁thorough	-6067
▁throwing	-6068
▁unbelief	-6069
▁unstable	-6070
▁valencia	-6071
▁vicinity	-6072
▁visiting	-6073
▁warriors	-6074
▁wrapping	-6075
▁alienated	-6076
▁amazement	-6077
▁announced	-6078
▁anointing	-6079
▁appearing	-6080
▁arimathea	-6081
▁arresting	-6082
▁atonement	-6083
▁beelzebub	-6084
▁blessings	-6085
▁celebrate	-6086
▁cleansing	-6087
▁collapsed	-6088
▁competent	-6089
▁concerned	-6090
▁crocodile	-6091
▁daughters	-6092
▁deceitful	-6093
▁delighted	-6094
▁described	-6095
▁discussed	-6096
▁dismissed	-6097
▁evildoers	-6098
▁excellent	-6099
▁exception	-6100
▁foreheads	-6101
▁governors	-6102
▁hardships	-6103
▁lampstand	-6104
▁landslide	-6105
▁languages	-6106
▁malicious	-6107
▁marvelous	-6108
▁millstone	-6109
▁nicodemus	-6110
▁outwardly	-6111
▁patriarch	-6112
▁perplexed	-6113
▁playfully	-6114
▁practices	-6115
▁preparing	-6116
▁prominent	-6117
▁propagate	-6118
▁rejoicing	-6119
▁reverence	-6120
▁searching	-6121
▁spreading	-6122
▁squirming	-6123
▁standards	-6124
▁thessalon	-6125
▁throbbing	-6126
▁treasures	-6127
▁tributary	-6128
▁waterfall	-6129
▁winepress	-6130
▁winnowing	-6131
▁wondering	-6132
▁antichrist	-6133
▁brightness	-6134
▁brilliance	-6135
▁ceremonial	-6136
▁difference	-6137
▁diligently	-6138
▁discipline	-6139
▁downstream	-6140
▁expression	-6141
▁footprints	-6142
▁foreigners	-6143
▁friendship	-6144
▁hallelujah	-6145
▁harvesters	-6146
▁individual	-6147
▁intestines	-6148
▁mistreated	-6149
▁penetrates	-6150
▁physically	-6151
▁prophesies	-6152
▁questioned	-6153
▁reflection	-6154
▁requesting	-6155
▁settlement	-6156
▁sharpening	-6157
▁straighten	-6158
▁submission	-6159
▁supplanted	-6160
▁temptation	-6161
▁traditions	-6162
▁unbeliever	-6163
▁aristarchus	-6164
▁bartholomew	-6165
▁cornerstone	-6166
▁discouraged	-6167
▁discredited	-6168
▁foolishness	-6169
▁forefathers	-6170
▁hospitality	-6171
▁lightheaded	-6172
▁marketplace	-6173
▁sacrificing	-6174
▁condemnation	-6175
▁continuously	-6176
▁conversation	-6177
▁disappointed	-6178
▁faithfulness	-6179
▁figuratively	-6180
▁imperishable	-6181
▁marketplaces	-6182
▁controversies	-6183
▁involuntarily	-6184
▁justification	-6185
▁strengthening	-6186
▁reconciliation	-6187
▁simultaneously	-6188
▁transgressions	-6189
bl	-6190
eg	-6191
ky	-6192
lg	-6193
lo	-6194
lv	-6195
ma	-6196
mm	-6197
sc	-6198
uk	-6199
tc	-6200
aas	-6201
ahs	-6202
ald	-6203
alt	-6204
aoh	-6205
ara	-6206
auc	-6207
ava	-6208
bor	-6209
chc	-6210
cup	-6211
ded	-6212
ede	-6213
fee	-6214
gly	-6215
gul	-6216
hor	-6217
iel	-6218
igs	-6219
iqu	-6220
ira	-6221
irm	-6222
ita	-6223
iva	-6224
mak	-6225
mat	-6226
nia	-6227
ods	-6228
oen	-6229
oot	-6230
ppy	-6231
rab	-6232
rel	-6233
rep	-6234
rer	-6235
rez	-6236
rit	-6237
rol	-6238
seh	-6239
two	-6240
uge	-6241
uru	-6242
uzz	-6243
wls	-6244
wog	-6245
yes	-6246
yet	-6247
zor	-6248
▁ga	-6249
▁ju	-6250
▁ka	-6251
▁na	-6252
▁ny	-6253
▁pu	-6254
▁uv	-6255
▁vo	-6256
abel	-6257
adab	-6258
addy	-6259
aged	-6260
ales	-6261
alle	-6262
anut	-6263
ares	-6264
aron	-6265
asel	-6266
asig	-6267
avel	-6268
bbly	-6269
burn	-6270
cely	-6271
cius	-6272
dust	-6273
esse	-6274
ffee	-6275
gest	-6276
hery	-6277
hill	-6278
hook	-6279
iant	-6280
iece	-6281
imes	-6282
imps	-6283
imus	-6284
inct	-6285
ingu	-6286
iots	-6287
ique	-6288
itar	-6289
keep	-6290
kiah	-6291
last	-6292
lers	-6293
lies	-6294
lvic	-6295
made	-6296
mant	-6297
mega	-6298
mers	-6299
bye	-6300
beha	-6301
boat	-6302
nant	-6303
nday	-6304
ntit	-6305
ocks	-6306
onan	-6307
ongs	-6308
onse	-6309
onze	-6310
oops	-6311
osop	-6312
osph	-6313
otha	-6314
ouge	-6315
pack	-6316
pers	-6317
phew	-6318
pole	-6319
raft	-6320
rald	-6321
rane	-6322
rate	-6323
rier	-6324
ruct	-6325
sers	-6326
skin	-6327
tali	-6328
than	-6329
they	-6330
tles	-6331
told	-6332
ucus	-6333
udge	-6334
unge	-6335
urse	-6336
usan	-6337
usow	-6338
vens	-6339
vill	-6340
what	-6341
with	-6342
ymus	-6343
zron	-6344
▁???	-6345
▁abr	-6346
▁abu	-6347
▁adj	-6348
▁ata	-6349
▁aud	-6350
▁bru	-6351
▁cal	-6352
▁cig	-6353
▁dia	-6354
▁env	-6355
▁esp	-6356
▁fav	-6357
▁fer	-6358
▁fix	-6359
▁fun	-6360
▁ger	-6361
▁glo	-6362
▁hip	-6363
▁ide	-6364
▁iss	-6365
▁jaw	-6366
▁jul	-6367
▁kal	-6368
▁kun	-6369
▁lee	-6370
▁lif	-6371
▁lik	-6372
▁lip	-6373
▁lod	-6374
▁lys	-6375
▁mad	-6376
▁mas	-6377
▁mob	-6378
▁nah	-6379
▁org	-6380
▁pip	-6381
▁rag	-6382
▁rim	-6383
▁rum	-6384
▁sag	-6385
▁sch	-6386
▁shy	-6387
▁tap	-6388
▁tet	-6389
▁tig	-6390
▁toy	-6391
▁unf	-6392
▁unp	-6393
abled	-6394
achel	-6395
alley	-6396
asseh	-6397
atira	-6398
atory	-6399
▁etc	-6400
ature	-6401
aware	-6402
bably	-6403
brown	-6404
bulun	-6405
ecost	-6406
gered	-6407
going	-6408
guard	-6409
iated	-6410
inals	-6411
ipede	-6412
isher	-6413
isily	-6414
ister	-6415
jesus	-6416
joyed	-6417
lpool	-6418
lying	-6419
mband	-6420
onoun	-6421
orded	-6422
oresc	-6423
osity	-6424
othed	-6425
ousin	-6426
overs	-6427
owner	-6428
pered	-6429
phage	-6430
riend	-6431
rieve	-6432
roach	-6433
shine	-6434
stick	-6435
strip	-6436
ugtom	-6437
unker	-6438
urned	-6439
usion	-6440
verts	-6441
vings	-6442
which	-6443
▁abom	-6444
▁alab	-6445
▁arab	-6446
▁arts	-6447
▁awak	-6448
▁barb	-6449
▁bare	-6450
▁bern	-6451
▁bill	-6452
▁blem	-6453
▁blew	-6454
▁boys	-6455
▁bugs	-6456
▁burp	-6457
▁bury	-6458
▁butc	-6459
▁calm	-6460
▁camp	-6461
▁carp	-6462
▁cass	-6463
▁cave	-6464
▁cock	-6465
▁coin	-6466
▁cong	-6467
▁cost	-6468
▁cray	-6469
▁curl	-6470
▁deaf	-6471
▁deed	-6472
▁deer	-6473
▁dull	-6474
▁easy	-6475
▁emot	-6476
▁ensl	-6477
▁figs	-6478
▁file	-6479
▁filt	-6480
▁fold	-6481
▁fork	-6482
▁fors	-6483
▁fuel	-6484
▁fury	-6485
▁gaze	-6486
▁goat	-6487
▁golg	-6488
▁gong	-6489
▁grin	-6490
▁heap	-6491
▁heed	-6492
▁herb	-6493
▁hits	-6494
▁isol	-6495
▁jars	-6496
▁kidn	-6497
▁lady	-6498
▁lans	-6499
▁lend	-6500
▁lice	-6501
▁lies	-6502
▁limb	-6503
▁limp	-6504
▁loan	-6505
▁lure	-6506
▁magi	-6507
▁main	-6508
▁mats	-6509
▁mery	-6510
▁mina	-6511
▁mini	-6512
▁moan	-6513
▁mold	-6514
▁mush	-6515
▁naph	-6516
▁nons	-6517
▁obso	-6518
▁outh	-6519
▁owed	-6520
▁oxen	-6521
▁pair	-6522
▁pant	-6523
▁pays	-6524
▁peck	-6525
▁pent	-6526
▁perm	-6527
▁pict	-6528
▁pine	-6529
▁plat	-6530
▁plug	-6531
▁pods	-6532
▁pomp	-6533
▁pork	-6534
▁raid	-6535
▁rays	-6536
▁reed	-6537
▁romp	-6538
▁rout	-6539
▁ruin	-6540
▁rumb	-6541
▁ruth	-6542
▁sect	-6543
▁sink	-6544
▁snap	-6545
▁soak	-6546
▁spur	-6547
▁sung	-6548
▁symp	-6549
▁tame	-6550
▁tide	-6551
▁tone	-6552
▁tray	-6553
▁tych	-6554
▁vert	-6555
▁wage	-6556
▁ward	-6557
▁wart	-6558
▁west	-6559
▁weve	-6560
▁whit	-6561
▁wipe	-6562
▁woke	-6563
▁wret	-6564
▁writ	-6565
altiel	-6566
arette	-6567
arking	-6568
atched	-6569
athize	-6570
ceeded	-6571
charge	-6572
encing	-6573
enness	-6574
ensity	-6575
ertain	-6576
father	-6577
fields	-6578
folded	-6579
handed	-6580
husked	-6581
iletus	-6582
ilized	-6583
irable	-6584
isions	-6585
lawful	-6586
leness	-6587
llywog	-6588
merged	-6589
minded	-6590
omfort	-6591
onnade	-6592
overed	-6593
owness	-6594
solute	-6595
ultsin	-6596
untaas	-6597
vestig	-6598
weight	-6599
willed	-6600
▁aaron	-6601
▁abuse	-6602
▁adequ	-6603
▁alpha	-6604
▁ammin	-6605
▁andor	-6606
▁appre	-6607
▁arise	-6608
▁awake	-6609
▁begun	-6610
▁benef	-6611
▁blast	-6612
▁blown	-6613
▁bumpy	-6614
▁camel	-6615
▁cares	-6616
▁chaff	-6617
▁chain	-6618
▁chair	-6619
▁clams	-6620
▁clots	-6621
▁clubs	-6622
▁concl	-6623
▁crazy	-6624
▁crush	-6625
▁depth	-6626
▁derbe	-6627
▁drown	-6628
▁elena	-6629
▁entry	-6630
▁excel	-6631
▁exert	-6632
▁faced	-6633
▁fatal	-6634
▁fears	-6635
▁fills	-6636
▁final	-6637
▁fishs	-6638
▁flaps	-6639
▁flies	-6640
▁frame	-6641
▁gaius	-6642
▁girls	-6643
▁glint	-6644
▁glist	-6645
▁gouge	-6646
▁grate	-6647
▁grunt	-6648
▁haunt	-6649
▁hoard	-6650
▁homet	-6651
▁hoped	-6652
▁hopes	-6653
▁hymns	-6654
▁ident	-6655
▁indic	-6656
▁influ	-6657
▁initi	-6658
▁inlet	-6659
▁italy	-6660
▁jesse	-6661
▁joins	-6662
▁legal	-6663
▁level	-6664
▁lifts	-6665
▁limit	-6666
▁lions	-6667
▁malle	-6668
▁manik	-6669
▁match	-6670
▁meets	-6671
▁merch	-6672
▁miles	-6673
▁motor	-6674
▁mucus	-6675
▁murky	-6676
▁nails	-6677
▁needy	-6678
▁north	-6679
▁omega	-6680
▁perez	-6681
▁perga	-6682
▁phoen	-6683
▁plank	-6684
▁plans	-6685
▁plead	-6686
▁pleas	-6687
▁plent	-6688
▁pogul	-6689
▁poles	-6690
▁posts	-6691
▁pours	-6692
▁prays	-6693
▁pride	-6694
▁prize	-6695
▁proof	-6696
▁puppy	-6697
▁purse	-6698
▁radio	-6699
▁rains	-6700
▁rainy	-6701
▁reaps	-6702
▁reimb	-6703
▁rests	-6704
▁revol	-6705
▁roads	-6706
▁roast	-6707
▁rooms	-6708
▁ropes	-6709
▁scand	-6710
▁scorn	-6711
▁seats	-6712
▁shape	-6713
▁shoes	-6714
▁shows	-6715
▁sieve	-6716
▁skins	-6717
▁sland	-6718
▁slope	-6719
▁smear	-6720
▁sores	-6721
▁sower	-6722
▁spell	-6723
▁spies	-6724
▁spine	-6725
▁stain	-6726
▁stare	-6727
▁stays	-6728
▁stole	-6729
▁stoop	-6730
▁strap	-6731
▁style	-6732
▁swamp	-6733
▁swoop	-6734
▁swore	-6735
▁swung	-6736
▁thumb	-6737
▁thund	-6738
▁tiber	-6739
▁torch	-6740
▁trash	-6741
▁undes	-6742
▁utter	-6743
▁uvula	-6744
▁viand	-6745
▁waits	-6746
▁wasps	-6747
▁whats	-6748
▁whirl	-6749
▁width	-6750
▁wrigg	-6751
auchery	-6752
behaved	-6753
burning	-6754
charged	-6755
chcraft	-6756
control	-6757
estable	-6758
estined	-6759
missive	-6760
pronged	-6761
respect	-6762
ruptive	-6763
ubbabel	-6764
uttered	-6765
village	-6766
waisted	-6767
▁active	-6768
▁adhere	-6769
▁amasig	-6770
▁anchor	-6771
▁apusow	-6772
▁armies	-6773
▁arrows	-6774
▁assume	-6775
▁athens	-6776
▁awaken	-6777
▁babies	-6778
▁banded	-6779
▁beaten	-6780
▁beauty	-6781
▁beggar	-6782
▁behold	-6783
▁bronze	-6784
▁buntit	-6785
▁caring	-6786
▁cattle	-6787
▁cheeks	-6788
▁coffee	-6789
▁confer	-6790
▁copper	-6791
▁counts	-6792
▁cousin	-6793
▁covers	-6794
▁crawls	-6795
▁crunch	-6796
▁deadly	-6797
▁decept	-6798
▁defile	-6799
▁denies	-6800
▁detail	-6801
▁dipped	-6802
▁disput	-6803
▁drives	-6804
▁dwells	-6805
▁eighth	-6806
▁energy	-6807
▁esteem	-6808
▁expend	-6809
▁experi	-6810
▁expert	-6811
▁extent	-6812
▁facing	-6813
▁fitted	-6814
▁frying	-6815
▁gallio	-6816
▁gotten	-6817
▁guides	-6818
▁guitar	-6819
▁hardly	-6820
▁harmon	-6821
▁herald	-6822
▁herods	-6823
▁hezron	-6824
▁hiding	-6825
▁higher	-6826
▁hinder	-6827
▁hunker	-6828
▁incest	-6829
▁indust	-6830
▁insuff	-6831
▁insure	-6832
▁intent	-6833
▁jacked	-6834
▁jeremy	-6835
▁judean	-6836
▁knocks	-6837
▁larger	-6838
▁laughs	-6839
▁loosen	-6840
▁lugtom	-6841
▁lullab	-6842
▁lumber	-6843
▁memory	-6844
▁midair	-6845
▁miscar	-6846
▁monday	-6847
▁mortal	-6848
▁mutter	-6849
▁nephew	-6850
▁nobody	-6851
▁nursed	-6852
▁openly	-6853
▁passes	-6854
▁peanut	-6855
▁pelvic	-6856
▁phosph	-6857
▁played	-6858
▁plunge	-6859
▁plural	-6860
▁poetic	-6861
▁points	-6862
▁pontus	-6863
▁potato	-6864
▁potter	-6865
▁pretty	-6866
▁pushed	-6867
▁raises	-6868
▁rebels	-6869
▁recall	-6870
▁refuge	-6871
▁repaid	-6872
▁repair	-6873
▁rodent	-6874
▁romans	-6875
▁rotted	-6876
▁safely	-6877
▁saliva	-6878
▁samuel	-6879
▁sardis	-6880
▁sewing	-6881
▁shakes	-6882
▁sheath	-6883
▁shells	-6884
▁simons	-6885
▁smoked	-6886
▁snails	-6887
▁source	-6888
▁sparks	-6889
▁spines	-6890
▁splits	-6891
▁sprang	-6892
▁square	-6893
▁stakes	-6894
▁stoned	-6895
▁strand	-6896
▁stress	-6897
▁summit	-6898
▁supern	-6899
▁swayed	-6900
▁treats	-6901
▁tribes	-6902
▁troops	-6903
▁uneven	-6904
▁unholy	-6905
▁unjust	-6906
▁untied	-6907
▁uproot	-6908
▁valley	-6909
▁voices	-6910
▁weasel	-6911
▁woodpe	-6912
▁wounds	-6913
▁wrongd	-6914
breasted	-6915
fruitful	-6916
▁absence	-6917
▁afflict	-6918
▁aground	-6919
▁alexand	-6920
▁ancient	-6921
▁anxiety	-6922
▁anxious	-6923
▁armband	-6924
▁aroused	-6925
▁assumed	-6926
▁bandage	-6927
▁bernice	-6928
▁betrays	-6929
▁binding	-6930
▁blinded	-6931
▁blowing	-6932
▁burdens	-6933
▁captain	-6934
▁captive	-6935
▁carpent	-6936
▁cassava	-6937
▁causing	-6938
▁chewing	-6939
▁clamped	-6940
▁cluster	-6941
▁conical	-6942
▁connect	-6943
▁conquer	-6944
▁contact	-6945
▁craving	-6946
▁cursing	-6947
▁dealing	-6948
▁despair	-6949
▁dialect	-6950
▁didymus	-6951
▁disinte	-6952
▁dismant	-6953
▁disturb	-6954
▁dropped	-6955
▁encount	-6956
▁evangel	-6957
▁exactly	-6958
▁eyelids	-6959
▁farmers	-6960
▁farther	-6961
▁favored	-6962
▁fearful	-6963
▁finding	-6964
▁flooded	-6965
▁follows	-6966
▁furnace	-6967
▁galatia	-6968
▁gathers	-6969
▁glasses	-6970
▁glutton	-6971
▁goodbye	-6972
▁grooved	-6973
▁helpful	-6974
▁humbled	-6975
▁ignored	-6976
▁inquire	-6977
▁jumbled	-6978
▁knotted	-6979
▁largest	-6980
▁longing	-6981
▁lowered	-6982
▁manipul	-6983
▁masquer	-6984
▁measles	-6985
▁mindful	-6986
▁nervous	-6987
▁newborn	-6988
▁noisily	-6989
▁notched	-6990
▁objects	-6991
▁oblique	-6992
▁outcome	-6993
▁pharaoh	-6994
▁platter	-6995
▁plotted	-6996
▁pounded	-6997
▁praises	-6998
▁predict	-6999
▁pretend	-7000
▁private	-7001
▁profess	-7002
▁pronoun	-7003
▁reasons	-7004
▁reflect	-7005
▁refrain	-7006
▁regards	-7007
▁rejects	-7008
▁remnant	-7009
▁renewed	-7010
▁require	-7011
▁resolve	-7012
▁retract	-7013
▁returns	-7014
▁satisfy	-7015
▁scarlet	-7016
▁scrolls	-7017
▁seeking	-7018
▁sensual	-7019
▁severed	-7020
▁shivers	-7021
▁shrimps	-7022
▁sloping	-7023
▁smother	-7024
▁soldier	-7025
▁spoiled	-7026
▁spouses	-7027
▁springs	-7028
▁strikes	-7029
▁striped	-7030
▁student	-7031
▁survive	-7032
▁taganay	-7033
▁torrent	-7034
▁touches	-7035
▁towards	-7036
▁trained	-7037
▁trample	-7038
▁unaware	-7039
▁unright	-7040
▁variety	-7041
▁victory	-7042
▁wailing	-7043
▁watches	-7044
▁wealthy	-7045
▁workmen	-7046
▁zebulun	-7047
heartedly	-7048
▁absolute	-7049
▁abundant	-7050
▁accusers	-7051
▁airstrip	-7052
▁ancestor	-7053
▁appealed	-7054
▁approval	-7055
▁attained	-7056
▁attended	-7057
▁audience	-7058
▁awakened	-7059
▁backpack	-7060
▁banquets	-7061
▁blighted	-7062
▁catching	-7063
▁changers	-7064
▁cheerful	-7065
▁clanging	-7066
▁claudius	-7067
▁collapse	-7068
▁competes	-7069
▁compress	-7070
▁conceive	-7071
▁concerns	-7072
▁converse	-7073
▁crayfish	-7074
▁criminal	-7075
▁declares	-7076
▁decrease	-7077
▁denarius	-7078
▁deprived	-7079
▁diligent	-7080
▁dishonor	-7081
▁disorder	-7082
▁distingu	-7083
▁divorces	-7084
▁duration	-7085
▁egyptian	-7086
▁emotions	-7087
▁encircle	-7088
▁enduring	-7089
▁entering	-7090
▁epaphras	-7091
▁equality	-7092
▁escaping	-7093
▁escorted	-7094
▁examined	-7095
▁extended	-7096
▁fattened	-7097
▁faultsin	-7098
▁feathery	-7099
▁filtered	-7100
▁fishhook	-7101
▁follower	-7102
▁foretold	-7103
▁golgotha	-7104
▁governed	-7105
▁guarding	-7106
▁headband	-7107
▁hillside	-7108
▁hindered	-7109
▁hometown	-7110
▁informed	-7111
▁investig	-7112
▁isolated	-7113
▁lansones	-7114
▁lawbreak	-7115
▁learning	-7116
▁leftover	-7117
▁maguimon	-7118
▁manasseh	-7119
▁membrane	-7120
▁mistaken	-7121
▁mongoose	-7122
▁moreover	-7123
▁naphtali	-7124
▁nonsense	-7125
▁obsolete	-7126
▁occasion	-7127
▁operated	-7128
▁ordinary	-7129
▁overtake	-7130
▁persuade	-7131
▁petition	-7132
▁philippi	-7133
▁philosop	-7134
▁platform	-7135
▁pleasing	-7136
▁pleasure	-7137
▁pollywog	-7138
▁pounding	-7139
▁pressing	-7140
▁probably	-7141
▁problems	-7142
▁produces	-7143
▁progress	-7144
▁provided	-7145
▁provides	-7146
▁rejoices	-7147
▁reserved	-7148
▁resident	-7149
▁resolved	-7150
▁response	-7151
▁retrieve	-7152
▁reverent	-7153
▁rewarded	-7154
▁ripening	-7155
▁scarcely	-7156
▁scoffers	-7157
▁scraping	-7158
▁searches	-7159
▁sentence	-7160
▁shelters	-7161
▁shingles	-7162
▁silenced	-7163
▁slowness	-7164
▁smarting	-7165
▁snapping	-7166
▁somebody	-7167
▁spending	-7168
▁sprinkle	-7169
▁sprouted	-7170
▁squashed	-7171
▁startled	-7172
▁sticking	-7173
▁stronger	-7174
▁stubborn	-7175
▁sunshine	-7176
▁superior	-7177
▁supplied	-7178
▁thankful	-7179
▁thyatira	-7180
▁training	-7181
▁trousers	-7182
▁trumpets	-7183
▁tychicus	-7184
▁unhusked	-7185
▁unlawful	-7186
▁violence	-7187
▁visitors	-7188
▁withdraw	-7189
▁withhold	-7190
▁wrinkled	-7191
omfortable	-7192
▁abundance	-7193
▁addressed	-7194
▁adversary	-7195
▁alabaster	-7196
▁alexander	-7197
▁amminadab	-7198
▁arguments	-7199
▁backwards	-7200
▁baguntaas	-7201
▁beelzebul	-7202
▁benighted	-7203
▁bethphage	-7204
▁blaspheme	-7205
▁bothering	-7206
▁breakfast	-7207
▁captivity	-7208
▁childrens	-7209
▁cigarette	-7210
▁colonnade	-7211
▁commotion	-7212
▁concealed	-7213
▁confirmed	-7214
▁confusion	-7215
▁consented	-7216
▁considers	-7217
▁criminals	-7218
▁criticism	-7219
▁dangerous	-7220
▁decapolis	-7221
▁delicious	-7222
▁depressed	-7223
▁discharge	-7224
▁disobeyed	-7225
▁eagerness	-7226
▁earthworm	-7227
▁empathize	-7228
▁emphasize	-7229
▁encircled	-7230
▁entangled	-7231
▁exclaimed	-7232
▁explained	-7233
▁falsehood	-7234
▁flattened	-7235
▁fragrance	-7236
▁happening	-7237
▁herodians	-7238
▁housepost	-7239
▁intensity	-7240
▁intercept	-7241
▁interests	-7242
▁justifies	-7243
▁landowner	-7244
▁leftovers	-7245
▁malleable	-7246
▁neglected	-7247
▁nighttime	-7248
▁originate	-7249
▁outsiders	-7250
▁overjoyed	-7251
▁paralytic	-7252
▁partially	-7253
▁patiently	-7254
▁pentecost	-7255
▁permanent	-7256
▁permitted	-7257
▁phoenicia	-7258
▁plentiful	-7259
▁practiced	-7260
▁protected	-7261
▁purposely	-7262
▁readiness	-7263
▁refreshed	-7264
▁reimburse	-7265
▁reinforce	-7266
▁religious	-7267
▁requested	-7268
▁rumblings	-7269
▁sackcloth	-7270
▁sandpaper	-7271
▁scorpions	-7272
▁seedlings	-7273
▁shealtiel	-7274
▁similarly	-7275
▁sometimes	-7276
▁somewhere	-7277
▁splotches	-7278
▁strongest	-7279
▁submerged	-7280
▁temperate	-7281
▁whirlpool	-7282
▁whispered	-7283
▁worshiper	-7284
▁wrestling	-7285
▁acceptable	-7286
▁adulterers	-7287
▁adulterous	-7288
▁attraction	-7289
▁attributed	-7290
▁commitment	-7291
▁completion	-7292
▁contradict	-7293
▁debauchery	-7294
▁designated	-7295
▁desolation	-7296
▁detachment	-7297
▁detestable	-7298
▁discharged	-7299
▁discovered	-7300
▁discussing	-7301
▁disrespect	-7302
▁disruptive	-7303
▁extinguish	-7304
▁fearlessly	-7305
▁flashlight	-7306
▁generosity	-7307
▁gentleness	-7308
▁hospitable	-7309
▁improbable	-7310
▁instructor	-7311
▁lampstands	-7312
▁messengers	-7313
▁overturned	-7314
▁performing	-7315
▁perishable	-7316
▁persevered	-7317
▁persistent	-7318
▁quarreling	-7319
▁samaritans	-7320
▁scattering	-7321
▁shamefully	-7322
▁submissive	-7323
▁sufficient	-7324
▁surpassing	-7325
▁surprising	-7326
▁testifying	-7327
▁unfruitful	-7328
▁vegetables	-7329
▁vigorously	-7330
▁waterfalls	-7331
▁weaknesses	-7332
▁witchcraft	-7333
▁worshipers	-7334
▁zerubbabel	-7335
▁celebration	-7336
▁consciences	-7337
▁considerate	-7338
▁demonstrate	-7339
▁dishevelled	-7340
▁drunkenness	-7341
▁earnestness	-7342
▁embarrassed	-7343
▁exhortation	-7344
▁foundations	-7345
▁generations	-7346
▁grainfields	-7347
▁illuminated	-7348
▁information	-7349
▁lawlessness	-7350
▁lightweight	-7351
▁overflowing	-7352
▁persecuting	-7353
▁phosphoresc	-7354
▁predestined	-7355
▁reciprocate	-7356
▁regulations	-7357
▁reinforcing	-7358
▁remembering	-7359
▁remembrance	-7360
▁retribution	-7361
▁transaction	-7362
▁transformed	-7363
▁transmitted	-7364
▁uncluttered	-7365
▁understands	-7366
▁unrighteous	-7367
▁accidentally	-7368
▁acknowledges	-7369
▁consequently	-7370
▁contaminated	-7371
▁difficulties	-7372
▁grandparents	-7373
▁housevillage	-7374
▁insufficient	-7375
▁insurrection	-7376
▁miraculously	-7377
▁multicolored	-7378
▁straightened	-7379
▁supernatural	-7380
▁thessalonica	-7381
▁accompaniment	-7382
▁argumentative	-7383
▁companionship	-7384
▁participation	-7385
▁transgression	-7386
▁uncomfortable	-7387
▁interpretation	-7388
▁uncircumcision	-7389
▁wholeheartedly	-7390
▁inappropriately	-7391
.,	-7392
ai	-7393
av	-7394
ba	-7395
bu	-7396
ca	-7397
da	-7398
dr	-7399
au	-7400
gt	-7401
ii	-7402
kn	-7403
lm	-7404
mo	-7405
oi	-7406
sn	-7407
sy	-7408
ta	-7409
ya	-7410
ye	-7411
za	-7412
ael	-7413
aga	-7414
ait	-7415
aka	-7416
ala	-7417
bly	-7418
bus	-7419
can	-7420
cas	-7421
cat	-7422
che	-7423
cob	-7424
com	-7425
dor	-7426
ell	-7427
eps	-7428
ese	-7429
ews	-7430
ext	-7431
fig	-7432
gop	-7433
hib	-7434
his	-7435
hse	-7436
igo	-7437
ils	-7438
iop	-7439
lem	-7440
ler	-7441
ley	-7442
lit	-7443
nam	-7444
noy	-7445
oam	-7446
och	-7447
oey	-7448
oky	-7449
oni	-7450
ops	-7451
oty	-7452
owl	-7453
pat	-7454
pay	-7455
reg	-7456
rim	-7457
rot	-7458
ryg	-7459
say	-7460
see	-7461
sur	-7462
thr	-7463
tis	-7464
tun	-7465
uda	-7466
uds	-7467
umn	-7468
veh	-7469
wal	-7470
wed	-7471
xim	-7472
yer	-7473
▁ah	-7474
▁di	-7475
▁eu	-7476
▁oh	-7477
▁ut	-7478
....	-7479
abun	-7480
abus	-7481
acon	-7482
ader	-7483
adle	-7484
adoc	-7485
adok	-7486
agus	-7487
ahog	-7488
akim	-7489
alin	-7490
amed	-7491
amia	-7492
anan	-7493
andy	-7494
anor	-7495
aple	-7496
atha	-7497
aved	-7498
ayag	-7499
adia	-7500
alia	-7501
ayan	-7502
ayun	-7503
bble	-7504
bill	-7505
bird	-7506
bone	-7507
cast	-7508
cent	-7509
chus	-7510
cies	-7511
cker	-7512
cure	-7513
down	-7514
eble	-7515
edic	-7516
eese	-7517
ench	-7518
ency	-7519
erns	-7520
esop	-7521
eted	-7522
etor	-7523
etri	-7524
ewit	-7525
eyed	-7526
fety	-7527
five	-7528
gish	-7529
goes	-7530
grow	-7531
haph	-7532
hell	-7533
hore	-7534
iasm	-7535
icip	-7536
icul	-7537
idly	-7538
ifes	-7539
ilus	-7540
inid	-7541
irts	-7542
isan	-7543
isid	-7544
itha	-7545
itis	-7546
itor	-7547
knew	-7548
lake	-7549
line	-7550
long	-7551
lves	-7552
mane	-7553
mate	-7554
meat	-7555
mity	-7556
ndra	-7557
nger	-7558
ongh	-7559
ongy	-7560
onia	-7561
only	-7562
opas	-7563
orts	-7564
osal	-7565
ossy	-7566
owed	-7567
qual	-7568
rary	-7569
rast	-7570
rian	-7571
rous	-7572
stal	-7573
tive	-7574
uate	-7575
ugun	-7576
ulus	-7577
urry	-7578
utat	-7579
vily	-7580
vity	-7581
well	-7582
wind	-7583
zing	-7584
▁adm	-7585
▁aid	-7586
▁ail	-7587
▁alg	-7588
▁aut	-7589
▁awl	-7590
▁bug	-7591
▁cas	-7592
▁cho	-7593
▁dor	-7594
▁ely	-7595
▁enl	-7596
▁eth	-7597
▁gad	-7598
▁gur	-7599
toe	-7600
alty	-7601
azar	-7602
bbed	-7603
lmet	-7604
mmer	-7605
rict	-7606
shon	-7607
uary	-7608
ungs	-7609
vils	-7610
were	-7611
▁hem	-7612
▁hex	-7613
▁hic	-7614
▁hom	-7615
▁hun	-7616
▁ine	-7617
▁ink	-7618
▁jig	-7619
▁jos	-7620
▁kab	-7621
▁kam	-7622
▁kil	-7623
▁lav	-7624
▁lun	-7625
▁mmm	-7626
▁mor	-7627
▁obe	-7628
▁pac	-7629
▁pad	-7630
▁pop	-7631
▁rit	-7632
▁sed	-7633
▁sob	-7634
▁som	-7635
▁tan	-7636
▁tin	-7637
▁tol	-7638
▁tot	-7639
▁umb	-7640
▁van	-7641
▁vow	-7642
▁vul	-7643
▁wee	-7644
acent	-7645
achma	-7646
acred	-7647
adise	-7648
adour	-7649
agger	-7650
aimed	-7651
alete	-7652
allel	-7653
allen	-7654
amina	-7655
anded	-7656
angle	-7657
antol	-7658
arers	-7659
asped	-7660
assad	-7661
celed	-7662
chers	-7663
child	-7664
cturn	-7665
elled	-7666
eneas	-7667
epend	-7668
erald	-7669
eress	-7670
eries	-7671
erned	-7672
ersed	-7673
erson	-7674
etite	-7675
eward	-7676
fight	-7677
flies	-7678
gedly	-7679
gence	-7680
hanas	-7681
haust	-7682
heads	-7683
horam	-7684
iable	-7685
ighed	-7686
iling	-7687
imace	-7688
inhib	-7689
inter	-7690
ioned	-7691
iracy	-7692
ivery	-7693
kered	-7694
lpful	-7695
ndage	-7696
noyed	-7697
occup	-7698
ocked	-7699
eys	-7700
awan	-7701
azed	-7702
bear	-7703
chem	-7704
girl	-7705
miah	-7706
uced	-7707
yrna	-7708
▁cuc	-7709
▁hug	-7710
althy	-7711
bring	-7712
cerer	-7713
ilize	-7714
incre	-7715
omnia	-7716
onian	-7717
otham	-7718
oused	-7719
press	-7720
print	-7721
ption	-7722
raged	-7723
ravel	-7724
reech	-7725
restr	-7726
rious	-7727
sting	-7728
tered	-7729
tower	-7730
ughed	-7731
ungon	-7732
unted	-7733
usive	-7734
uzzle	-7735
valry	-7736
venue	-7737
veres	-7738
xture	-7739
zziah	-7740
▁agit	-7741
▁agot	-7742
▁alag	-7743
▁amon	-7744
▁asat	-7745
▁aunt	-7746
▁aven	-7747
▁azor	-7748
▁bath	-7749
▁bean	-7750
▁bell	-7751
▁boaz	-7752
▁bond	-7753
▁brim	-7754
▁brow	-7755
▁buff	-7756
▁bund	-7757
▁butt	-7758
▁capp	-7759
▁cart	-7760
▁cher	-7761
▁chin	-7762
▁chry	-7763
▁clap	-7764
▁clos	-7765
▁coch	-7766
▁coco	-7767
▁coma	-7768
▁corr	-7769
▁cret	-7770
▁date	-7771
▁dirt	-7772
▁dizz	-7773
▁dung	-7774
▁educ	-7775
▁eloi	-7776
▁emac	-7777
▁ensn	-7778
▁fade	-7779
▁fair	-7780
▁fath	-7781
▁grub	-7782
▁heze	-7783
▁hull	-7784
▁idea	-7785
▁inch	-7786
▁ined	-7787
▁intr	-7788
▁jack	-7789
▁jaws	-7790
▁jerk	-7791
▁keys	-7792
▁lant	-7793
▁larv	-7794
▁laws	-7795
▁lick	-7796
▁lied	-7797
▁logs	-7798
▁loos	-7799
phr	-7800
bino	-7801
then	-7802
when	-7803
eagle	-7804
roper	-7805
since	-7806
their	-7807
ucked	-7808
▁adds	-7809
▁beds	-7810
▁brag	-7811
▁dash	-7812
▁duck	-7813
▁fits	-7814
▁irre	-7815
▁lyca	-7816
▁mang	-7817
▁mart	-7818
▁mash	-7819
▁mate	-7820
▁mich	-7821
▁mock	-7822
▁moss	-7823
▁nard	-7824
▁nice	-7825
▁norm	-7826
▁obed	-7827
▁odor	-7828
▁orph	-7829
▁outw	-7830
▁owls	-7831
▁pale	-7832
▁pink	-7833
▁plop	-7834
▁pump	-7835
▁rack	-7836
▁roam	-7837
▁rode	-7838
▁rubb	-7839
▁runs	-7840
▁seem	-7841
▁shot	-7842
▁sigh	-7843
▁slim	-7844
▁slug	-7845
▁sole	-7846
▁sorc	-7847
▁sost	-7848
▁spin	-7849
▁sque	-7850
▁stim	-7851
▁stup	-7852
▁subt	-7853
▁succ	-7854
▁sust	-7855
▁swat	-7856
▁tant	-7857
▁taut	-7858
▁tert	-7859
▁tick	-7860
▁tool	-7861
▁trig	-7862
▁trim	-7863
▁trop	-7864
▁tumb	-7865
▁unch	-7866
▁unpa	-7867
▁unpr	-7868
▁unsp	-7869
▁vent	-7870
▁vult	-7871
▁wasp	-7872
▁wate	-7873
▁wavy	-7874
▁wing	-7875
▁wire	-7876
▁yank	-7877
alinao	-7878
allite	-7879
amples	-7880
ankinc	-7881
around	-7882
arture	-7883
atches	-7884
beater	-7885
before	-7886
bodies	-7887
bushes	-7888
dening	-7889
ension	-7890
entful	-7891
entive	-7892
esopot	-7893
etrius	-7894
friend	-7895
haired	-7896
haphat	-7897
igured	-7898
illing	-7899
anao	-7900
conf	-7901
warm	-7902
▁dys	-7903
apple	-7904
canoe	-7905
erior	-7906
licts	-7907
mends	-7908
rides	-7909
rygia	-7910
▁akim	-7911
▁bagu	-7912
▁boyb	-7913
▁padd	-7914
▁tarp	-7915
aracts	-7916
coniah	-7917
entery	-7918
inated	-7919
inding	-7920
ission	-7921
itches	-7922
ituted	-7923
ivated	-7924
leader	-7925
legged	-7926
lesome	-7927
llowed	-7928
mented	-7929
ndered	-7930
necked	-7931
nesses	-7932
olding	-7933
orious	-7934
ostors	-7935
ration	-7936
terned	-7937
ucture	-7938
uished	-7939
uitive	-7940
ulated	-7941
unless	-7942
urally	-7943
urance	-7944
utatoy	-7945
▁activ	-7946
▁admit	-7947
▁adorn	-7948
▁ambul	-7949
▁argue	-7950
▁armor	-7951
▁arose	-7952
▁asher	-7953
▁assos	-7954
▁balak	-7955
▁bangs	-7956
▁barns	-7957
▁basin	-7958
▁beard	-7959
▁belts	-7960
▁bends	-7961
▁blink	-7962
▁	-7963
e	-7964
t	-7965
o	-7966
a	-7967
h	-7968
i	-7969
s	-7970
n	-7971
r	-7972
d	-7973
l	-7974
u	-7975
w	-7976
m	-7977
f	-7978
c	-7979
y	-7980
g	-7981
p	-7982
b	-7983
,	-7984
.	-7985
v	-7986
k	-7987
j	-7988
?	-7989
;	-7990
-	-7991
x	-7992
z	-7993
:	-7994
!	-7995
q	-7996
