<unk>	0
<s>	0
</s>	0
an	-0
▁n	-1
▁k	-2
to	-3
▁to	-4
▁no	-5
▁o	-6
▁ka	-7
▁d	-8
▁s	-9
on	-10
in	-11
▁og	-12
▁m	-13
ag	-14
ig	-15
go	-16
bo	-17
▁si	-18
al	-19
oy	-20
ka	-21
▁p	-22
▁t	-23
▁mgo	-24
ow	-25
▁nig	-26
ar	-27
kan	-28
▁w	-29
hi	-30
▁sikan	-31
ko	-32
▁di	-33
ang	-34
su	-35
at	-36
▁l	-37
▁ko	-38
aw	-39
ad	-40
bu	-41
ot	-42
▁i	-43
am	-44
agbo	-45
og	-46
▁on	-47
un	-48
tow	-49
▁woy	-50
▁r	-51
▁su	-52
▁kan	-53
▁ig	-54
▁din	-55
as	-56
tu	-57
▁hi	-58
▁du	-59
▁otow	-60
▁ogp	-61
boot	-62
ay	-63
▁b	-64
▁ku	-65
▁ian	-66
▁magbo	-67
▁magboboot	-68
▁hisu	-69
ak	-70
▁dio	-71
▁ta	-72
awa	-73
▁kon	-74
din	-75
▁dan	-76
▁hisus	-77
▁ki	-78
▁pog	-79
mu	-80
▁ni	-81
▁ogka	-82
gi	-83
▁h	-84
iu	-85
ab	-86
dan	-87
aro	-88
▁kono	-89
li	-90
ma	-91
▁now	-92
▁duon	-93
ap	-94
▁rin	-95
angon	-96
▁ogko	-97
od	-98
▁kagi	-99
▁so	-100
nangon	-101
aka	-102
ini	-103
ong	-104
ing	-105
om	-106
yow	-107
▁oyow	-108
▁waro	-109
ongo	-110
is	-111
▁a	-112
▁kow	-113
tuu	-114
▁songo	-115
ud	-116
ul	-117
it	-118
himu	-119
aan	-120
agad	-121
yag	-122
▁ti	-123
▁in	-124
ug	-125
uan	-126
▁go	-127
kat	-128
ako	-129
▁nu	-130
▁sikandin	-131
▁do	-132
us	-133
igkat	-134
inawa	-135
▁goinawa	-136
▁bu	-137
▁sikandan	-138
il	-139
di	-140
bog	-141
aran	-142
▁tibo	-143
ato	-144
▁kandin	-145
▁kaniu	-146
▁soini	-147
▁bal	-148
▁ogpaka	-149
▁pad	-150
▁ran	-151
or	-152
alo	-153
man	-154
▁agad	-155
akol	-156
agi	-157
▁mar	-158
ol	-159
buyag	-160
awo	-161
hon	-162
ta	-163
▁koy	-164
ali	-165
▁nigp	-166
koy	-167
lo	-168
▁mo	-169
aga	-170
oyow	-171
▁igbuyag	-172
▁am	-173
bay	-174
▁man	-175
alag	-176
agboy	-177
▁lagboy	-178
uma	-179
▁duma	-180
unawa	-181
▁kandan	-182
▁al	-183
ayan	-184
▁li	-185
▁ogk	-186
tan	-187
▁bat	-188
pan	-189
▁im	-190
▁dakol	-191
ur	-192
gu	-193
abu	-194
▁an	-195
▁maroyow	-196
goy	-197
▁kin	-198
▁hud	-199
▁kai	-200
ung	-201
▁ogl	-202
▁bo	-203
▁talag	-204
alap	-205
asan	-206
low	-207
▁hon	-208
▁kr	-209
▁tu	-210
▁noy	-211
ugp	-212
ddi	-213
toy	-214
▁igka	-215
▁ro	-216
▁ogpo	-217
god	-218
atan	-219
son	-220
ut	-221
abo	-222
▁ligkat	-223
▁allow	-224
▁por	-225
kow	-226
▁ogs	-227
▁nokoy	-228
▁nigtuu	-229
istu	-230
▁nat	-231
▁nigk	-232
ah	-233
ng	-234
▁hudiu	-235
toon	-236
amp	-237
▁oghimu	-238
sud	-239
aman	-240
▁koddi	-241
awan	-242
alu	-243
ro	-244
▁kristu	-245
ongan	-246
ub	-247
ia	-248
agboka	-249
▁tan	-250
▁pig	-251
▁ogd	-252
▁lawa	-253
▁lun	-254
▁kanta	-255
bogoy	-256
awoson	-257
bul	-258
▁lunsud	-259
ir	-260
▁kun	-261
sul	-262
anad	-263
▁batasan	-264
kos	-265
▁ogkounawa	-266
▁ogh	-267
▁igp	-268
ins	-269
libu	-270
▁maro	-271
lu	-272
got	-273
hondi	-274
▁pogtuu	-275
▁dod	-276
▁anak	-277
▁naka	-278
sugu	-279
▁amoy	-280
▁baloy	-281
wa	-282
▁maroot	-283
ita	-284
tuman	-285
um	-286
▁sagboka	-287
atu	-288
▁nigt	-289
tos	-290
matoy	-291
▁pin	-292
▁ton	-293
bogayan	-294
ago	-295
▁ogligkat	-296
yu	-297
do	-298
▁dongan	-299
ablo	-300
up	-301
▁pablo	-302
▁g	-303
▁sul	-304
ayo	-305
aranan	-306
▁tongod	-307
▁kuntoon	-308
id	-309
hondio	-310
agian	-311
aru	-312
▁ogpoko	-313
▁imp	-314
ton	-315
▁innangon	-316
▁ma	-317
abak	-318
▁boi	-319
alig	-320
▁pan	-321
▁nigs	-322
▁koykow	-323
▁oghimuon	-324
▁nigl	-325
▁sikaniu	-326
▁hib	-327
▁war	-328
▁lu	-329
▁litos	-330
▁ing	-331
▁ogm	-332
▁gi	-333
▁oghi	-334
angan	-335
libutan	-336
▁kalibutan	-337
▁bala	-338
atoon	-339
sulat	-340
▁hontow	-341
▁ogt	-342
▁salo	-343
▁hibatoon	-344
ari	-345
uk	-346
agaan	-347
hoy	-348
▁ng	-349
danan	-350
▁poron	-351
angka	-352
▁mohon	-353
▁ignangon	-354
▁tano	-355
▁pogka	-356
▁balaod	-357
mat	-358
uli	-359
▁lang	-360
bulig	-361
▁at	-362
uy	-363
uyag	-364
▁nan	-365
▁kanak	-366
▁ogkas	-367
alogot	-368
▁kinow	-369
dom	-370
▁noko	-371
▁sug	-372
▁atag	-373
▁daru	-374
omdom	-375
▁na	-376
▁kar	-377
▁mat	-378
▁tag	-379
kud	-380
inog	-381
▁kat	-382
▁ur	-383
ugpo	-384
uanan	-385
▁nigd	-386
iniatan	-387
abut	-388
▁nam	-389
lag	-390
panow	-391
alan	-392
angnangon	-393
ip	-394
▁ad	-395
ogp	-396
▁pa	-397
▁ogkap	-398
▁tangka	-399
bal	-400
▁gimu	-401
▁sulod	-402
ingaranan	-403
▁naan	-404
▁ogkat	-405
▁kinagian	-406
ban	-407
asawa	-408
▁langit	-409
▁nataga	-410
▁gimukud	-411
▁tangkaan	-412
ok	-413
▁un	-414
▁hir	-415
▁ogpa	-416
▁lukos	-417
ran	-418
akup	-419
itow	-420
▁ugp	-421
▁nigkagi	-422
inso	-423
bogbog	-424
▁ogtuu	-425
▁nigtabak	-426
gob	-427
▁nohimu	-428
▁buwa	-429
os	-430
dro	-431
▁pe	-432
▁ogpan	-433
▁sika	-434
▁ogpakas	-435
▁pedro	-436
▁nangnangon	-437
abow	-438
▁tah	-439
▁mal	-440
▁soin	-441
▁porom	-442
▁ngaran	-443
oig	-444
▁katon	-445
▁woig	-446
▁katondanan	-447
▁ingka	-448
bong	-449
▁pogko	-450
ulu	-451
dinog	-452
uanon	-453
▁suguanon	-454
▁nangnangonon	-455
▁amp	-456
bol	-457
▁is	-458
ami	-459
▁hondo	-460
▁ogpam	-461
ulus	-462
▁nas	-463
tuk	-464
amanan	-465
▁taman	-466
ampu	-467
▁ogkohimu	-468
alim	-469
▁nap	-470
▁ogli	-471
onga	-472
▁rod	-473
▁huan	-474
baybay	-475
▁ugpaan	-476
▁katamanan	-477
iling	-478
arag	-479
▁hondoi	-480
▁ogbu	-481
▁ognangon	-482
▁tahan	-483
awi	-484
dog	-485
kod	-486
▁kud	-487
▁taga	-488
▁nigligkat	-489
akit	-490
otawan	-491
▁ogkoiniatan	-492
▁lo	-493
koon	-494
▁dangob	-495
omo	-496
iman	-497
io	-498
onon	-499
▁darua	-500
▁ogkagi	-501
nu	-502
mud	-503
▁pogkap	-504
▁ogb	-505
▁nighimu	-506
▁oghingaranan	-507
▁kid	-508
▁maka	-509
▁uromo	-510
▁malogot	-511
▁nigkita	-512
hipanow	-513
ra	-514
ti	-515
aragas	-516
oromdom	-517
minog	-518
▁ungod	-519
ata	-520
olod	-521
bogbogan	-522
▁lan	-523
▁labow	-524
▁kabogbogan	-525
alam	-526
▁nigh	-527
angab	-528
ubad	-529
▁bul	-530
▁pil	-531
▁pogp	-532
panubad	-533
▁kad	-534
asin	-535
▁ab	-536
aban	-537
▁nignangon	-538
▁bus	-539
und	-540
kad	-541
atoy	-542
▁asawa	-543
▁igbogoy	-544
angli	-545
▁igko	-546
▁igkar	-547
▁ogtuman	-548
▁pogkaponga	-549
▁kal	-550
▁ogpak	-551
▁sakup	-552
ogo	-553
▁nab	-554
▁nigb	-555
usalim	-556
▁hirusalim	-557
otow	-558
wata	-559
▁unawa	-560
▁diwata	-561
ku	-562
isis	-563
▁nah	-564
▁salap	-565
▁talagpanubad	-566
wan	-567
▁busow	-568
matayan	-569
▁moisis	-570
▁bato	-571
lok	-572
onu	-573
op	-574
koykow	-575
▁talagnangon	-576
▁dalan	-577
▁kanami	-578
anglitan	-579
baybayari	-580
▁ogbo	-581
asindog	-582
▁koot	-583
▁buyag	-584
▁pulus	-585
▁ogbogayan	-586
▁mag	-587
▁ampuanan	-588
▁igkabaybayari	-589
▁sikoykow	-590
▁ogkamatoy	-591
ana	-592
ayon	-593
bung	-594
▁manio	-595
▁namatoy	-596
itu	-597
allok	-598
▁nighondio	-599
alin	-600
wo	-601
▁ogki	-602
▁warad	-603
anganak	-604
▁ogbuyu	-605
aba	-606
ili	-607
isu	-608
rah	-609
▁kap	-610
▁mas	-611
raham	-612
▁abraham	-613
muan	-614
umaan	-615
▁ag	-616
▁lag	-617
▁ogg	-618
arani	-619
▁pinanganak	-620
was	-621
▁ins	-622
▁salapi	-623
▁pananglitan	-624
ayag	-625
kita	-626
▁inoy	-627
▁sugu	-628
▁nigsugu	-629
▁mang	-630
▁ingkasulat	-631
rob	-632
ilom	-633
▁bag	-634
▁ogpas	-635
▁oghondio	-636
dakol	-637
▁konad	-638
ba	-639
▁ay	-640
▁tal	-641
tug	-642
ayun	-643
▁kayu	-644
amul	-645
amut	-646
▁batu	-647
▁sund	-648
▁tuud	-649
im	-650
gos	-651
▁dor	-652
koran	-653
▁ogbulig	-654
tok	-655
awon	-656
utuk	-657
▁mog	-658
▁magaan	-659
▁nokouma	-660
▁wa	-661
▁dokad	-662
sas	-663
usilom	-664
▁sundalu	-665
▁ogpaagad	-666
bat	-667
oloy	-668
▁bah	-669
ongkoran	-670
tud	-671
kani	-672
▁nokani	-673
mar	-674
▁bahin	-675
▁kamat	-676
▁nahan	-677
▁kamatayon	-678
ho	-679
unan	-680
▁pogs	-681
mp	-682
inu	-683
mot	-684
▁hini	-685
atong	-686
▁pogd	-687
▁ogkitoon	-688
▁ogkoiling	-689
ob	-690
▁pag	-691
unug	-692
bus	-693
uyagan	-694
▁kouyagan	-695
innu	-696
▁tad	-697
ron	-698
abin	-699
olog	-700
▁bog	-701
▁bol	-702
▁e	-703
ias	-704
▁ub	-705
urut	-706
▁igpo	-707
▁nigparagas	-708
▁nigdinog	-709
uun	-710
iniat	-711
irisu	-712
hur	-713
iru	-714
▁par	-715
aguan	-716
▁kuwo	-717
alugoy	-718
atanas	-719
▁kakoy	-720
▁satanas	-721
ru	-722
▁ban	-723
▁samp	-724
bantoy	-725
koonan	-726
▁ogkatuman	-727
▁iam	-728
awang	-729
▁tanow	-730
▁pagkoonan	-731
tong	-732
awian	-733
aligan	-734
▁ogpang	-735
▁igkarago	-736
▁nighipanow	-737
▁igs	-738
bayad	-739
akop	-740
innuu	-741
▁marani	-742
himatayan	-743
▁ogpokouma	-744
▁ogpamminog	-745
▁ogkabogayan	-746
kagi	-747
▁sim	-748
▁prob	-749
▁ogkar	-750
▁ogkohoy	-751
pas	-752
isiu	-753
utis	-754
lagan	-755
▁kalag	-756
▁ogsayo	-757
hol	-758
irn	-759
▁hap	-760
▁nakas	-761
▁imbogoy	-762
▁kalaglagan	-763
bun	-764
akoli	-765
atuan	-766
bootan	-767
imanan	-768
▁bolad	-769
▁nigpo	-770
tolu	-771
ogpad	-772
libong	-773
▁dut	-774
▁paan	-775
maroyow	-776
angabang	-777
▁parisiu	-778
ulug	-779
▁igm	-780
amula	-781
aruma	-782
▁maria	-783
hit	-784
lan	-785
lis	-786
▁nali	-787
▁ogto	-788
▁ogkal	-789
▁daruwa	-790
▁pam	-791
insia	-792
limud	-793
▁pand	-794
▁hapuy	-795
▁ogkah	-796
▁ogkaawo	-797
▁pogsugu	-798
▁hinimuan	-799
▁probinsia	-800
asi	-801
imu	-802
ayat	-803
▁pap	-804
▁ulu	-805
ungan	-806
▁krus	-807
▁loin	-808
sun	-809
▁ul	-810
alop	-811
niru	-812
▁nud	-813
▁sin	-814
ogparan	-815
▁karniru	-816
▁nigduma	-817
gosa	-818
▁igd	-819
▁nigpa	-820
hud	-821
lin	-822
abuk	-823
alom	-824
▁nigbogayan	-825
▁ogkounawaan	-826
ik	-827
sag	-828
▁dag	-829
▁ayam	-830
buyagon	-831
angabangan	-832
▁pogbuyagon	-833
abau	-834
alat	-835
inum	-836
▁bar	-837
▁bon	-838
▁mata	-839
▁nabo	-840
▁hirod	-841
▁ogkoon	-842
▁tatolu	-843
koddi	-844
▁impan	-845
kanangon	-846
▁langosa	-847
▁sampulu	-848
▁sikoddi	-849
▁pogpitow	-850
▁pandatuan	-851
la	-852
usi	-853
▁po	-854
▁hari	-855
▁ogsu	-856
bolong	-857
hitaga	-858
▁manuk	-859
▁oglibong	-860
▁ogsayoon	-861
▁ogkoumaan	-862
aton	-863
ayad	-864
dini	-865
rail	-866
usig	-867
ongon	-868
▁libu	-869
▁nati	-870
bungan	-871
▁karoy	-872
▁tagtu	-873
sulatan	-874
▁israil	-875
▁ba	-876
▁sam	-877
▁balu	-878
▁impa	-879
▁nigm	-880
▁ogma	-881
▁ogkato	-882
▁natagaan	-883
woy	-884
abid	-885
itan	-886
alang	-887
▁nabu	-888
umaruma	-889
▁kinabo	-890
▁sikanak	-891
▁doromdom	-892
▁ogtumanon	-893
ist	-894
▁nar	-895
alibu	-896
▁kali	-897
apitow	-898
▁hirodis	-899
▁ogpakap	-900
tal	-901
▁sol	-902
▁tig	-903
▁pila	-904
anayan	-905
▁nigpan	-906
hir	-907
agman	-908
▁dabid	-909
▁mataga	-910
▁ogbogoy	-911
▁nigsasindog	-912
▁ip	-913
omot	-914
uman	-915
agana	-916
▁ogtu	-917
▁ogman	-918
▁bubungan	-919
▁nammatoy	-920
▁nignangonan	-921
las	-922
▁gu	-923
▁ho	-924
▁nak	-925
hirap	-926
▁impo	-927
▁pogtuman	-928
ui	-929
mun	-930
ipon	-931
alili	-932
▁sulat	-933
▁tagtuun	-934
▁ogkatagaan	-935
▁ogpakasabut	-936
▁ap	-937
abuy	-938
▁ind	-939
rinog	-940
▁kato	-941
▁nokog	-942
libuwas	-943
▁nangon	-944
▁ogkagion	-945
aron	-946
bayo	-947
▁mangg	-948
▁simon	-949
bad	-950
hun	-951
ongod	-952
alilia	-953
▁babuy	-954
▁ngalap	-955
▁papitu	-956
▁pilatu	-957
▁galilia	-958
▁sikanta	-959
▁oghipanow	-960
ri	-961
▁as	-962
▁bun	-963
▁igt	-964
▁datu	-965
▁pili	-966
▁lagkos	-967
▁ogkataga	-968
▁marusilom	-969
▁ignangonnangon	-970
▁ognangonnangon	-971
abi	-972
iug	-973
ipod	-974
ogow	-975
▁igl	-976
agbot	-977
▁makasas	-978
▁talagbantoy	-979
amb	-980
lop	-981
mus	-982
war	-983
kang	-984
waro	-985
abayo	-986
aling	-987
apuan	-988
ogpak	-989
▁ogta	-990
▁igkas	-991
▁ogkag	-992
alagkos	-993
hondini	-994
▁impasulat	-995
▁makasasalo	-996
▁ogdoromdom	-997
▁ognangonan	-998
▁pogdoromdom	-999
uw	-1000
▁kaap	-1001
▁bogas	-1002
▁manggad	-1003
▁pinabayo	-1004
baybayaran	-1005
ib	-1006
inp	-1007
angu	-1008
ayow	-1009
oran	-1010
moloy	-1011
sagon	-1012
suwoy	-1013
▁tuid	-1014
inogow	-1015
▁pogkohoy	-1016
si	-1017
kas	-1018
anak	-1019
atod	-1020
buyu	-1021
sund	-1022
angko	-1023
holos	-1024
▁igpan	-1025
▁anaranan	-1026
kot	-1027
aylu	-1028
init	-1029
isok	-1030
okal	-1031
▁mad	-1032
▁mam	-1033
intok	-1034
▁nigto	-1035
▁longod	-1036
▁nigpas	-1037
▁nigsolod	-1038
▁nigkagian	-1039
▁ogkahallok	-1040
loin	-1041
▁map	-1042
▁paa	-1043
tubad	-1044
▁kona	-1045
utismu	-1046
▁ogsugu	-1047
▁pogkamatoy	-1048
kal	-1049
▁il	-1050
▁sa	-1051
abot	-1052
angg	-1053
huri	-1054
▁hom	-1055
▁pat	-1056
▁boni	-1057
▁hudia	-1058
▁ogdinog	-1059
abansagon	-1060
▁suguonon	-1061
▁ogkasaligan	-1062
kit	-1063
awos	-1064
aralu	-1065
awoon	-1066
baloy	-1067
tukan	-1068
bayung	-1069
▁maist	-1070
▁masakit	-1071
▁ogkarago	-1072
▁pinamula	-1073
▁katouanan	-1074
▁ogkoiniat	-1075
▁dakoldakol	-1076
long	-1077
mang	-1078
▁mah	-1079
intal	-1080
▁husi	-1081
asakit	-1082
▁homoy	-1083
aguanta	-1084
▁nangoni	-1085
▁pighimu	-1086
▁pogdinog	-1087
▁pogkouyag	-1088
ala	-1089
gol	-1090
sang	-1091
tood	-1092
▁nigg	-1093
bulung	-1094
▁amana	-1095
▁ampow	-1096
▁hudas	-1097
▁ogmar	-1098
▁mohuri	-1099
▁magintal	-1100
▁oghimoloy	-1101
▁oghimatayan	-1102
ayi	-1103
asow	-1104
▁gob	-1105
▁ogkab	-1106
▁insugu	-1107
▁indakoli	-1108
▁pamminog	-1109
▁san	-1110
▁sap	-1111
▁ulod	-1112
agtong	-1113
▁dagat	-1114
buligan	-1115
▁maistru	-1116
▁ogpakasalo	-1117
▁innangonnangon	-1118
lig	-1119
apun	-1120
▁gat	-1121
▁hop	-1122
sabut	-1123
wanan	-1124
▁matu	-1125
▁nato	-1126
▁ogpar	-1127
▁malasi	-1128
▁nabutud	-1129
▁mohoning	-1130
▁madmaroyow	-1131
▁ogkapangabangan	-1132
ara	-1133
sug	-1134
amag	-1135
▁lam	-1136
koron	-1137
onuon	-1138
▁dalu	-1139
▁nasi	-1140
▁oggo	-1141
▁omun	-1142
▁tali	-1143
▁kamot	-1144
▁lituk	-1145
▁nikan	-1146
▁balutu	-1147
inpinnuu	-1148
▁omunaan	-1149
▁ogkaayun	-1150
▁magintalunan	-1151
pi	-1152
aku	-1153
bas	-1154
tol	-1155
tom	-1156
awod	-1157
dani	-1158
sump	-1159
ubus	-1160
▁sis	-1161
sasow	-1162
suman	-1163
warong	-1164
▁maawang	-1165
▁ogmonuon	-1166
▁kalitukan	-1167
▁koiniatan	-1168
kog	-1169
kuy	-1170
mol	-1171
oon	-1172
wak	-1173
aria	-1174
ibog	-1175
uran	-1176
▁asu	-1177
▁usig	-1178
▁bulan	-1179
onganan	-1180
▁ogkali	-1181
▁iglogpad	-1182
▁mabogbog	-1183
▁ogkasayo	-1184
▁ogparagas	-1185
▁ogdoromdomon	-1186
igu	-1187
agan	-1188
ling	-1189
▁tib	-1190
hogot	-1191
untud	-1192
bayaan	-1193
▁ogkoh	-1194
▁agoloy	-1195
▁ogpakar	-1196
▁ogbuligan	-1197
bi	-1198
▁u	-1199
ram	-1200
ulo	-1201
▁pu	-1202
umow	-1203
omonu	-1204
▁bali	-1205
▁igpa	-1206
▁ruma	-1207
sundul	-1208
▁barku	-1209
▁igkat	-1210
▁mariu	-1211
▁nigpam	-1212
▁ogpokog	-1213
agu	-1214
buk	-1215
gow	-1216
kol	-1217
akow	-1218
awoy	-1219
boon	-1220
▁ogdo	-1221
awayan	-1222
umbaloy	-1223
▁uripon	-1224
alibuwas	-1225
▁nounawa	-1226
▁nabawian	-1227
▁ogboboot	-1228
igus	-1229
ogil	-1230
tung	-1231
▁sab	-1232
▁bitu	-1233
▁dini	-1234
▁saka	-1235
insaan	-1236
▁lanow	-1237
▁magal	-1238
▁niglu	-1239
▁oghun	-1240
▁ogsim	-1241
abantug	-1242
▁oghutuk	-1243
▁ogpakat	-1244
na	-1245
pa	-1246
angk	-1247
▁isa	-1248
huron	-1249
mawan	-1250
▁ogmo	-1251
▁inotow	-1252
▁ogkabo	-1253
▁kalamag	-1254
▁malayat	-1255
▁nalimud	-1256
▁ogdatong	-1257
▁ogdinogon	-1258
▁ogtokoron	-1259
▁matuwarong	-1260
▁ogpakanangon	-1261
uti	-1262
doma	-1263
ison	-1264
▁bit	-1265
▁birn	-1266
ulusan	-1267
▁ingko	-1268
▁nigbo	-1269
▁pinnu	-1270
▁poghimu	-1271
▁magaliug	-1272
▁ogkouyag	-1273
▁pogkouma	-1274
▁karoyawon	-1275
bot	-1276
sam	-1277
abas	-1278
alit	-1279
▁bin	-1280
▁tab	-1281
alopot	-1282
omdoma	-1283
ongaan	-1284
umanon	-1285
▁layag	-1286
▁nigtu	-1287
▁saulo	-1288
indanan	-1289
▁narago	-1290
▁inumanon	-1291
▁nighutuk	-1292
▁nasagboka	-1293
▁ogbobootan	-1294
▁nighingaranan	-1295
bug	-1296
ina	-1297
agbu	-1298
akoy	-1299
▁kog	-1300
▁kudd	-1301
▁maga	-1302
▁gatus	-1303
▁gumawan	-1304
▁nigbuyu	-1305
▁ogdakol	-1306
akoldakol	-1307
▁igmalogot	-1308
▁nigbabansagon	-1309
bla	-1310
som	-1311
abal	-1312
apul	-1313
ogot	-1314
rogo	-1315
▁kas	-1316
▁nag	-1317
▁rio	-1318
▁sal	-1319
angho	-1320
musta	-1321
▁inso	-1322
▁ogtal	-1323
▁koonon	-1324
▁birnabi	-1325
aguantoon	-1326
▁napirisu	-1327
▁doromdoma	-1328
▁nabogayan	-1329
▁ogtahuron	-1330
▁ogkalogparan	-1331
▁ogpohimatayan	-1332
anoy	-1333
pang	-1334
ulin	-1335
▁igh	-1336
▁tin	-1337
abung	-1338
allow	-1339
tiago	-1340
wasan	-1341
▁pogk	-1342
▁tinu	-1343
alukuy	-1344
ampuan	-1345
▁pitow	-1346
▁ogduma	-1347
▁malopot	-1348
▁nigpuun	-1349
▁tinuuan	-1350
▁santiago	-1351
▁taliwaro	-1352
▁ogligkatan	-1353
eo	-1354
lam	-1355
sad	-1356
duma	-1357
sung	-1358
▁dir	-1359
▁hoo	-1360
▁nal	-1361
moteo	-1362
▁pang	-1363
▁ugpa	-1364
kitaan	-1365
ologan	-1366
▁nighi	-1367
▁ogpap	-1368
▁ogsil	-1369
▁samuk	-1370
▁solod	-1371
unganan	-1372
▁awoson	-1373
▁tigbal	-1374
utismuan	-1375
▁indanan	-1376
▁pigsugu	-1377
▁talabau	-1378
▁timoteo	-1379
▁nakakita	-1380
▁sikanami	-1381
bolonganan	-1382
▁kasulatan	-1383
▁libuwasan	-1384
▁nakarinog	-1385
▁niglibong	-1386
▁ogpakatood	-1387
▁ogkabuligan	-1388
▁ogpakalagkos	-1389
▁ogkabaybayaran	-1390
isi	-1391
pit	-1392
tad	-1393
okod	-1394
onod	-1395
▁dii	-1396
atolu	-1397
▁diad	-1398
▁oglo	-1399
bunsud	-1400
itawon	-1401
▁kohoy	-1402
▁nakit	-1403
▁ogtin	-1404
▁igsayo	-1405
▁pilipi	-1406
▁pogkita	-1407
▁mabantug	-1408
▁nakitaan	-1409
▁nigbogoy	-1410
▁ogsagman	-1411
▁igkasasow	-1412
▁ogkabayaan	-1413
▁ogkakitaan	-1414
▁ogpakakagi	-1415
▁ogpakakita	-1416
▁ogpakabulig	-1417
amu	-1418
his	-1419
uon	-1420
▁ol	-1421
aani	-1422
roog	-1423
▁int	-1424
▁lap	-1425
▁moon	-1426
alimma	-1427
▁nohoy	-1428
bayaran	-1429
malogot	-1430
▁nouyag	-1431
▁bulawan	-1432
▁oghondi	-1433
▁ogkatou	-1434
▁pogboot	-1435
▁nahallok	-1436
▁poglibong	-1437
▁pinnuuanan	-1438
ki	-1439
rn	-1440
asa	-1441
hip	-1442
kon	-1443
lut	-1444
sob	-1445
uru	-1446
aras	-1447
inga	-1448
▁bak	-1449
agpas	-1450
manuk	-1451
tahud	-1452
▁tago	-1453
aparan	-1454
ongkod	-1455
udling	-1456
aligsom	-1457
irisuan	-1458
▁kapitan	-1459
▁igpohimu	-1460
▁malintok	-1461
▁ogkagian	-1462
▁pirisuan	-1463
▁kapunganan	-1464
▁manukmanuk	-1465
▁nalibulung	-1466
▁niglibuwas	-1467
ya	-1468
boy	-1469
ador	-1470
ulak	-1471
ulid	-1472
▁bug	-1473
▁hol	-1474
▁ong	-1475
atuli	-1476
suran	-1477
ulian	-1478
utang	-1479
▁inat	-1480
▁ogti	-1481
▁ubat	-1482
▁buhis	-1483
▁oglig	-1484
irnador	-1485
▁lalimma	-1486
▁malugoy	-1487
▁nokohun	-1488
▁oglitos	-1489
▁ogsolod	-1490
▁ogtabak	-1491
▁impapitow	-1492
▁nanhondio	-1493
▁gobirnador	-1494
▁oglogparan	-1495
da	-1496
bod	-1497
hog	-1498
abod	-1499
olom	-1500
onia	-1501
ungg	-1502
usoy	-1503
▁mol	-1504
▁tam	-1505
▁anti	-1506
▁ilis	-1507
▁isti	-1508
▁pigs	-1509
inuinu	-1510
▁igpat	-1511
▁mahal	-1512
▁nabay	-1513
▁sabut	-1514
▁impanoy	-1515
▁ogkapulusan	-1516
▁ogpangasawa	-1517
gut	-1518
mut	-1519
apad	-1520
ingg	-1521
inun	-1522
okia	-1523
rias	-1524
ubat	-1525
ugan	-1526
▁kab	-1527
▁lig	-1528
atang	-1529
▁limu	-1530
▁malo	-1531
▁ubas	-1532
▁wara	-1533
apuloy	-1534
atokod	-1535
▁nakat	-1536
ongonan	-1537
▁igtubad	-1538
▁kawanan	-1539
▁maagbot	-1540
▁malison	-1541
▁mohirap	-1542
▁natuman	-1543
▁talinga	-1544
▁antiokia	-1545
▁ogbuyuon	-1546
▁sakarias	-1547
▁nigpaagad	-1548
▁ogpasakup	-1549
▁igkatatolu	-1550
▁ogkootawan	-1551
▁pogkalugoy	-1552
pu	-1553
dag	-1554
dio	-1555
oti	-1556
pon	-1557
lung	-1558
otib	-1559
▁las	-1560
▁pub	-1561
allag	-1562
amsam	-1563
hipto	-1564
▁monu	-1565
▁pogl	-1566
▁puun	-1567
agaran	-1568
ayaran	-1569
imulan	-1570
▁impas	-1571
▁labot	-1572
▁langl	-1573
▁nakar	-1574
allaguy	-1575
▁bulbul	-1576
▁ehipto	-1577
▁limang	-1578
▁ubaton	-1579
bautismu	-1580
mudlimud	-1581
▁diralom	-1582
▁igkohoy	-1583
▁manokal	-1584
▁oghalin	-1585
▁ogpitow	-1586
▁nikandin	-1587
▁ogsuguon	-1588
▁nigdaralu	-1589
▁nigdatong	-1590
▁ogkasipod	-1591
▁impohitaga	-1592
▁ogkasagboka	-1593
▁nighimatayan	-1594
bid	-1595
ila	-1596
kag	-1597
▁ar	-1598
akub	-1599
ogon	-1600
▁gan	-1601
▁pas	-1602
▁pul	-1603
lopow	-1604
tokod	-1605
▁doka	-1606
abukan	-1607
abutan	-1608
▁layun	-1609
▁naawo	-1610
▁ogmal	-1611
▁igtabak	-1612
▁istiban	-1613
▁nigkoon	-1614
▁ogdakop	-1615
▁oggoram	-1616
▁ogpakal	-1617
▁katagaan	-1618
▁nabolong	-1619
▁ogpoomot	-1620
▁ogkapurut	-1621
▁ogpasaylu	-1622
▁igpohitaga	-1623
▁ogdumaruma	-1624
▁nabolongbolong	-1625
▁ogparakoldakol	-1626
aya	-1627
ayu	-1628
kob	-1629
lit	-1630
pak	-1631
tul	-1632
▁ot	-1633
intu	-1634
oron	-1635
rigu	-1636
▁kam	-1637
▁kom	-1638
▁lug	-1639
▁ngi	-1640
▁tug	-1641
ikang	-1642
ogsad	-1643
▁baad	-1644
hirogo	-1645
imatoy	-1646
ulibot	-1647
▁igpar	-1648
▁ogkan	-1649
▁tahur	-1650
▁bituon	-1651
▁doisok	-1652
▁igsugu	-1653
▁ilawan	-1654
▁ogpuun	-1655
▁pantad	-1656
alamatan	-1657
sumpalit	-1658
▁igbayad	-1659
▁insabut	-1660
▁igpaalap	-1661
▁ogkakoon	-1662
▁pogsalig	-1663
▁taguanan	-1664
▁makasabut	-1665
▁nigbunsud	-1666
▁ogsimboon	-1667
▁ogpakasolod	-1668
▁ogpanumbaloy	-1669
apid	-1670
ipis	-1671
irap	-1672
irob	-1673
lias	-1674
raat	-1675
taan	-1676
unon	-1677
utol	-1678
▁dal	-1679
▁inh	-1680
▁tap	-1681
abong	-1682
amili	-1683
galat	-1684
labot	-1685
tanud	-1686
uwang	-1687
▁alap	-1688
aligad	-1689
idonia	-1690
▁balag	-1691
▁hakub	-1692
▁nigli	-1693
▁pistu	-1694
▁subla	-1695
▁mogtuu	-1696
▁nabalu	-1697
▁oggaani	-1698
autismuan	-1699
▁igdakoli	-1700
▁ogkoonon	-1701
▁sinabong	-1702
▁masidonia	-1703
▁ogdakolon	-1704
▁ogpokohimu	-1705
bag	-1706
ori	-1707
ros	-1708
sol	-1709
anan	-1710
kora	-1711
ogos	-1712
sond	-1713
usan	-1714
akita	-1715
bogas	-1716
turan	-1717
▁bung	-1718
alapon	-1719
itigus	-1720
▁igpas	-1721
▁nakap	-1722
▁nigma	-1723
▁publi	-1724
▁tabak	-1725
▁bogayi	-1726
▁igkabo	-1727
▁nabolu	-1728
▁ogkabu	-1729
▁talagp	-1730
▁nigdani	-1731
▁ogkoimu	-1732
▁ligkatan	-1733
▁nigluhud	-1734
▁nigtokod	-1735
▁igpapitow	-1736
▁oghimatoy	-1737
▁katagaanan	-1738
▁ogpamangho	-1739
po	-1740
dal	-1741
kub	-1742
pot	-1743
sil	-1744
▁it	-1745
▁mi	-1746
abag	-1747
alab	-1748
arit	-1749
mana	-1750
onow	-1751
timu	-1752
▁sun	-1753
▁tul	-1754
akoon	-1755
ampod	-1756
ampow	-1757
aruwa	-1758
▁angg	-1759
▁igli	-1760
▁moko	-1761
▁ogng	-1762
▁uran	-1763
ugpaan	-1764
▁niglo	-1765
▁nigmo	-1766
▁sisar	-1767
holawan	-1768
▁insabuk	-1769
▁paligad	-1770
▁samaria	-1771
▁igdogpak	-1772
▁mangayow	-1773
▁pogsabut	-1774
▁ogdakopon	-1775
▁ogkasasow	-1776
▁ogmaroyow	-1777
▁ogtalabau	-1778
▁holholawan	-1779
▁ogpakabogoy	-1780
▁ogpakatuman	-1781
▁ogkohingaranan	-1782
▁nignangonnangon	-1783
▁j	-1784
hop	-1785
lap	-1786
mug	-1787
agoi	-1788
atuk	-1789
atuu	-1790
bang	-1791
orok	-1792
oson	-1793
▁ogn	-1794
anggu	-1795
inuan	-1796
▁pulu	-1797
hallok	-1798
▁bokog	-1799
▁kunto	-1800
▁mabog	-1801
▁nigsu	-1802
▁utang	-1803
anguwan	-1804
atangan	-1805
himatoy	-1806
▁hondio	-1807
▁igkaru	-1808
▁niglig	-1809
▁tokora	-1810
▁noulian	-1811
▁ogsalig	-1812
▁nigsakoy	-1813
▁ogawoson	-1814
▁igkabogoy	-1815
▁igkasipod	-1816
▁igkoiniat	-1817
▁nigbawian	-1818
▁ogpitawon	-1819
▁pogkapawo	-1820
▁ogpasayluon	-1821
▁ogpinpinnuu	-1822
▁langlanguwan	-1823
▁oglimudlimud	-1824
ima	-1825
mas	-1826
ris	-1827
tas	-1828
▁ik	-1829
agow	-1830
alas	-1831
alik	-1832
ugun	-1833
uyun	-1834
▁bab	-1835
▁dam	-1836
▁har	-1837
▁sil	-1838
gotan	-1839
iniug	-1840
isidi	-1841
kotan	-1842
lotib	-1843
tomog	-1844
▁adan	-1845
▁obol	-1846
▁sump	-1847
anaron	-1848
arasan	-1849
oloran	-1850
▁dayag	-1851
▁gotok	-1852
▁konon	-1853
▁ogbun	-1854
▁lagong	-1855
▁laplap	-1856
▁logpad	-1857
▁ogparo	-1858
▁tagood	-1859
usiloman	-1860
▁nalugoy	-1861
▁nasarit	-1862
▁noiling	-1863
▁noumaan	-1864
▁sisaria	-1865
aganangon	-1866
▁nigbulig	-1867
▁nigpurut	-1868
▁ogbantoy	-1869
▁ingkaanad	-1870
▁karoyawan	-1871
▁ogkohogot	-1872
▁tahuronon	-1873
▁poghipanow	-1874
▁talagbautismu	-1875
▁talagpangabang	-1876
bow	-1877
ira	-1878
san	-1879
yud	-1880
abat	-1881
alad	-1882
alip	-1883
aloy	-1884
boli	-1885
▁amo	-1886
▁kaw	-1887
▁lin	-1888
▁mil	-1889
▁pun	-1890
▁sag	-1891
▁soi	-1892
▁tub	-1893
anias	-1894
ayang	-1895
homut	-1896
kuwan	-1897
uubat	-1898
▁kita	-1899
▁mabu	-1900
alagak	-1901
ayaton	-1902
ilaban	-1903
▁matig	-1904
▁ogpat	-1905
▁silas	-1906
gutasan	-1907
▁bantoy	-1908
▁isaias	-1909
▁lasaru	-1910
▁ogkako	-1911
▁ogpabu	-1912
▁tagban	-1913
▁mananoy	-1914
▁ogpakab	-1915
▁ogpangu	-1916
▁sabalan	-1917
▁sugpang	-1918
abautismu	-1919
angulibot	-1920
▁igkabolu	-1921
▁loinloin	-1922
▁nigpinnuu	-1923
▁ogkahalin	-1924
▁ogpapangu	-1925
▁ogpakaamut	-1926
▁nigpamminog	-1927
▁ogparagason	-1928
▁igmaganangon	-1929
no	-1930
and	-1931
kut	-1932
mit	-1933
oik	-1934
uri	-1935
▁ep	-1936
▁ha	-1937
alis	-1938
aliu	-1939
amuk	-1940
anon	-1941
ipag	-1942
irna	-1943
irnu	-1944
itom	-1945
oton	-1946
▁han	-1947
▁igb	-1948
▁sig	-1949
▁sir	-1950
ampos	-1951
aroot	-1952
asing	-1953
▁alad	-1954
▁asia	-1955
▁lana	-1956
▁mani	-1957
▁ogho	-1958
alamat	-1959
alapak	-1960
lagkos	-1961
mugong	-1962
ogotoy	-1963
uripon	-1964
▁alapa	-1965
▁episu	-1966
▁gakit	-1967
▁kabol	-1968
▁malan	-1969
▁ogbal	-1970
▁ogbay	-1971
akdakol	-1972
ingaran	-1973
▁nigpat	-1974
▁ogkann	-1975
▁ogkita	-1976
alagaron	-1977
▁ananias	-1978
▁gobirnu	-1979
▁insulat	-1980
▁maralom	-1981
▁mohomut	-1982
▁nasakup	-1983
▁ogbayad	-1984
▁ogsulat	-1985
akdakoloy	-1986
▁dayagang	-1987
▁igkouyag	-1988
▁manaling	-1989
▁nigtuman	-1990
▁noinuinu	-1991
limudlimud	-1992
▁igpatulin	-1993
▁ogmasakit	-1994
▁ogpanabod	-1995
▁ogsagmanon	-1996
▁ogsasindog	-1997
▁ogkasabutan	-1998
▁ogkoongkoran	-1999
▁ogpakamalogot	-2000
dd	-2001
but	-2002
dok	-2003
kap	-2004
riu	-2005
sub	-2006
tod	-2007
▁op	-2008
▁ug	-2009
▁um	-2010
alia	-2011
ilio	-2012
otan	-2013
pung	-2014
▁apu	-2015
▁bay	-2016
▁buk	-2017
▁dib	-2018
▁hor	-2019
▁kur	-2020
▁pus	-2021
alima	-2022
honat	-2023
itawa	-2024
kubla	-2025
ulung	-2026
uyamu	-2027
▁bako	-2028
▁bulu	-2029
▁korn	-2030
▁libi	-2031
▁mund	-2032
▁pigh	-2033
angkad	-2034
atanan	-2035
romdom	-2036
sabuti	-2037
sumpul	-2038
▁alibu	-2039
▁himol	-2040
▁hogot	-2041
▁igbat	-2042
▁nigko	-2043
▁solug	-2044
balagad	-2045
ingawan	-2046
▁dalaga	-2047
▁doipag	-2048
▁kogang	-2049
▁ngipon	-2050
▁ogboli	-2051
alukuyoy	-2052
▁ighatod	-2053
▁matagoi	-2054
▁talagbo	-2055
▁igbayung	-2056
▁kornilio	-2057
▁molintok	-2058
▁ogkaalap	-2059
▁ogkoubus	-2060
▁himolayan	-2061
▁igmasakit	-2062
▁napongaan	-2063
▁ogpakapan	-2064
▁ogpanakow	-2065
▁pogdatong	-2066
▁pogkootow	-2067
▁sabalanan	-2068
▁nighondini	-2069
▁nigpasakup	-2070
▁nigsaparan	-2071
▁ogpokounug	-2072
▁talagbulig	-2073
▁talagkubla	-2074
▁ogkapongaan	-2075
▁ogpakarinog	-2076
▁pogkasabuti	-2077
▁kabolbolonganan	-2078
du	-2079
so	-2080
ani	-2081
bos	-2082
hag	-2083
kul	-2084
rip	-2085
ula	-2086
upu	-2087
abol	-2088
boka	-2089
ilak	-2090
inis	-2091
kori	-2092
tang	-2093
ulon	-2094
unoy	-2095
▁pir	-2096
▁tog	-2097
▁tol	-2098
▁uli	-2099
ahari	-2100
alung	-2101
angoy	-2102
bulus	-2103
dayan	-2104
hibat	-2105
isaan	-2106
tawan	-2107
▁basu	-2108
▁lama	-2109
▁milk	-2110
▁miow	-2111
▁naro	-2112
▁ogku	-2113
▁tong	-2114
ambago	-2115
ampulu	-2116
angkob	-2117
ibogan	-2118
inggat	-2119
insooy	-2120
irnaum	-2121
isidik	-2122
ogotan	-2123
ubatan	-2124
unugon	-2125
▁inogo	-2126
▁isaak	-2127
▁lagut	-2128
▁nigka	-2129
▁ogbas	-2130
▁otawa	-2131
▁sunud	-2132
balabag	-2133
balawan	-2134
hirapan	-2135
ilingan	-2136
iniugan	-2137
▁bungag	-2138
▁harina	-2139
▁isabuk	-2140
▁maputi	-2141
▁nighun	-2142
▁ogkito	-2143
▁pilang	-2144
anggutan	-2145
▁balagad	-2146
▁kabinun	-2147
▁mabulut	-2148
▁mahapun	-2149
▁manipis	-2150
▁napulid	-2151
▁natokow	-2152
▁nigboot	-2153
▁ogligal	-2154
▁ogtuuan	-2155
▁paragas	-2156
▁pogsayo	-2157
▁sabinit	-2158
▁igkaruwa	-2159
▁ingkohoy	-2160
▁kabolong	-2161
▁karumaan	-2162
▁lamisaan	-2163
▁maambago	-2164
▁nabayaan	-2165
▁nakabayo	-2166
▁nanangon	-2167
▁ogkaroog	-2168
▁sasindog	-2169
▁igkamatoy	-2170
▁kapirnaum	-2171
▁oggawayan	-2172
▁oghagtong	-2173
▁ogmaawang	-2174
▁tubaranan	-2175
▁milkisidik	-2176
▁ogkabawian	-2177
▁ogpokougpo	-2178
▁niggongonan	-2179
▁ogbalagaron	-2180
▁oghihipanow	-2181
▁ogpalibuwas	-2182
▁kabinunsuran	-2183
▁manalingboka	-2184
▁nigpinpinnuu	-2185
▁ogpakamaroyow	-2186
el	-2187
mo	-2188
kai	-2189
kop	-2190
upi	-2191
▁pi	-2192
abit	-2193
asku	-2194
ilan	-2195
ingi	-2196
lang	-2197
▁ali	-2198
▁bas	-2199
▁hun	-2200
▁igk	-2201
▁mab	-2202
▁pal	-2203
▁sum	-2204
husoy	-2205
inabo	-2206
ingan	-2207
logob	-2208
ogdog	-2209
tayan	-2210
▁ayad	-2211
▁baka	-2212
▁doun	-2213
▁elis	-2214
▁hupi	-2215
▁inka	-2216
▁kalu	-2217
▁tagu	-2218
▁ting	-2219
▁titu	-2220
aligya	-2221
boboot	-2222
hirapi	-2223
ingawi	-2224
unggun	-2225
▁gapun	-2226
▁ibung	-2227
▁kitaa	-2228
▁kuddo	-2229
▁makas	-2230
▁nigku	-2231
▁ogmat	-2232
▁putow	-2233
▁solom	-2234
agbotan	-2235
alahari	-2236
buligoy	-2237
busawan	-2238
unturan	-2239
▁asolom	-2240
▁hordan	-2241
▁ighimu	-2242
▁nigtug	-2243
alansang	-2244
amalogot	-2245
mansuman	-2246
▁damasku	-2247
▁igsulat	-2248
▁maallow	-2249
▁ogkaban	-2250
▁ongkori	-2251
▁igkasayo	-2252
▁matikang	-2253
▁nakasalo	-2254
▁nootawan	-2255
▁ogbunsud	-2256
▁ogkaraat	-2257
▁igpatokod	-2258
▁kaapapuan	-2259
▁nasulatan	-2260
▁oglibuwas	-2261
▁ogsinogow	-2262
▁ogdatongan	-2263
▁ogngaranan	-2264
▁igkasampulu	-2265
▁ingkanangon	-2266
▁ogpapangumusta	-2267
bok	-2268
him	-2269
kaw	-2270
tin	-2271
tob	-2272
tut	-2273
yas	-2274
▁la	-2275
▁or	-2276
amit	-2277
ilis	-2278
luan	-2279
ripa	-2280
sayo	-2281
▁dap	-2282
▁lup	-2283
▁pak	-2284
▁usi	-2285
agpit	-2286
ubato	-2287
▁asin	-2288
▁bang	-2289
▁poka	-2290
▁tung	-2291
▁tuui	-2292
alaran	-2293
angkap	-2294
iralom	-2295
oyawon	-2296
▁babil	-2297
▁boung	-2298
▁dalig	-2299
▁elias	-2300
▁hilam	-2301
▁matul	-2302
▁nanoy	-2303
▁ogpag	-2304
▁ogpal	-2305
lansang	-2306
▁agripa	-2307
▁apulus	-2308
▁lalima	-2309
▁niglan	-2310
▁ogboot	-2311
▁simana	-2312
▁inhatod	-2313
▁nasasow	-2314
▁ogbogas	-2315
▁ogkabat	-2316
▁ogkamol	-2317
▁ogsimba	-2318
▁balubato	-2319
▁igkaratu	-2320
▁nigligad	-2321
▁ogkakagi	-2322
▁ogkapawo	-2323
▁ogtinawo	-2324
▁nakasawod	-2325
▁nigsundul	-2326
▁noiniatan	-2327
▁ogsulatan	-2328
▁ogtitigus	-2329
▁talagboot	-2330
▁talaghimu	-2331
angnangonan	-2332
▁nigbuligan	-2333
▁ogpakaalap	-2334
bolongbolong	-2335
▁nigbobootan	-2336
▁nigpanagana	-2337
▁ogkasilaban	-2338
▁ogpakasuwoy	-2339
▁ogkaroromdom	-2340
▁nigbautismuan	-2341
er	-2342
lug	-2343
nal	-2344
▁us	-2345
apas	-2346
imba	-2347
inug	-2348
olin	-2349
onan	-2350
▁abu	-2351
▁and	-2352
▁ang	-2353
▁bua	-2354
▁sad	-2355
▁son	-2356
▁tir	-2357
alina	-2358
along	-2359
ayari	-2360
indan	-2361
ingon	-2362
lingi	-2363
roson	-2364
ungod	-2365
▁dugi	-2366
▁himu	-2367
▁katu	-2368
▁kodd	-2369
▁koin	-2370
▁nang	-2371
▁olin	-2372
▁onow	-2373
▁sayo	-2374
aangoy	-2375
ahatod	-2376
akopal	-2377
asaylu	-2378
ongkai	-2379
ugunan	-2380
▁agpot	-2381
▁bayad	-2382
▁bulig	-2383
▁hilit	-2384
▁oghin	-2385
▁ogsas	-2386
▁tangk	-2387
▁tibon	-2388
alibong	-2389
apirisu	-2390
atuutuu	-2391
uwaruwa	-2392
▁hinimu	-2393
▁ibogoy	-2394
▁moirob	-2395
▁nanaan	-2396
▁napali	-2397
▁nigtin	-2398
▁patala	-2399
▁sumpul	-2400
▁bugtung	-2401
▁igbulig	-2402
▁inangon	-2403
▁makopal	-2404
▁malayag	-2405
▁nigbayo	-2406
▁nigugpo	-2407
▁pigkita	-2408
▁pinayag	-2409
ayandayan	-2410
▁elisabit	-2411
▁karoyawi	-2412
▁nigsulat	-2413
▁ogbasoon	-2414
▁tagbanwa	-2415
▁igpasabut	-2416
▁nakasabut	-2417
▁nigsamsam	-2418
▁oghondini	-2419
▁ogkohutuk	-2420
▁ogkoomonu	-2421
▁impanangon	-2422
▁nanangonan	-2423
▁ogpanagana	-2424
▁patalahari	-2425
▁pigbusawan	-2426
▁nigdumaruma	-2427
▁ogkatimulan	-2428
▁ogmalayaton	-2429
▁ogpakaatang	-2430
▁ogpakalabow	-2431
▁ogpangabang	-2432
▁pogdumaruma	-2433
▁ogpakasundul	-2434
▁ogpalibuwason	-2435
▁ogpasalamatan	-2436
sa	-2437
han	-2438
how	-2439
ion	-2440
lon	-2441
mag	-2442
pis	-2443
sig	-2444
tog	-2445
umo	-2446
uyu	-2447
▁up	-2448
agat	-2449
alug	-2450
ayap	-2451
gisi	-2452
mata	-2453
mbal	-2454
obon	-2455
obos	-2456
ogul	-2457
okan	-2458
suli	-2459
ulod	-2460
umil	-2461
usiu	-2462
utan	-2463
▁ari	-2464
▁hag	-2465
▁sip	-2466
▁tik	-2467
▁was	-2468
▁wow	-2469
aagad	-2470
agbas	-2471
amboy	-2472
batan	-2473
dogil	-2474
goram	-2475
irapi	-2476
kawan	-2477
risia	-2478
sugat	-2479
umoon	-2480
▁dilo	-2481
▁mako	-2482
▁oglu	-2483
▁pali	-2484
▁pino	-2485
▁sapu	-2486
alabau	-2487
alamon	-2488
alikid	-2489
alukas	-2490
angang	-2491
atagad	-2492
ligkat	-2493
ulasan	-2494
▁alung	-2495
▁ampui	-2496
▁basak	-2497
▁bunal	-2498
▁ganna	-2499
▁liwak	-2500
▁luwak	-2501
▁naman	-2502
▁nigho	-2503
▁ogban	-2504
▁ogbuy	-2505
▁ogdur	-2506
▁oghon	-2507
▁ogsul	-2508
▁pamul	-2509
▁pinog	-2510
▁tutuu	-2511
▁anggam	-2512
▁malomu	-2513
▁mootow	-2514
▁noumil	-2515
▁oginso	-2516
▁ogkoko	-2517
▁ogpato	-2518
▁ogsond	-2519
▁paling	-2520
▁pogkat	-2521
akimatoy	-2522
loinloin	-2523
▁girisia	-2524
▁hipanow	-2525
▁hondini	-2526
▁igliwan	-2527
▁mabogat	-2528
▁mamatoy	-2529
▁noomonu	-2530
▁ogbaban	-2531
▁ogdolog	-2532
▁ogpurut	-2533
▁ogkaanad	-2534
▁ogpinnuu	-2535
▁pogtahud	-2536
▁nigmarani	-2537
▁ogbayaran	-2538
▁oghilabot	-2539
▁ogkaboros	-2540
▁ogkalugoy	-2541
▁ogsaligan	-2542
▁pogboboot	-2543
angnangonoy	-2544
▁igpanangon	-2545
▁ingkabogoy	-2546
▁nighagtong	-2547
▁ogkougpaan	-2548
▁ogpoomotan	-2549
▁ogtinawoon	-2550
▁karusiloman	-2551
▁nigpallaguy	-2552
▁ogpakimatoy	-2553
▁ogbabansagon	-2554
▁ogbaybayaran	-2555
▁ogkalingawan	-2556
▁ogpakatangko	-2557
▁ogpangumusta	-2558
▁ogsumansuman	-2559
▁ogpangabangan	-2560
..	-2561
aat	-2562
als	-2563
ama	-2564
doy	-2565
ern	-2566
ilu	-2567
lid	-2568
ool	-2569
rog	-2570
suk	-2571
tak	-2572
yan	-2573
▁ak	-2574
▁bi	-2575
▁om	-2576
agap	-2577
alow	-2578
asna	-2579
atun	-2580
bato	-2581
duon	-2582
erno	-2583
insa	-2584
kbok	-2585
omis	-2586
opus	-2587
song	-2588
unia	-2589
woil	-2590
▁awo	-2591
▁dol	-2592
▁dom	-2593
▁imb	-2594
▁lob	-2595
▁lub	-2596
▁ogw	-2597
▁tun	-2598
agkap	-2599
ambag	-2600
among	-2601
ampit	-2602
angas	-2603
angol	-2604
bohog	-2605
goron	-2606
hutuk	-2607
inuna	-2608
lihim	-2609
timul	-2610
▁alam	-2611
▁alig	-2612
▁aluk	-2613
▁ampu	-2614
▁dung	-2615
▁huda	-2616
▁igtu	-2617
▁kabu	-2618
▁list	-2619
▁magd	-2620
▁nign	-2621
▁ogba	-2622
▁ogdi	-2623
▁saku	-2624
▁salu	-2625
abinon	-2626
alimud	-2627
alotoy	-2628
omotan	-2629
usigon	-2630
▁agpas	-2631
▁ambow	-2632
▁amigu	-2633
▁batok	-2634
▁dapit	-2635
▁igkap	-2636
▁kalas	-2637
▁kohop	-2638
▁kuron	-2639
▁lobut	-2640
▁nigdo	-2641
▁nigdu	-2642
▁pilik	-2643
alintok	-2644
aliwaro	-2645
amilian	-2646
awangan	-2647
hagtong	-2648
tanuran	-2649
ungayow	-2650
▁imboot	-2651
▁inhimu	-2652
▁isulat	-2653
▁markos	-2654
▁minuna	-2655
▁naabin	-2656
▁naalap	-2657
▁nigkol	-2658
▁nigman	-2659
▁ogkati	-2660
doromdom	-2661
▁ibungon	-2662
▁igsabuk	-2663
▁imperno	-2664
▁insalig	-2665
▁limukon	-2666
▁magbobo	-2667
▁malotoy	-2668
▁masalig	-2669
▁nalagak	-2670
▁nanduma	-2671
▁naponga	-2672
▁nigsayo	-2673
▁ogkabal	-2674
▁ogkoima	-2675
▁ogtahud	-2676
▁ogtulin	-2677
insinogow	-2678
▁bitlihim	-2679
▁igpamula	-2680
▁indogpak	-2681
▁maligsom	-2682
▁napalian	-2683
▁nigdakop	-2684
▁nighondi	-2685
▁ogdaralu	-2686
▁ogkabolu	-2687
▁hibatanan	-2688
▁mangkuwan	-2689
▁oggoramon	-2690
▁oglangkad	-2691
▁pogkataga	-2692
▁sinaligan	-2693
▁impanagana	-2694
▁ingkatubad	-2695
▁ingkoholos	-2696
▁nakalagkos	-2697
▁ogkannugunan	-2698
▁ogpakapangabang	-2699
es	-2700
ati	-2701
bak	-2702
gal	-2703
ian	-2704
ibi	-2705
ida	-2706
piu	-2707
tik	-2708
ugi	-2709
amon	-2710
angh	-2711
aroy	-2712
awot	-2713
bing	-2714
bood	-2715
bunu	-2716
inow	-2717
kari	-2718
laan	-2719
maan	-2720
orol	-2721
rong	-2722
uhoy	-2723
upul	-2724
▁ato	-2725
▁hig	-2726
▁hin	-2727
▁hul	-2728
▁igi	-2729
▁ipo	-2730
▁kil	-2731
▁noi	-2732
▁sak	-2733
▁sop	-2734
abuti	-2735
agsil	-2736
angub	-2737
ayung	-2738
halin	-2739
igbas	-2740
libug	-2741
ligad	-2742
sulod	-2743
tugun	-2744
ukalo	-2745
▁awos	-2746
▁bayo	-2747
▁buyu	-2748
▁igto	-2749
▁ikug	-2750
▁nalo	-2751
▁nalu	-2752
▁nand	-2753
▁ogso	-2754
▁pigp	-2755
akitan	-2756
asalig	-2757
atuman	-2758
bongan	-2759
itania	-2760
lobong	-2761
sundug	-2762
▁bitil	-2763
▁bulak	-2764
▁gabas	-2765
▁igira	-2766
▁liang	-2767
▁makar	-2768
▁marta	-2769
▁ogtug	-2770
▁sigay	-2771
▁tomas	-2772
timulan	-2773
▁alukuy	-2774
▁bogyas	-2775
▁daging	-2776
▁kalasi	-2777
▁kawaan	-2778
▁nigmal	-2779
▁nootow	-2780
▁ogbasa	-2781
▁ogkalo	-2782
▁ogkata	-2783
▁pangan	-2784
▁pitawa	-2785
▁simion	-2786
▁talagt	-2787
▁tambal	-2788
▁balagon	-2789
▁bantaan	-2790
▁bitania	-2791
▁ingalat	-2792
▁inholos	-2793
▁karakol	-2794
▁kurintu	-2795
▁makogal	-2796
▁malalab	-2797
▁ogdogil	-2798
▁ogsalop	-2799
▁pogkoon	-2800
▁pogugpo	-2801
▁sadusiu	-2802
▁solomon	-2803
▁imimanan	-2804
▁niglingi	-2805
▁niglopow	-2806
▁nohirogo	-2807
▁ogbayung	-2808
▁ogkokoon	-2809
▁sumsuman	-2810
tanudtanud	-2811
▁babilunia	-2812
▁inkasulat	-2813
▁inlansang	-2814
▁kalingawi	-2815
▁ogkaalang	-2816
▁ogkagalat	-2817
▁ogkalituk	-2818
▁ogkataman	-2819
▁ogkatapid	-2820
▁ogpakaawo	-2821
▁igkahallok	-2822
▁igkanangon	-2823
▁nigsoloran	-2824
▁ogpakasayo	-2825
▁niglogparan	-2826
▁ogmaroyawon	-2827
▁ogpakarogil	-2828
▁nakaroromdom	-2829
▁nigbaybayaran	-2830
▁nigpabautismu	-2831
dak	-2832
hot	-2833
iku	-2834
ilo	-2835
iti	-2836
moy	-2837
nus	-2838
pia	-2839
pos	-2840
▁aw	-2841
aboy	-2842
akob	-2843
alun	-2844
apon	-2845
ason	-2846
ayaa	-2847
briu	-2848
ilow	-2849
ilud	-2850
ustu	-2851
▁bur	-2852
▁but	-2853
▁dug	-2854
▁gul	-2855
▁ika	-2856
▁kag	-2857
▁kor	-2858
▁tar	-2859
▁til	-2860
aanad	-2861
agoon	-2862
ambal	-2863
anlas	-2864
bunan	-2865
kawon	-2866
pasan	-2867
tanow	-2868
uiton	-2869
unduk	-2870
ungag	-2871
▁bino	-2872
▁ipap	-2873
▁kara	-2874
▁koon	-2875
▁liog	-2876
▁malu	-2877
▁olog	-2878
▁piak	-2879
▁siak	-2880
▁ubal	-2881
abalan	-2882
agaani	-2883
agmana	-2884
agsang	-2885
alipun	-2886
aliwan	-2887
alopow	-2888
aragun	-2889
arokot	-2890
atukan	-2891
dongan	-2892
rangob	-2893
rongan	-2894
▁balun	-2895
▁baluy	-2896
▁batuk	-2897
▁bukod	-2898
▁diblu	-2899
▁hairu	-2900
▁hikot	-2901
▁himua	-2902
▁ilias	-2903
▁kasal	-2904
▁kohon	-2905
▁libog	-2906
▁lubid	-2907
▁nakag	-2908
▁nigso	-2909
▁ogpab	-2910
▁ogtan	-2911
▁olibu	-2912
▁salag	-2913
▁sosol	-2914
▁takas	-2915
▁taloy	-2916
alangan	-2917
amposan	-2918
asawoon	-2919
▁bailan	-2920
▁bogbog	-2921
▁iskari	-2922
▁karina	-2923
▁kommag	-2924
▁listra	-2925
▁moinit	-2926
▁niglop	-2927
▁nigpap	-2928
▁ogbayo	-2929
▁ogdoot	-2930
▁oghilu	-2931
▁ogmaro	-2932
▁ogpaag	-2933
▁ogpako	-2934
▁ogsump	-2935
▁pusung	-2936
▁sapari	-2937
▁suduma	-2938
▁tirigu	-2939
tongtong	-2940
ungangon	-2941
▁barabas	-2942
▁igholos	-2943
▁masolom	-2944
▁mokouma	-2945
▁narinog	-2946
▁natalap	-2947
▁natouan	-2948
▁nigamut	-2949
▁nigpaap	-2950
▁nohogot	-2951
▁ogkapar	-2952
▁oglayag	-2953
▁pogpang	-2954
abalangon	-2955
angabangi	-2956
imtimulan	-2957
marusilom	-2958
▁alibutod	-2959
▁alunggun	-2960
▁balagara	-2961
▁bayokbok	-2962
▁hinibriu	-2963
▁igkoibog	-2964
▁iglagkos	-2965
▁impohimu	-2966
▁makatood	-2967
▁masabuti	-2968
▁mausilom	-2969
▁nalagkos	-2970
▁nigdakol	-2971
▁nigluyud	-2972
▁nikandan	-2973
▁ogkoulug	-2974
▁ogpaboot	-2975
▁ogpakalu	-2976
▁ogpatuli	-2977
▁panagana	-2978
suwoysuwoy	-2979
▁hilamunon	-2980
▁igkoirapi	-2981
▁igpatuman	-2982
▁liboganon	-2983
▁nakaponga	-2984
▁nigpatuli	-2985
▁ogkalimud	-2986
▁pognangon	-2987
▁pogsagman	-2988
▁sosolobon	-2989
▁igkarangob	-2990
▁igkohirapi	-2991
▁nanhipanow	-2992
▁nigdalapak	-2993
▁nighinggat	-2994
▁nigtalabau	-2995
▁ogkoubatan	-2996
▁ogloinloin	-2997
▁ogpakaroog	-2998
▁ogkapasaylu	-2999
▁ogpakabatuk	-3000
▁nabaybayaran	-3001
▁nigpaagbotan	-3002
▁nigpakimatoy	-3003
▁ogpaagadagad	-3004
▁ogpakaligsom	-3005
▁ogtanudtanud	-3006
▁pogpangabang	-3007
▁impananglitan	-3008
▁nigpangabangan	-3009
▁nigpasalamatan	-3010
▁oglibonglibong	-3011
aa	-3012
amo	-3013
lun	-3014
oto	-3015
pal	-3016
ria	-3017
sik	-3018
sip	-3019
tim	-3020
utu	-3021
amoy	-3022
arok	-3023
atok	-3024
atus	-3025
basa	-3026
dong	-3027
imul	-3028
lkol	-3029
obol	-3030
ogas	-3031
olug	-3032
rani	-3033
ugtu	-3034
uruk	-3035
▁dad	-3036
▁inp	-3037
▁lib	-3038
▁lum	-3039
▁mak	-3040
▁pon	-3041
▁sob	-3042
▁tis	-3043
aanan	-3044
ambay	-3045
ampil	-3046
antog	-3047
araan	-3048
atkat	-3049
bolog	-3050
hulug	-3051
ilala	-3052
muron	-3053
otawi	-3054
saida	-3055
ugsob	-3056
ungud	-3057
utung	-3058
▁abug	-3059
▁amag	-3060
▁andr	-3061
▁asno	-3062
▁atol	-3063
▁boot	-3064
▁diot	-3065
▁gini	-3066
▁gira	-3067
▁laku	-3068
▁mama	-3069
▁mogs	-3070
▁ogdu	-3071
▁ogga	-3072
▁pigd	-3073
▁sabu	-3074
▁sung	-3075
▁timp	-3076
▁tiru	-3077
alapan	-3078
alosob	-3079
batbat	-3080
gongon	-3081
mangli	-3082
matayi	-3083
pungan	-3084
tanuri	-3085
▁dakop	-3086
▁gatas	-3087
▁impat	-3088
▁kalim	-3089
▁kooto	-3090
▁lokob	-3091
▁mabol	-3092
▁ogbat	-3093
▁oggul	-3094
▁oghis	-3095
▁oglan	-3096
▁ogtub	-3097
▁pogpo	-3098
▁sugua	-3099
▁sukat	-3100
▁suloy	-3101
▁wasoy	-3102
amporan	-3103
rosonan	-3104
sublaan	-3105
unawaan	-3106
▁alabat	-3107
▁buligi	-3108
▁dakola	-3109
▁dorkas	-3110
▁kaipas	-3111
▁kulang	-3112
▁nakalo	-3113
▁nigbat	-3114
▁ogdani	-3115
▁ogkohi	-3116
▁ogkuon	-3117
▁ogpaap	-3118
▁pogpan	-3119
▁tagkos	-3120
▁bakotin	-3121
▁imbayad	-3122
▁karalom	-3123
▁malinis	-3124
▁nagangu	-3125
▁nagulak	-3126
▁nakasal	-3127
▁nigalam	-3128
▁nigalap	-3129
▁nigampu	-3130
▁nigmoin	-3131
▁nigtubu	-3132
▁nikaniu	-3133
▁noiniat	-3134
▁oglituk	-3135
▁oglopow	-3136
▁ogtagad	-3137
▁sagmana	-3138
▁bitsaida	-3139
▁igsumpul	-3140
▁imbayung	-3141
▁inhondio	-3142
▁ipapitow	-3143
▁mabolbol	-3144
▁mogtokod	-3145
▁nakatagu	-3146
▁nigdogil	-3147
▁niggoram	-3148
▁nigtagbu	-3149
▁ogdoisok	-3150
▁ogdumoon	-3151
▁ogkaayat	-3152
▁ogkamolu	-3153
▁ogtangko	-3154
▁ogtiboon	-3155
▁pigdinog	-3156
▁tangkulu	-3157
manglimang	-3158
▁igmaroyow	-3159
▁imparokot	-3160
▁iskarioti	-3161
▁magdalina	-3162
▁mogligkat	-3163
▁nigbantoy	-3164
▁nigboboot	-3165
▁nigkokoon	-3166
▁oggutasan	-3167
▁ogkaasawa	-3168
▁ogkapolod	-3169
▁ogmanokal	-3170
▁ogpabulig	-3171
▁ogpakapas	-3172
▁ogsaparan	-3173
▁impapirisu	-3174
▁koototawan	-3175
▁lobonganan	-3176
▁mamabogbog	-3177
▁niggutasan	-3178
▁ogkabantug	-3179
▁ogpakaboot	-3180
▁pogkarinog	-3181
▁poglibuwas	-3182
mugongmugong	-3183
▁nigpohitaga	-3184
▁ogkagawayan	-3185
▁ogkatalaran	-3186
▁ogpakapurut	-3187
▁ogpakasokod	-3188
▁ogpokounawa	-3189
▁ogbautismuan	-3190
▁ogtantanuran	-3191
▁niglimudlimud	-3192
▁ogkohimatayan	-3193
▁ogpakabalabag	-3194
ua	-3195
▁v	-3196
bon	-3197
dia	-3198
dig	-3199
gil	-3200
git	-3201
hug	-3202
hul	-3203
ika	-3204
kig	-3205
law	-3206
ras	-3207
sut	-3208
tig	-3209
toi	-3210
▁th	-3211
▁ut	-3212
abok	-3213
anuy	-3214
apig	-3215
dang	-3216
doog	-3217
gkad	-3218
ilob	-3219
iria	-3220
kung	-3221
lima	-3222
opos	-3223
oros	-3224
puas	-3225
tayi	-3226
tooy	-3227
tuon	-3228
ulii	-3229
uson	-3230
uyud	-3231
▁awa	-3232
▁gam	-3233
▁gas	-3234
▁igg	-3235
▁kot	-3236
▁kug	-3237
▁pol	-3238
▁tim	-3239
▁top	-3240
▁tro	-3241
alama	-3242
angal	-3243
ayati	-3244
boran	-3245
dawot	-3246
ilaan	-3247
iluan	-3248
iopia	-3249
iukan	-3250
kalow	-3251
kamot	-3252
koban	-3253
kogal	-3254
ranan	-3255
subid	-3256
sugba	-3257
ulioy	-3258
uruta	-3259
▁abil	-3260
▁alas	-3261
▁alim	-3262
▁gabi	-3263
▁igng	-3264
▁kain	-3265
▁kilu	-3266
▁logp	-3267
▁mogd	-3268
▁mogp	-3269
▁napu	-3270
▁nohi	-3271
▁pogt	-3272
▁puli	-3273
▁sali	-3274
▁sing	-3275
▁talu	-3276
▁unoy	-3277
▁unug	-3278
▁uras	-3279
abagan	-3280
alagon	-3281
ayluan	-3282
iporan	-3283
lasing	-3284
olinoy	-3285
oloron	-3286
▁akila	-3287
▁angga	-3288
▁bagun	-3289
▁balat	-3290
▁dutun	-3291
▁hunas	-3292
▁iling	-3293
▁kabil	-3294
▁karay	-3295
▁kibol	-3296
▁krita	-3297
▁malig	-3298
▁nango	-3299
▁natan	-3300
▁oglin	-3301
▁ogmag	-3302
▁ogpon	-3303
▁ogsug	-3304
▁ogtag	-3305
▁sayaa	-3306
▁sayop	-3307
alunika	-3308
ambogoy	-3309
igtawan	-3310
sagboka	-3311
▁andres	-3312
▁ataboy	-3313
▁atolug	-3314
▁bantug	-3315
▁bulung	-3316
▁dakopa	-3317
▁dalama	-3318
▁igbuyu	-3319
▁igpang	-3320
▁indani	-3321
▁lobong	-3322
▁naayun	-3323
▁naling	-3324
▁naponu	-3325
▁naroog	-3326
▁nigpar	-3327
▁noubus	-3328
▁ogmaal	-3329
▁pakpak	-3330
▁pogpar	-3331
▁puntuk	-3332
▁tumana	-3333
lingotan	-3334
▁bantayi	-3335
▁daragun	-3336
▁igsapad	-3337
▁igsokod	-3338
▁igtagad	-3339
▁igtahud	-3340
▁insabal	-3341
▁intabak	-3342
▁kalabow	-3343
▁kalogon	-3344
▁kuglung	-3345
▁mababow	-3346
▁oghibat	-3347
▁oghilam	-3348
▁oglapas	-3349
▁ogligad	-3350
▁ogliwan	-3351
▁ogluyud	-3352
▁ogmabul	-3353
▁ogpakag	-3354
▁ogsilag	-3355
▁pigduma	-3356
▁takawon	-3357
▁ananayan	-3358
▁daddakol	-3359
▁ginirigu	-3360
▁himatayi	-3361
▁igkatolu	-3362
▁impaalap	-3363
▁inggalat	-3364
▁kalayati	-3365
▁nakaamut	-3366
▁nigduung	-3367
▁nigkolog	-3368
▁nigtuuan	-3369
▁ogbayaan	-3370
▁oggongon	-3371
▁ogkabuhi	-3372
▁ogkolkol	-3373
▁oglangub	-3374
▁oglogsad	-3375
▁ogpamula	-3376
▁ogparoog	-3377
▁ogsampit	-3378
▁palingki	-3379
▁problima	-3380
▁talangas	-3381
lotiblotib	-3382
▁impahatod	-3383
▁impasabut	-3384
▁kalimmaan	-3385
▁kasagboka	-3386
▁limuranan	-3387
▁nighondii	-3388
▁nigpoomot	-3389
▁nigtinawo	-3390
▁ogdogilon	-3391
▁ogkagulak	-3392
▁ogkalagak	-3393
▁ogkapogul	-3394
▁oglimuron	-3395
▁ogmalotoy	-3396
▁ogpakabat	-3397
▁ogpalawod	-3398
▁ogsabukan	-3399
▁ogtagaran	-3400
▁ogtatagad	-3401
▁poglogpad	-3402
▁tantanuri	-3403
abautismuan	-3404
▁igduwaruwa	-3405
▁igkoinuinu	-3406
▁nighimatoy	-3407
▁nigsaligan	-3408
▁nigtugunan	-3409
▁ogkalasing	-3410
▁ogpakaraat	-3411
▁ogpokoiman	-3412
▁ogsonditan	-3413
▁pangabangi	-3414
▁tisalunika	-3415
▁nakasinogow	-3416
▁nigdoromdom	-3417
▁ogkatangkob	-3418
▁ogkohirapan	-3419
▁ogkoilingan	-3420
▁patalasulod	-3421
▁igpangulibot	-3422
▁nigpangabang	-3423
▁ogbalbalawan	-3424
▁ogbayadbayad	-3425
▁ogkabobootan	-3426
▁ogpamanghoon	-3427
▁ogpamminogan	-3428
▁nigsusumpalit	-3429
aq	-3430
ee	-3431
▁,	-3432
apu	-3433
aqu	-3434
don	-3435
dop	-3436
dos	-3437
guk	-3438
hoo	-3439
ial	-3440
ipi	-3441
kik	-3442
kom	-3443
lak	-3444
log	-3445
luk	-3446
lus	-3447
mul	-3448
oip	-3449
oit	-3450
pus	-3451
roy	-3452
tun	-3453
▁da	-3454
▁ga	-3455
▁jo	-3456
agak	-3457
ahag	-3458
akin	-3459
aluy	-3460
anga	-3461
arua	-3462
ding	-3463
igon	-3464
ilia	-3465
itoi	-3466
iton	-3467
kaan	-3468
klas	-3469
okon	-3470
omaw	-3471
pili	-3472
sing	-3473
ting	-3474
uddo	-3475
ulan	-3476
umoi	-3477
uniu	-3478
unow	-3479
uyuy	-3480
▁aga	-3481
▁ann	-3482
▁bot	-3483
▁dus	-3484
▁gus	-3485
▁has	-3486
▁haw	-3487
▁kob	-3488
▁kua	-3489
▁lip	-3490
▁lis	-3491
▁log	-3492
▁pug	-3493
▁sus	-3494
▁tak	-3495
▁the	-3496
agdok	-3497
aging	-3498
alkuy	-3499
aluub	-3500
ampak	-3501
angag	-3502
apitu	-3503
aquin	-3504
awalu	-3505
balow	-3506
bidiu	-3507
bolat	-3508
butud	-3509
goson	-3510
isimu	-3511
ituan	-3512
karon	-3513
liran	-3514
luyud	-3515
mitru	-3516
ologi	-3517
omoti	-3518
ongol	-3519
panoy	-3520
paron	-3521
sokod	-3522
undul	-3523
▁angk	-3524
▁anoy	-3525
▁awaa	-3526
▁bong	-3527
▁bunt	-3528
▁doro	-3529
▁ingk	-3530
▁inko	-3531
▁inum	-3532
▁ling	-3533
▁mand	-3534
▁niug	-3535
▁pula	-3536
▁sang	-3537
▁sara	-3538
▁tigg	-3539
▁tind	-3540
akoban	-3541
alagad	-3542
alinga	-3543
alipag	-3544
ambabo	-3545
balawi	-3546
golgol	-3547
inloin	-3548
inumon	-3549
irapan	-3550
lingoy	-3551
onghag	-3552
osonan	-3553
sagpit	-3554
ulugon	-3555
uyagon	-3556
▁agkud	-3557
▁aslag	-3558
▁bakal	-3559
▁balan	-3560
▁balit	-3561
▁digus	-3562
▁doyow	-3563
▁hopat	-3564
▁ispiu	-3565
▁kinab	-3566
▁lungg	-3567
▁matal	-3568
▁matiu	-3569
▁nanam	-3570
▁ogbag	-3571
▁oghil	-3572
▁oghug	-3573
▁ogmam	-3574
▁ogpog	-3575
▁ogsum	-3576
▁ogton	-3577
▁pakow	-3578
▁poghi	-3579
▁pogpa	-3580
▁pogul	-3581
▁sakit	-3582
▁sidon	-3583
▁sipri	-3584
▁siria	-3585
▁troas	-3586
▁tukod	-3587
▁ungud	-3588
▁walis	-3589
alsalia	-3590
alupung	-3591
ambayan	-3592
amminog	-3593
angalap	-3594
atongan	-3595
honduon	-3596
mustoon	-3597
turanan	-3598
unawoon	-3599
▁batang	-3600
▁dugion	-3601
▁igboot	-3602
▁ikuniu	-3603
▁kamalo	-3604
▁katkat	-3605
▁libong	-3606
▁mapawo	-3607
▁mapoit	-3608
▁naraat	-3609
▁natuli	-3610
▁nighoo	-3611
▁nigpab	-3612
▁nigtag	-3613
▁ogdoog	-3614
▁ogkool	-3615
▁ogmang	-3616
▁ogpand	-3617
▁ogtubu	-3618
▁ogwali	-3619
▁pogpas	-3620
▁puruta	-3621
▁tagdoy	-3622
alabawan	-3623
insoinso	-3624
udlingan	-3625
umalagon	-3626
▁igliwak	-3627
▁joaquin	-3628
▁kalugoy	-3629
▁kiliran	-3630
▁logpari	-3631
▁nalonod	-3632
▁napolod	-3633
▁nigbaba	-3634
▁nighiup	-3635
▁nigpang	-3636
▁niguyag	-3637
▁ogbohog	-3638
▁ogkalop	-3639
▁ogkamot	-3640
▁ogpaman	-3641
▁ogtagbu	-3642
▁pasaylu	-3643
▁pigalam	-3644
▁pogampu	-3645
▁sakayan	-3646
▁sapatus	-3647
▁sibidiu	-3648
aroromdom	-3649
▁igkoogot	-3650
▁igpakita	-3651
▁igpakoon	-3652
▁kalatkat	-3653
▁kapituan	-3654
▁makasalo	-3655
▁nabbutud	-3656
▁nakakagi	-3657
▁nakatood	-3658
▁namanoik	-3659
▁nasundug	-3660
▁nigbaban	-3661
▁nigbayad	-3662
▁nighalin	-3663
▁nigkamoy	-3664
▁nigpitow	-3665
▁nigtulin	-3666
▁nouripon	-3667
▁ogbawian	-3668
▁ogdalong	-3669
▁ogdogpak	-3670
▁ogdooton	-3671
▁oghimuan	-3672
▁ogkoibog	-3673
▁ogmomonu	-3674
▁ogpakang	-3675
▁ogsamsam	-3676
▁ogtamong	-3677
▁panganoy	-3678
▁patiukan	-3679
▁patuutuu	-3680
▁ugpaanan	-3681
sumansuman	-3682
▁igpanubad	-3683
▁kilumitru	-3684
▁kohopatan	-3685
▁naatangan	-3686
▁nandaralu	-3687
▁nigpakita	-3688
▁nigpohimu	-3689
▁noindanan	-3690
▁oghondian	-3691
▁ogkapogos	-3692
▁ogkaponga	-3693
▁ogkoulian	-3694
▁oglomotan	-3695
▁ogmasalig	-3696
▁ogpasabut	-3697
▁ogpatokod	-3698
▁ogpokohun	-3699
▁ogtimulan	-3700
▁ogtotomog	-3701
▁pignangon	-3702
▁sumsumana	-3703
▁unturanan	-3704
agpitsagpit	-3705
inglingotan	-3706
▁allowallow	-3707
▁igkararuwa	-3708
▁igpanagana	-3709
▁kausiloman	-3710
▁nanlibuwas	-3711
▁nigbalagad	-3712
▁nigmasakit	-3713
▁nigpasaylu	-3714
▁nigsulatan	-3715
▁nigtangkap	-3716
▁ogdoisokon	-3717
▁oggongonan	-3718
▁oghinallok	-3719
▁oghingaran	-3720
▁ogkabootan	-3721
▁ogkoibogan	-3722
▁ogmarooton	-3723
▁ogpakaruma	-3724
▁ogpanlibug	-3725
▁ogpatuutuu	-3726
▁ogsamilian	-3727
▁pigbogayan	-3728
▁talaghusoy	-3729
▁igpariralom	-3730
▁kamalogotan	-3731
▁kinalabawan	-3732
▁nigbatbatan	-3733
▁niglamposan	-3734
▁ogkaaguanta	-3735
▁ogkaatangan	-3736
▁ogkabatukan	-3737
▁ogkatokawan	-3738
▁ogpakaluhud	-3739
▁ogpakaponod	-3740
▁ogpakatimul	-3741
▁ogpamitawon	-3742
▁ogpasalamat	-3743
▁nigmarusilom	-3744
▁ogdurumaruma	-3745
▁ogkaparongan	-3746
▁ogpabautismu	-3747
▁ogpakaaguanta	-3748
▁ogpakasinogow	-3749
▁ogpokohipanow	-3750
▁igparakoldakol	-3751
▁ogmarakdakoloy	-3752
▁ogpakaroromdom	-3753
ga	-3754
le	-3755
rr	-3756
▁c	-3757
agh	-3758
agp	-3759
baa	-3760
bud	-3761
ery	-3762
gop	-3763
hus	-3764
iam	-3765
iud	-3766
kip	-3767
lad	-3768
lib	-3769
loy	-3770
ora	-3771
oru	-3772
psu	-3773
sak	-3774
sap	-3775
suw	-3776
tus	-3777
unu	-3778
wal	-3779
yab	-3780
abli	-3781
adba	-3782
agka	-3783
agul	-3784
alus	-3785
angi	-3786
ariu	-3787
arog	-3788
arol	-3789
asig	-3790
awit	-3791
ayas	-3792
bawi	-3793
diru	-3794
doot	-3795
ikan	-3796
inas	-3797
iran	-3798
kiku	-3799
kuan	-3800
mara	-3801
opad	-3802
plan	-3803
rago	-3804
sura	-3805
ukal	-3806
ukon	-3807
uron	-3808
▁big	-3809
▁dat	-3810
▁dok	-3811
▁his	-3812
▁ili	-3813
▁kop	-3814
▁lak	-3815
▁lim	-3816
▁lit	-3817
▁liu	-3818
▁lop	-3819
▁lot	-3820
▁moo	-3821
▁pis	-3822
▁saw	-3823
▁sog	-3824
▁tob	-3825
▁tur	-3826
▁tuu	-3827
▁utu	-3828
aaton	-3829
agdag	-3830
akagi	-3831
alapi	-3832
arang	-3833
gotob	-3834
hinug	-3835
hipan	-3836
imuan	-3837
itaga	-3838
itkit	-3839
labow	-3840
ligal	-3841
lukos	-3842
nanoy	-3843
nokal	-3844
ogkot	-3845
ogota	-3846
olong	-3847
umooy	-3848
▁atop	-3849
▁baoy	-3850
▁gumu	-3851
▁huun	-3852
▁ikam	-3853
▁ilaw	-3854
▁ipag	-3855
▁kasi	-3856
▁koil	-3857
▁kutu	-3858
▁mari	-3859
▁oras	-3860
▁paka	-3861
▁pala	-3862
▁pigg	-3863
▁sond	-3864
▁song	-3865
▁taan	-3866
▁taku	-3867
▁ugat	-3868
▁umba	-3869
abliab	-3870
akitki	-3871
akorog	-3872
alakan	-3873
alamag	-3874
aliton	-3875
arokan	-3876
atawan	-3877
bunuoy	-3878
dingan	-3879
diokan	-3880
intuad	-3881
layang	-3882
maroot	-3883
sondit	-3884
uranan	-3885
uwasan	-3886
▁alang	-3887
▁dibab	-3888
▁dinug	-3889
▁dungk	-3890
▁galat	-3891
▁imbus	-3892
▁kogos	-3893
▁lidia	-3894
▁logoy	-3895
▁malta	-3896
▁mapot	-3897
▁nalan	-3898
▁narag	-3899
▁noimu	-3900
▁nokal	-3901
▁ogbug	-3902
▁ogbul	-3903
▁oghip	-3904
▁oghoo	-3905
▁ogkam	-3906
▁oglag	-3907
▁ogngi	-3908
▁pokog	-3909
▁tagan	-3910
▁ulibu	-3911
agataga	-3912
aghotan	-3913
agkapan	-3914
alantan	-3915
alibood	-3916
amulaan	-3917
inpinnu	-3918
mologan	-3919
talabau	-3920
ulingol	-3921
▁anakon	-3922
▁asukal	-3923
▁awayan	-3924
▁baliog	-3925
▁bangan	-3926
▁bunbun	-3927
▁bunsud	-3928
▁doming	-3929
▁girigu	-3930
▁hiriku	-3931
▁hogota	-3932
▁iganad	-3933
▁igpako	-3934
▁igtagu	-3935
▁isabal	-3936
▁kapugi	-3937
▁kotson	-3938
▁kumang	-3939
▁lamita	-3940
▁lugung	-3941
▁lungag	-3942
▁manggi	-3943
▁mohimu	-3944
▁moitom	-3945
▁naalam	-3946
▁nabuhi	-3947
▁nalutu	-3948
▁napori	-3949
▁natibo	-3950
▁nigbal	-3951
▁nigpag	-3952
▁nigpun	-3953
▁noulug	-3954
▁noutol	-3955
▁oghunn	-3956
▁ogpaki	-3957
▁ogpoog	-3958
▁ogsusu	-3959
▁ogtago	-3960
▁olatan	-3961
▁pintik	-3962
▁sampow	-3963
▁sobsob	-3964
▁soinid	-3965
▁tikiku	-3966
▁wawalu	-3967
angkapan	-3968
aroyawan	-3969
bunsuran	-3970
hingaran	-3971
iglingoy	-3972
isinogow	-3973
panagana	-3974
uyuyunoy	-3975
▁alamara	-3976
▁aligbat	-3977
▁ariplan	-3978
▁bulutut	-3979
▁iggalat	-3980
▁igkohon	-3981
▁igkohop	-3982
▁iglukos	-3983
▁insapad	-3984
▁intubad	-3985
▁itiopia	-3986
▁kambing	-3987
▁kandiru	-3988
▁kapayas	-3989
▁mougsob	-3990
▁naangol	-3991
▁nanamut	-3992
▁nanhimu	-3993
▁nasubid	-3994
▁nasulat	-3995
▁oggulak	-3996
▁oghondu	-3997
▁oghusoy	-3998
▁ogkalig	-3999
▁oglayap	-4000
▁ogpanag	-4001
▁ogpogos	-4002
▁ogsakup	-4003
▁ogsapad	-4004
▁ogsolug	-4005
▁ogsubla	-4006
▁ogtabod	-4007
▁ogtokod	-4008
▁taliwar	-4009
▁talubag	-4010
▁tibogow	-4011
alamaraan	-4012
alanganan	-4013
atondanan	-4014
atuwarong	-4015
uguntugun	-4016
▁angkuwan	-4017
▁hirodias	-4018
▁iglobong	-4019
▁igpatuli	-4020
▁impakita	-4021
▁ipaparas	-4022
▁kalasara	-4023
▁karalomi	-4024
▁katumbal	-4025
▁langlang	-4026
▁mabogayi	-4027
▁makabasa	-4028
▁mangkuan	-4029
▁nakarani	-4030
▁natampod	-4031
▁natanial	-4032
▁nigagpas	-4033
▁nigdulug	-4034
▁niggalat	-4035
▁niggamit	-4036
▁nighibat	-4037
▁niglitos	-4038
▁nigpohoy	-4039
▁nigsagad	-4040
▁nigsokol	-4041
▁nikoykow	-4042
▁ogbolion	-4043
▁ogdaaton	-4044
▁oghagsil	-4045
▁oghirogo	-4046
▁ogkawoil	-4047
▁ogkounug	-4048
▁ogkuiton	-4049
▁oglayang	-4050
▁oglogpad	-4051
▁ogmarani	-4052
▁ogpoobos	-4053
▁paragasa	-4054
▁pasaylua	-4055
▁pogbulig	-4056
▁pogsimba	-4057
▁pogsolod	-4058
▁salapati	-4059
▁tagbanua	-4060
▁takubung	-4061
kanangonan	-4062
tongtongan	-4063
▁bangkalow	-4064
▁igkatabak	-4065
▁igpanabod	-4066
▁impaangoy	-4067
▁ingkabayo	-4068
▁kaawangan	-4069
▁lunggunan	-4070
▁nagawayan	-4071
▁nakalogob	-4072
▁napulusan	-4073
▁natimulan	-4074
▁nigmaroot	-4075
▁nigsagman	-4076
▁nokoholos	-4077
▁nounawaan	-4078
▁ogbatunon	-4079
▁oghalinon	-4080
▁oghikotan	-4081
▁oghutukon	-4082
▁ogkagaani	-4083
▁ogpamitow	-4084
▁ogpokouli	-4085
▁ogponoron	-4086
▁ogsilaban	-4087
▁pogpaagad	-4088
▁sampangan	-4089
▁sulatanan	-4090
▁nalingutan	-4091
▁naroromdom	-4092
▁niglansang	-4093
▁nigmaroyow	-4094
▁nigtotomog	-4095
▁ogbautismu	-4096
▁oggogolgol	-4097
▁ogkatogkad	-4098
▁ogkoirapan	-4099
▁ogliabliab	-4100
▁oglibongan	-4101
▁ogongkoran	-4102
▁ogpakabawi	-4103
▁ogpakaboli	-4104
▁ogpohondio	-4105
▁ogpokoutol	-4106
▁poghimatoy	-4107
▁pogpanubad	-4108
▁salupungan	-4109
▁sikantanow	-4110
▁impohondini	-4111
▁kinaroyawan	-4112
▁naminpinnuu	-4113
▁nigsumpalit	-4114
▁nokogdongan	-4115
▁ogkabayaran	-4116
▁ogkaliwanan	-4117
▁ogkoindanan	-4118
▁ogpakasipod	-4119
▁ogpasoloron	-4120
▁ogpasublaan	-4121
▁ogpatokoron	-4122
▁ogpounawaan	-4123
▁pignangonan	-4124
▁talagtambal	-4125
▁igpanungayow	-4126
▁igparoromdom	-4127
▁impasasindog	-4128
▁natimtimulan	-4129
▁nigbanggutan	-4130
▁oghalinhalin	-4131
▁ogkanangonan	-4132
▁ogpakapaagad	-4133
▁ogpamminogon	-4134
▁ogsumpaliton	-4135
▁talagmalogot	-4136
▁nanlimudlimud	-4137
▁nigmouyuyunoy	-4138
▁ogpakalibuwas	-4139
▁oglimanglimang	-4140
▁ogmabulbuligoy	-4141
▁ogmarayandayan	-4142
▁ogpabautismuan	-4143
▁ogpakarumaruma	-4144
▁ogpakasasindog	-4145
▁nignangnangonan	-4146
▁ogpakapamalogot	-4147
▁pognangonnangon	-4148
ai	-4149
ao	-4150
en	-4151
aad	-4152
bit	-4153
gak	-4154
iel	-4155
ind	-4156
kil	-4157
lob	-4158
loi	-4159
mow	-4160
obu	-4161
ota	-4162
oyr	-4163
pad	-4164
pir	-4165
pok	-4166
pri	-4167
pud	-4168
say	-4169
siu	-4170
soy	-4171
uga	-4172
ust	-4173
wag	-4174
wol	-4175
▁os	-4176
▁ud	-4177
agop	-4178
akan	-4179
alos	-4180
alud	-4181
arku	-4182
arow	-4183
ayud	-4184
igil	-4185
ikit	-4186
ilab	-4187
ilag	-4188
inad	-4189
isia	-4190
isus	-4191
liak	-4192
miru	-4193
mkom	-4194
olos	-4195
oman	-4196
opuk	-4197
suan	-4198
tulu	-4199
ugpu	-4200
ulas	-4201
ulat	-4202
ulun	-4203
upon	-4204
uwad	-4205
▁bis	-4206
▁dua	-4207
▁gad	-4208
▁gaw	-4209
▁gol	-4210
▁gug	-4211
▁hos	-4212
▁hoy	-4213
▁hug	-4214
▁hus	-4215
▁ima	-4216
▁kay	-4217
▁lat	-4218
▁law	-4219
▁los	-4220
▁mul	-4221
▁pit	-4222
▁pos	-4223
▁sar	-4224
▁sas	-4225
▁sik	-4226
▁som	-4227
▁suk	-4228
▁tuk	-4229
▁val	-4230
agari	-4231
agusu	-4232
akaru	-4233
akoru	-4234
alind	-4235
alooy	-4236
ampot	-4237
angga	-4238
arong	-4239
awion	-4240
batuk	-4241
bukhi	-4242
dagom	-4243
inayu	-4244
ingol	-4245
kpili	-4246
lalug	-4247
ligan	-4248
lisan	-4249
lisia	-4250
liwan	-4251
lokob	-4252
olaan	-4253
olgol	-4254
onsig	-4255
pouri	-4256
sipit	-4257
talad	-4258
toman	-4259
ugang	-4260
usung	-4261
▁apug	-4262
▁arka	-4263
▁asun	-4264
▁baga	-4265
▁basa	-4266
▁dopa	-4267
▁iman	-4268
▁kamp	-4269
▁kana	-4270
▁maan	-4271
▁mami	-4272
▁mato	-4273
▁mery	-4274
▁mogt	-4275
▁naru	-4276
▁niko	-4277
▁ogin	-4278
▁ogna	-4279
▁ogpu	-4280
▁ogwo	-4281
▁omaw	-4282
▁pamp	-4283
▁pann	-4284
▁pigk	-4285
▁pris	-4286
▁pung	-4287
▁sabo	-4288
▁salm	-4289
▁tila	-4290
▁timu	-4291
abogoy	-4292
agawan	-4293
akolow	-4294
alinan	-4295
aliwar	-4296
aloson	-4297
amuton	-4298
anggat	-4299
aruwoy	-4300
awaran	-4301
ayagan	-4302
ayaman	-4303
bantug	-4304
handro	-4305
iloban	-4306
limang	-4307
mansad	-4308
mitriu	-4309
nsuran	-4310
obolan	-4311
ongoni	-4312
ongora	-4313
opusan	-4314
puasan	-4315
sugbuk	-4316
uruton	-4317
uunawa	-4318
▁agabu	-4319
▁aguan	-4320
▁amuti	-4321
▁annas	-4322
▁arist	-4323
▁banoy	-4324
▁biria	-4325
▁bolok	-4326
▁bukag	-4327
▁bukus	-4328
▁burun	-4329
▁diana	-4330
▁dirbi	-4331
▁dohun	-4332
▁doson	-4333
▁dulug	-4334
▁galiu	-4335
▁gapas	-4336
▁gastu	-4337
▁gutas	-4338
▁hanow	-4339
▁hasun	-4340
▁igkam	-4341
▁igpam	-4342
▁impar	-4343
▁kagii	-4344
▁kalay	-4345
▁kalus	-4346
▁kogal	-4347
▁komos	-4348
▁luang	-4349
▁maama	-4350
▁makat	-4351
▁migil	-4352
▁molmo	-4353
▁namol	-4354
▁nanah	-4355
▁nigbu	-4356
▁nigos	-4357
▁nipis	-4358
▁ogbab	-4359
▁ogkak	-4360
▁ogsap	-4361
▁ogson	-4362
▁paman	-4363
▁papil	-4364
▁pigtu	-4365
▁pogli	-4366
▁pogtu	-4367
▁pusod	-4368
▁sabow	-4369
▁sakiu	-4370
▁salig	-4371
▁salim	-4372
▁tibug	-4373
▁tuman	-4374
▁tunud	-4375
abandal	-4376
angayon	-4377
baligya	-4378
banggut	-4379
buyagan	-4380
hilabot	-4381
hondion	-4382
hongkai	-4383
longhag	-4384
mustaan	-4385
ununawa	-4386
▁asupri	-4387
▁atoboy	-4388
▁bakbak	-4389
▁balaam	-4390
▁bintan	-4391
▁bonnal	-4392
▁bukbuk	-4393
▁dogpak	-4394
▁galang	-4395
▁galung	-4396
▁gimbal	-4397
▁igkagi	-4398
▁iholos	-4399
▁ingkap	-4400
▁ingkas	-4401
▁intagu	-4402
▁italia	-4403
▁logdog	-4404
▁maluag	-4405
▁mating	-4406
▁moirap	-4407
▁moomut	-4408
▁naanad	-4409
▁naaras	-4410
▁naboli	-4411
▁nakapa	-4412
▁nasamo	-4413
▁nigban	-4414
▁nigbay	-4415
▁nigbus	-4416
▁nigkuo	-4417
▁niglon	-4418
▁niguli	-4419
▁nokogt	-4420
▁numiru	-4421
▁ogbobo	-4422
▁ogbunu	-4423
▁ogdung	-4424
▁oghing	-4425
▁ogkaba	-4426
▁ogkatu	-4427
▁ogloko	-4428
▁ogmand	-4429
▁ogpali	-4430
▁ogpanl	-4431
▁ogsuli	-4432
▁ogugpo	-4433
▁ongkod	-4434
▁pisang	-4435
▁punuan	-4436
▁sangoy	-4437
▁sirini	-4438
▁soping	-4439
▁tahura	-4440
▁talags	-4441
▁udling	-4442
▁unawaa	-4443
abukanan	-4444
aligsomi	-4445
alimotow	-4446
alunggun	-4447
bukhibuk	-4448
bunganan	-4449
hitagoon	-4450
pitsipit	-4451
▁bakosan	-4452
▁balarow	-4453
▁balatik	-4454
▁bantang	-4455
▁bongkag	-4456
▁husayan	-4457
▁igbohog	-4458
▁igkarua	-4459
▁igpatuu	-4460
▁igsalig	-4461
▁igtomog	-4462
▁igtuman	-4463
▁igtupak	-4464
▁imbohog	-4465
▁inlokob	-4466
▁kalinow	-4467
▁katouan	-4468
▁logoron	-4469
▁lukosan	-4470
▁lunsura	-4471
▁magakin	-4472
▁makitoi	-4473
▁malinow	-4474
▁mammara	-4475
▁mangilu	-4476
▁nabatun	-4477
▁narogil	-4478
▁nigtong	-4479
▁nokouli	-4480
▁ogbabal	-4481
▁ogholos	-4482
▁oghulid	-4483
▁ogkalan	-4484
▁ogkasiu	-4485
▁ogkatul	-4486
▁oglabow	-4487
▁ogmabun	-4488
▁ogngisi	-4489
▁ogpaban	-4490
▁ogpakan	-4491
▁ogpapan	-4492
▁ogpilak	-4493
▁ogpohun	-4494
▁ogsasow	-4495
▁ogsugut	-4496
▁ogtangk	-4497
▁ogtiang	-4498
▁opparon	-4499
▁pilipus	-4500
▁pogulon	-4501
▁poomoti	-4502
▁prisila	-4503
▁silisia	-4504
▁sonditi	-4505
▁tibulus	-4506
▁tipouri	-4507
▁tirtulu	-4508
▁udlingi	-4509
▁unisimu	-4510
okalnokal	-4511
▁dimitriu	-4512
▁dominggu	-4513
▁gulabung	-4514
▁iglabung	-4515
▁igngaran	-4516
▁igtambag	-4517
▁inlobong	-4518
▁karayawi	-4519
▁katatolu	-4520
▁kohirapi	-4521
▁koilawan	-4522
▁kootawan	-4523
▁lumansad	-4524
▁magalang	-4525
▁mogdolog	-4526
▁nakakoon	-4527
▁nakaroog	-4528
▁namangho	-4529
▁namminog	-4530
▁nanundul	-4531
▁nataguan	-4532
▁nigdolog	-4533
▁niglabow	-4534
▁nigligal	-4535
▁nigsakup	-4536
▁nigsalig	-4537
▁nigtagad	-4538
▁nigtakow	-4539
▁nohimuan	-4540
▁ogbootan	-4541
▁ogbuyuan	-4542
▁ogdoogon	-4543
▁ogkaalam	-4544
▁ogkapupu	-4545
▁ogkasool	-4546
▁ogkoison	-4547
▁oglasing	-4548
▁oglokaan	-4549
▁ogmagaan	-4550
▁ogngilam	-4551
▁ogpakali	-4552
▁ogpakalo	-4553
▁ogpakato	-4554
▁ogsagpit	-4555
▁ogsondit	-4556
▁pampilia	-4557
▁pigpurut	-4558
▁pigtokod	-4559
▁pigtuman	-4560
▁pogligad	-4561
▁pohondio	-4562
▁talagpan	-4563
▁tiggaani	-4564
alindungan	-4565
alinggalat	-4566
amilikpili	-4567
▁alihandro	-4568
▁aristarku	-4569
▁balabagan	-4570
▁igkaratui	-4571
▁igkasulat	-4572
▁igkatubad	-4573
▁igpahatod	-4574
▁igpoitaga	-4575
▁imbalukas	-4576
▁immalogot	-4577
▁immaroyow	-4578
▁impasolod	-4579
▁impatokod	-4580
▁ingkarago	-4581
▁nabuligan	-4582
▁nakaliwan	-4583
▁nakasuwoy	-4584
▁nasabutan	-4585
▁niglogsad	-4586
▁nigpakoon	-4587
▁nigparani	-4588
▁ogdalapak	-4589
▁oggaanion	-4590
▁oghisakit	-4591
▁oghunnoon	-4592
▁ogkaallok	-4593
▁ogkabuyag	-4594
▁ogkagamit	-4595
▁ogkakohoy	-4596
▁ogkapanoy	-4597
▁ogkapilak	-4598
▁ogkohonat	-4599
▁ogligalon	-4600
▁ogliwanan	-4601
▁ogmalayat	-4602
▁ogmanhimu	-4603
▁ogpakitki	-4604
▁ogpanhimu	-4605
▁ogpasuwoy	-4606
▁ogpogoson	-4607
▁ogsasawon	-4608
▁ogtabakon	-4609
▁ogtalaran	-4610
▁ogtalipag	-4611
▁ogtambabo	-4612
▁pogbunsud	-4613
▁poggongon	-4614
▁poghondio	-4615
▁pogligkat	-4616
▁pogpoomot	-4617
▁sabukanan	-4618
▁ipalansang	-4619
▁labowlabow	-4620
▁mohimulung	-4621
▁nanahallok	-4622
▁nigpasulat	-4623
▁nokohirogo	-4624
▁nokohondio	-4625
▁oghinarang	-4626
▁oginsoinso	-4627
▁ogkannugun	-4628
▁ogkatampod	-4629
▁ogkoogotan	-4630
▁ogmatikang	-4631
▁ogpakabayo	-4632
▁ogpakoonon	-4633
▁ogpohitaga	-4634
▁ogsulungan	-4635
▁ogsumsuman	-4636
▁ogtorongan	-4637
▁pamulaanan	-4638
▁pamulingan	-4639
▁pighinggat	-4640
▁pigsabalan	-4641
▁poglonghag	-4642
▁igkaligsomi	-4643
▁igkoiniatan	-4644
▁igpamalogot	-4645
▁impalibuwas	-4646
▁impamalogot	-4647
▁molungangon	-4648
▁nakalibuwas	-4649
▁nangnangoni	-4650
▁nigbunsuran	-4651
▁nigligkatan	-4652
▁nigososonan	-4653
▁nigpamulaan	-4654
▁ogkasabukan	-4655
▁ogkatabolog	-4656
▁ogkatibulus	-4657
▁ogpakatabak	-4658
▁ogpasayluan	-4659
▁ogpokoholos	-4660
▁palinggalat	-4661
▁pogkapirisu	-4662
▁kabubunganan	-4663
▁oghinallokon	-4664
▁ogkabigtawan	-4665
▁ogkaloinloin	-4666
▁ogpakalibong	-4667
▁ogpanhimatoy	-4668
▁ogparoromdom	-4669
▁pogkasagboka	-4670
▁salipitsipit	-4671
▁nigbayadbayad	-4672
▁nigluyudluyud	-4673
▁ogmabunbunuoy	-4674
▁pighingaranan	-4675
▁nanagpitsagpit	-4676
▁nigpohimatayan	-4677
▁oglasinglasing	-4678
▁ogmugongmugong	-4679
▁ogpakadoromdom	-4680
▁ogpakangangang	-4681
▁nokogsuwoysuwoy	-4682
--	-4683
hu	-4684
ni	-4685
oi	-4686
pt	-4687
...	-4688
akd	-4689
ams	-4690
cia	-4691
eep	-4692
gio	-4693
ham	-4694
igt	-4695
iuk	-4696
kay	-4697
kug	-4698
lat	-4699
lod	-4700
luy	-4701
omi	-4702
omu	-4703
oni	-4704
opo	-4705
oug	-4706
pid	-4707
pin	-4708
sod	-4709
sus	-4710
ugu	-4711
uim	-4712
umd	-4713
vao	-4714
wil	-4715
yuk	-4716
▁--	-4717
▁mu	-4718
abil	-4719
abon	-4720
adng	-4721
agod	-4722
agon	-4723
akag	-4724
akap	-4725
akas	-4726
akus	-4727
anam	-4728
anap	-4729
arut	-4730
asag	-4731
ayam	-4732
ayoy	-4733
batu	-4734
buhi	-4735
dimu	-4736
dung	-4737
gana	-4738
gotn	-4739
goto	-4740
huli	-4741
ibig	-4742
ilin	-4743
iliu	-4744
ilon	-4745
ilos	-4746
iluk	-4747
inal	-4748
ingk	-4749
inop	-4750
irog	-4751
iron	-4752
itis	-4753
kara	-4754
laud	-4755
lena	-4756
ligi	-4757
lion	-4758
mitu	-4759
oguk	-4760
olis	-4761
olot	-4762
omon	-4763
orop	-4764
otam	-4765
oyad	-4766
puti	-4767
rung	-4768
sial	-4769
soip	-4770
tago	-4771
tomu	-4772
ugpa	-4773
ulag	-4774
ungi	-4775
uras	-4776
urus	-4777
▁ant	-4778
▁ayu	-4779
▁dar	-4780
▁day	-4781
▁git	-4782
▁hal	-4783
▁him	-4784
▁how	-4785
▁isd	-4786
▁ism	-4787
▁itu	-4788
▁kut	-4789
▁luk	-4790
▁min	-4791
▁mit	-4792
▁mug	-4793
▁say	-4794
▁sud	-4795
▁sup	-4796
▁tip	-4797
▁tit	-4798
▁tow	-4799
▁tum	-4800
▁upa	-4801
aanak	-4802
abaan	-4803
adpad	-4804
agkop	-4805
agkot	-4806
alsal	-4807
ambab	-4808
andig	-4809
antak	-4810
aputi	-4811
asawo	-4812
asiam	-4813
atalo	-4814
awaan	-4815
dinug	-4816
dogon	-4817
encia	-4818
goton	-4819
hamin	-4820
hikot	-4821
holon	-4822
hugas	-4823
igtow	-4824
iguli	-4825
ilitu	-4826
kanta	-4827
kigot	-4828
kouma	-4829
lagak	-4830
litos	-4831
lobog	-4832
logoy	-4833
lonod	-4834
matia	-4835
mitow	-4836
obang	-4837
olmol	-4838
ootan	-4839
otian	-4840
pikit	-4841
poros	-4842
pulus	-4843
ronsi	-4844
saran	-4845
soban	-4846
tonga	-4847
ugsul	-4848
uimon	-4849
umaag	-4850
ungon	-4851
▁agot	-4852
▁alag	-4853
▁alpa	-4854
▁arab	-4855
▁asat	-4856
▁bagu	-4857
▁bing	-4858
▁buli	-4859
▁damp	-4860
▁dugu	-4861
▁igbo	-4862
▁ilag	-4863
▁ilud	-4864
▁ipar	-4865
▁irob	-4866
▁jeep	-4867
▁kaid	-4868
▁lago	-4869
▁lamb	-4870
▁lamp	-4871
▁laod	-4872
▁lawo	-4873
▁liun	-4874
▁lung	-4875
▁mira	-4876
▁moin	-4877
▁nana	-4878
▁nini	-4879
▁nool	-4880
▁olad	-4881
▁opus	-4882
▁paag	-4883
▁pako	-4884
▁panu	-4885
▁pogm	-4886
▁pogo	-4887
▁samo	-4888
▁samu	-4889
▁sion	-4890
▁sulu	-4891
▁susu	-4892
▁tabu	-4893
▁tagp	-4894
▁tamp	-4895
▁tang	-4896
▁timb	-4897
▁turu	-4898
▁uyun	-4899
abulig	-4900
adbaad	-4901
adngad	-4902
agapoy	-4903
agilis	-4904
alaron	-4905
alasia	-4906
alatan	-4907
alibad	-4908
aligal	-4909
alikan	-4910
alintu	-4911
alisan	-4912
alitan	-4913
alomud	-4914
anaran	-4915
anggal	-4916
anuyon	-4917
apunan	-4918
asnaas	-4919
baghot	-4920
bangan	-4921
dboran	-4922
honing	-4923
inadab	-4924
ipanow	-4925
isidia	-4926
kagioy	-4927
kolong	-4928
lintok	-4929
logsad	-4930
mituon	-4931
ogoton	-4932
olugan	-4933
onggoy	-4934
osonoy	-4935
tagoon	-4936
tolomi	-4937
ulaloy	-4938
umawon	-4939
uranda	-4940
▁aaron	-4941
▁along	-4942
▁alpiu	-4943
▁anara	-4944
▁aporu	-4945
▁awosa	-4946
▁bakul	-4947
▁balow	-4948
▁bohog	-4949
▁bohow	-4950
▁boyow	-4951
▁bubun	-4952
▁butud	-4953
▁dalom	-4954
▁davao	-4955
▁dokot	-4956
▁dumaa	-4957
▁elena	-4958
▁gamut	-4959
▁ganat	-4960
▁goram	-4961
▁halin	-4962
▁hapun	-4963
▁holon	-4964
▁honom	-4965
▁hutuk	-4966
▁igbab	-4967
▁igliu	-4968
▁igman	-4969
▁igpal	-4970
▁indos	-4971
▁kabuy	-4972
▁kalan	-4973
▁kalis	-4974
▁kamil	-4975
▁kamol	-4976
▁kamoy	-4977
▁kilat	-4978
▁klaud	-4979
▁kolop	-4980
▁kulut	-4981
▁lawod	-4982
▁ligid	-4983
▁linow	-4984
▁logon	-4985
▁lukas	-4986
▁mohoy	-4987
▁mongo	-4988
▁nabat	-4989
▁nalin	-4990
▁napon	-4991
▁natou	-4992
▁nigta	-4993
▁noima	-4994
▁nouli	-4995
▁ogdan	-4996
▁ogdor	-4997
▁ogdug	-4998
▁oglop	-4999
▁ogpun	-5000
▁ogtim	-5001
▁pangi	-5002
▁pasub	-5003
▁patil	-5004
▁paulo	-5005
▁pigpo	-5006
▁pigpu	-5007
▁pirga	-5008
▁piris	-5009
▁poros	-5010
▁pulis	-5011
▁purut	-5012
▁pusil	-5013
▁sabun	-5014
▁salat	-5015
▁sinai	-5016
▁sirob	-5017
▁sokod	-5018
▁sukut	-5019
▁tahud	-5020
▁talad	-5021
▁tapid	-5022
▁tapus	-5023
▁tarsu	-5024
▁tibir	-5025
▁timpu	-5026
▁timun	-5027
▁tinur	-5028
▁tonga	-5029
▁tonob	-5030
▁topto	-5031
▁tubod	-5032
▁unugi	-5033
▁uwang	-5034
abalang	-5035
alingan	-5036
aloytoy	-5037
amsaman	-5038
amulung	-5039
anangon	-5040
balikid	-5041
bukusan	-5042
goinawa	-5043
gotngot	-5044
gotoban	-5045
huliroy	-5046
ibinayu	-5047
inlabot	-5048
inpulus	-5049
mustooy	-5050
olongan	-5051
owbalow	-5052
suwayon	-5053
tugunan	-5054
▁angkon	-5055
▁atinas	-5056
▁bagnus	-5057
▁baratu	-5058
▁batuon	-5059
▁bislig	-5060
▁bituka	-5061
▁bulang	-5062
▁buntit	-5063
▁doldog	-5064
▁dulung	-5065
▁gibang	-5066
▁gumura	-5067
▁harayu	-5068
▁hisron	-5069
▁honata	-5070
▁igboli	-5071
▁igpaap	-5072
▁igsuli	-5073
▁inkagi	-5074
▁isawod	-5075
▁kanaan	-5076
▁karago	-5077
▁likung	-5078
▁logdak	-5079
▁losung	-5080
▁matmat	-5081
▁militu	-5082
▁moilow	-5083
▁moumoi	-5084
▁nakita	-5085
▁nallan	-5086
▁naruad	-5087
▁nasuli	-5088
▁ngilam	-5089
▁nigawo	-5090
▁nigbul	-5091
▁niglin	-5092
▁nigmam	-5093
▁nigpal	-5094
▁nigsas	-5095
▁nigsug	-5096
▁ogampu	-5097
▁ogamut	-5098
▁ogbang	-5099
▁ogbotu	-5100
▁ogbubu	-5101
▁ogbung	-5102
▁oggusi	-5103
▁ogkaka	-5104
▁ogkalu	-5105
▁ogkara	-5106
▁ogkoim	-5107
▁ogpabo	-5108
▁ogpati	-5109
▁ogpoul	-5110
▁ogsamp	-5111
▁ogsilo	-5112
▁ogsopo	-5113
▁oripon	-5114
▁otapon	-5115
▁otowoy	-5116
▁palang	-5117
▁pamili	-5118
▁pigpas	-5119
▁pogbus	-5120
▁poguli	-5121
▁sakaru	-5122
▁sampul	-5123
▁sandal	-5124
▁sasiam	-5125
▁siloti	-5126
▁simbaa	-5127
▁sirgio	-5128
▁subung	-5129
▁sugkal	-5130
▁sugkud	-5131
▁tabang	-5132
▁tampod	-5133
▁tiklas	-5134
▁tinuru	-5135
agbokoon	-5136
akdakoli	-5137
alibuson	-5138
alukuyon	-5139
amanoloy	-5140
angkoban	-5141
apapuloy	-5142
goblogob	-5143
ligkatan	-5144
sasindog	-5145
umdumooy	-5146
▁abalang	-5147
▁anugang	-5148
▁bagoloy	-5149
▁binulan	-5150
▁boronsi	-5151
▁bugsong	-5152
▁dorooti	-5153
▁dusilom	-5154
▁galasia	-5155
▁hagtong	-5156
▁igbalos	-5157
▁igdasag	-5158
▁ighusoy	-5159
▁igpayag	-5160
▁ilagkos	-5161
▁ingkabo	-5162
▁inliwan	-5163
▁intagad	-5164
▁intugun	-5165
▁karagoi	-5166
▁libuwas	-5167
▁lupogas	-5168
▁magalat	-5169
▁maistra	-5170
▁maporos	-5171
▁masipod	-5172
▁matapid	-5173
▁moomonu	-5174
▁mootawi	-5175
▁nagaani	-5176
▁nagalat	-5177
▁nahalin	-5178
▁nakabay	-5179
▁namitow	-5180
▁nanalap	-5181
▁napurut	-5182
▁natagbu	-5183
▁nataman	-5184
▁natibug	-5185
▁niganad	-5186
▁nigdawi	-5187
▁nigdoot	-5188
▁nigpoin	-5189
▁nigtaka	-5190
▁nigtuga	-5191
▁nigtuud	-5192
▁nigumow	-5193
▁ogdogos	-5194
▁oghokad	-5195
▁ogkabol	-5196
▁ogkabui	-5197
▁ogkanta	-5198
▁ogkasal	-5199
▁ogkatib	-5200
▁ogkitaa	-5201
▁ogkutol	-5202
▁ogmagas	-5203
▁ogmatul	-5204
▁ogpammu	-5205
▁ogsagad	-5206
▁ogsamuk	-5207
▁ogtibug	-5208
▁ogtukow	-5209
▁pamangh	-5210
▁pilimun	-5211
▁pisidia	-5212
▁poganad	-5213
▁pogkagi	-5214
▁sikaran	-5215
▁tabunan	-5216
▁tampori	-5217
▁tapilak	-5218
▁ungoron	-5219
ataliwaro	-5220
otiblotib	-5221
▁aminadab	-5222
▁amonggoy	-5223
▁arimatia	-5224
▁ariplanu	-5225
▁bagunbun	-5226
▁bagwanan	-5227
▁binhamin	-5228
▁bobootan	-5229
▁datongan	-5230
▁galingan	-5231
▁hulingon	-5232
▁igkaanad	-5233
▁igkohimu	-5234
▁igkohoyu	-5235
▁igparuma	-5236
▁igpoinum	-5237
▁imbatbat	-5238
▁impakagi	-5239
▁kantanow	-5240
▁kapilaan	-5241
▁kasiaman	-5242
▁katoluan	-5243
▁koibogan	-5244
▁koopusan	-5245
▁laodisia	-5246
▁maguimon	-5247
▁makabayo	-5248
▁mamaputi	-5249
▁masagkop	-5250
▁nabantug	-5251
▁nabongol	-5252
▁nakaboli	-5253
▁nakaruma	-5254
▁nalasing	-5255
▁napogkot	-5256
▁napongan	-5257
▁natutung	-5258
▁nigbohog	-5259
▁nighatod	-5260
▁nighokad	-5261
▁niglanog	-5262
▁niglimud	-5263
▁nigluung	-5264
▁nigpapan	-5265
▁nigsawod	-5266
▁nigsayow	-5267
▁nigsimba	-5268
▁nigsubla	-5269
▁nigsuwoy	-5270
▁nigtagpi	-5271
▁nigtahud	-5272
▁nikodimu	-5273
▁nohoyuan	-5274
▁oghiupon	-5275
▁ogkitkit	-5276
▁oglogdog	-5277
▁ogluboon	-5278
▁ogmaroot	-5279
▁ogmoinit	-5280
▁ogpagkol	-5281
▁ogpakagi	-5282
▁ogpakoon	-5283
▁ogpamunu	-5284
▁ogpamuyu	-5285
▁ogsilaan	-5286
▁ogsilsil	-5287
▁ogtutung	-5288
▁ogwangal	-5289
▁pigdakop	-5290
▁pighutuk	-5291
▁poglimud	-5292
▁poglopow	-5293
▁pogpurut	-5294
▁pogsawod	-5295
▁pogtokod	-5296
▁pogtubad	-5297
▁sabandal	-5298
▁salatiel	-5299
▁tagooran	-5300
▁talaglop	-5301
▁tigbogas	-5302
▁valencia	-5303
akagkagioy	-5304
hulughulug	-5305
logoblogob	-5306
▁alimpulus	-5307
▁babalakan	-5308
▁babilonia	-5309
▁bakalawan	-5310
▁balbalawi	-5311
▁bartolomi	-5312
▁husayanan	-5313
▁igkabayad	-5314
▁igkabulig	-5315
▁igkaroyow	-5316
▁igpaangoy	-5317
▁imbaligya	-5318
▁impalimud	-5319
▁inhongkai	-5320
▁intaruwoy	-5321
▁ipohitaga	-5322
▁landingan	-5323
▁madmaroot	-5324
▁makarinog	-5325
▁nakapurut	-5326
▁nakasolod	-5327
▁nakasulat	-5328
▁nakatagbu	-5329
▁nalotoman	-5330
▁napalisan	-5331
▁napasaylu	-5332
▁napulasan	-5333
▁nasoloran	-5334
▁nigampuan	-5335
▁niggongon	-5336
▁nighantak	-5337
▁nighimata	-5338
▁nigkakagi	-5339
▁nigkolkol	-5340
▁niglogdog	-5341
▁nigpamula	-5342
▁nigpoinum	-5343
▁nigsagdok	-5344
▁nigtangko	-5345
▁nigugpaan	-5346
▁nohikotan	-5347
▁nohirapan	-5348
▁ogbaligya	-5349
▁oggopasan	-5350
▁oggulakon	-5351
▁oghogoton	-5352
▁oghokaron	-5353
▁oghonduon	-5354
▁ogkaangol	-5355
▁ogkagangu	-5356
▁ogkakamot	-5357
▁ogkarakop	-5358
▁ogkatahud	-5359
▁ogkatibug	-5360
▁ogkatokow	-5361
▁ogkikigot	-5362
▁ogmalogot	-5363
▁ogmaporos	-5364
▁ogpalopow	-5365
▁ogpohusoy	-5366
▁ogpuruton	-5367
▁ogsakupon	-5368
▁ogtubaran	-5369
▁pogkakita	-5370
▁poglabung	-5371
▁poglogsad	-5372
▁salagapun	-5373
▁sirobabil	-5374
aliboodbood	-5375
▁baloybaloy	-5376
▁buyagbuyag	-5377
▁ighingaran	-5378
▁igkapapitu	-5379
▁impambogoy	-5380
▁impohondio	-5381
▁inghongkai	-5382
▁ingkabulig	-5383
▁logoylogoy	-5384
▁magakinomu	-5385
▁mamalintok	-5386
▁mamimituon	-5387
▁manggianak	-5388
▁nabobootan	-5389
▁nakagongon	-5390
▁nakaratong	-5391
▁nangulibot	-5392
▁nasalupung	-5393
▁nigbalikid	-5394
▁nigbarasan	-5395
▁nigbukusan	-5396
▁nigindanan	-5397
▁niglangkad	-5398
▁niglangkob	-5399
▁niglonghag	-5400
▁nigmaagbot	-5401
▁nigmaawang	-5402
▁nigpapitow	-5403
▁nigsagboka	-5404
▁nigtonggak	-5405
▁nigtulalug	-5406
▁noongkoran	-5407
▁ogbantayan	-5408
▁ogbayungan	-5409
▁ogdogpakon	-5410
▁ogduwaruwa	-5411
▁oghitagoon	-5412
▁ogininsaan	-5413
▁ogkaayunan	-5414
▁ogkapadpad	-5415
▁ogkapirisu	-5416
▁ogkaragdag	-5417
▁ogkasagman	-5418
▁ogkasundug	-5419
▁ogkatutung	-5420
▁oglindogon	-5421
▁ogmalintok	-5422
▁ogpakapang	-5423
▁ogpakasoip	-5424
▁ogpakitoon	-5425
▁ogpallaguy	-5426
▁ogpanangon	-5427
▁ogpangumow	-5428
▁ogparumoon	-5429
▁ogpokouyag	-5430
▁ogsalsalia	-5431
▁palanggana	-5432
▁pangamuton	-5433
▁pigsaparan	-5434
▁pogdagsang	-5435
▁pogkoiniat	-5436
▁pogtalabau	-5437
▁sumsumanan	-5438
marayandayan	-5439
▁igpalansang	-5440
▁igpohondini	-5441
▁impalansang	-5442
▁impatalipun	-5443
▁nigbayungan	-5444
▁nigpanguddo	-5445
▁nigpinpinnu	-5446
▁nigpohondio	-5447
▁ogbanggutan	-5448
▁oghilamonon	-5449
▁oghisakitan	-5450
▁oghonduonon	-5451
▁ogkabalagad	-5452
▁ogkatamanan	-5453
▁ogkatouanan	-5454
▁ogpabarasan	-5455
▁ogpakaalooy	-5456
▁ogpakaligal	-5457
▁ogpakasabuk	-5458
▁ogpakasalig	-5459
▁ogpakasugat	-5460
▁ogpakatagbu	-5461
▁ogpakatokod	-5462
▁ogpamalogot	-5463
▁ogpasuwayon	-5464
▁ogpatokawan	-5465
▁ogpohondini	-5466
▁ogpounturan	-5467
▁ogsagbokoon	-5468
▁ogsisinogow	-5469
▁pigligkatan	-5470
▁pinohipanow	-5471
▁talagsalsal	-5472
▁igbayadbayad	-5473
▁kabuybuyagan	-5474
▁magintalunon	-5475
▁nakapanagana	-5476
▁nalimudlimud	-5477
▁nasalanganan	-5478
▁nigbalintuad	-5479
▁nighihipanow	-5480
▁nigpanagilis	-5481
▁ogkabantugan	-5482
▁ogmataloytoy	-5483
▁ogpabantayan	-5484
▁ogpakalongod	-5485
▁ogpangulibot	-5486
▁ogpohitagoon	-5487
▁ogpohondioon	-5488
▁ogpokohondio	-5489
▁pogpasalamat	-5490
▁igpananglitan	-5491
▁nanlotiblotib	-5492
▁napangabangan	-5493
▁nigpaagadagad	-5494
▁nigpaapapuloy	-5495
▁nigpanumbaloy	-5496
▁ogkohirosonan	-5497
▁ogpakahagtong	-5498
▁ogpakitkitooy	-5499
▁ogpalinggalat	-5500
▁pogpangulibot	-5501
▁nigpabanggutan	-5502
▁ogkalimudlimud	-5503
▁ogkatimtimulan	-5504
▁ogmaninsinogow	-5505
▁ognangnangonan	-5506
▁ogpakapanagana	-5507
▁ogpangumustoon	-5508
▁ogpanhimatayan	-5509
▁ogparakdakoloy	-5510
▁niglinglingotan	-5511
▁nigmugongmugong	-5512
▁nigpanuguntugun	-5513
▁nigsundulsundul	-5514
▁ogpakapasalamat	-5515
▁pogparakdakoloy	-5516
em	-5517
se	-5518
uv	-5519
abs	-5520
bis	-5521
dap	-5522
dhi	-5523
dis	-5524
dow	-5525
dul	-5526
dus	-5527
dut	-5528
ego	-5529
emy	-5530
gaw	-5531
gid	-5532
gog	-5533
gud	-5534
hin	-5535
hom	-5536
igs	-5537
ius	-5538
kak	-5539
kin	-5540
kuk	-5541
kur	-5542
liu	-5543
mos	-5544
ogn	-5545
olo	-5546
oro	-5547
otu	-5548
ows	-5549
oyo	-5550
pul	-5551
rat	-5552
rio	-5553
sal	-5554
sog	-5555
tur	-5556
uku	-5557
uld	-5558
uns	-5559
usu	-5560
won	-5561
yup	-5562
▁ah	-5563
▁hu	-5564
▁ra	-5565
▁ri	-5566
▁uy	-5567
abao	-5568
abun	-5569
adis	-5570
agam	-5571
ahud	-5572
allo	-5573
alng	-5574
alon	-5575
ampo	-5576
anow	-5577
antu	-5578
apal	-5579
apot	-5580
aput	-5581
asis	-5582
asok	-5583
asom	-5584
atui	-5585
awad	-5586
awoi	-5587
baya	-5588
btob	-5589
buas	-5590
dbod	-5591
dian	-5592
gota	-5593
hand	-5594
hilu	-5595
iban	-5596
igay	-5597
igya	-5598
ilsi	-5599
ddol	-5600
ilwo	-5601
inid	-5602
inir	-5603
inta	-5604
iram	-5605
isku	-5606
kata	-5607
kawi	-5608
kuwo	-5609
loam	-5610
mpas	-5611
mpug	-5612
ogan	-5613
ogod	-5614
olan	-5615
olok	-5616
oori	-5617
osow	-5618
pahi	-5619
poit	-5620
psup	-5621
puan	-5622
suri	-5623
susu	-5624
tuus	-5625
ubun	-5626
ugon	-5627
ugub	-5628
ukul	-5629
ulis	-5630
ulub	-5631
uluy	-5632
umku	-5633
unuk	-5634
unus	-5635
upan	-5636
usud	-5637
uwas	-5638
uyan	-5639
▁ago	-5640
▁aku	-5641
▁alu	-5642
▁ana	-5643
▁ano	-5644
▁dia	-5645
▁dig	-5646
▁dil	-5647
▁dul	-5648
▁gab	-5649
▁gos	-5650
▁gri	-5651
▁ham	-5652
▁hil	-5653
▁hip	-5654
▁igw	-5655
▁ila	-5656
▁ipa	-5657
▁isu	-5658
▁jer	-5659
▁kit	-5660
▁lir	-5661
▁liw	-5662
▁lok	-5663
▁mon	-5664
▁oli	-5665
▁ooy	-5666
▁sok	-5667
▁tod	-5668
▁tom	-5669
▁uak	-5670
▁uru	-5671
▁usa	-5672
abast	-5673
abion	-5674
aboti	-5675
agpot	-5676
aliel	-5677
aligu	-5678
alimu	-5679
alomu	-5680
ambog	-5681
ambow	-5682
amhag	-5683
andal	-5684
angyu	-5685
anlad	-5686
apaan	-5687
aping	-5688
arapu	-5689
aroog	-5690
atira	-5691
atuon	-5692
baras	-5693
basan	-5694
batun	-5695
bugsi	-5696
bukus	-5697
bulan	-5698
bulog	-5699
▁jes	-5700
abokd	-5701
buran	-5702
dagas	-5703
dagow	-5704
dokon	-5705
gawoy	-5706
gowlu	-5707
gupal	-5708
iamon	-5709
igpok	-5710
igsul	-5711
ilang	-5712
ilian	-5713
imias	-5714
ipong	-5715
irogo	-5716
kagat	-5717
kanan	-5718
karan	-5719
kikan	-5720
kohoy	-5721
koton	-5722
losut	-5723
luton	-5724
manga	-5725
moron	-5726
mukul	-5727
muran	-5728
oikon	-5729
oipan	-5730
okali	-5731
ondag	-5732
ongoi	-5733
ongot	-5734
oopad	-5735
oping	-5736
otung	-5737
oysul	-5738
pakan	-5739
panas	-5740
pitow	-5741
pogos	-5742
polod	-5743
puruk	-5744
ripis	-5745
sabuk	-5746
salin	-5747
samuk	-5748
solug	-5749
songo	-5750
sukub	-5751
tabun	-5752
tabus	-5753
tokow	-5754
tugon	-5755
ubabo	-5756
ukbuk	-5757
ulang	-5758
ulion	-5759
umbuk	-5760
umonu	-5761
unlun	-5762
utong	-5763
uugpo	-5764
▁abal	-5765
▁abin	-5766
▁abod	-5767
▁aboy	-5768
▁alik	-5769
▁apul	-5770
▁bano	-5771
▁basi	-5772
▁baul	-5773
▁bibi	-5774
▁bobo	-5775
▁boli	-5776
▁buan	-5777
▁bugk	-5778
▁bula	-5779
▁buus	-5780
▁dawa	-5781
▁diip	-5782
▁dong	-5783
▁gayo	-5784
▁goti	-5785
▁haud	-5786
▁hawi	-5787
▁ikul	-5788
▁inuk	-5789
▁ipan	-5790
▁iras	-5791
▁iria	-5792
▁isau	-5793
▁isda	-5794
▁istu	-5795
▁kamu	-5796
▁kand	-5797
▁kasu	-5798
▁kuit	-5799
ptali	-5800
udpud	-5801
ustis	-5802
▁ilob	-5803
▁lata	-5804
▁lida	-5805
▁ligu	-5806
▁loko	-5807
▁luwo	-5808
▁mana	-5809
▁mann	-5810
▁muog	-5811
▁noil	-5812
▁nono	-5813
▁obid	-5814
▁olat	-5815
▁opuk	-5816
▁opuy	-5817
▁pabu	-5818
▁pigb	-5819
▁pigm	-5820
▁pigt	-5821
▁plan	-5822
▁pool	-5823
▁siku	-5824
▁soog	-5825
▁supa	-5826
▁susi	-5827
▁tagi	-5828
▁tamo	-5829
▁tomu	-5830
▁tugu	-5831
▁tumu	-5832
▁ubun	-5833
▁ugpo	-5834
▁ulat	-5835
▁uyag	-5836
abakal	-5837
abasag	-5838
abinit	-5839
absabu	-5840
abuton	-5841
agapan	-5842
agboti	-5843
akagat	-5844
akomit	-5845
akopon	-5846
alagan	-5847
alagit	-5848
alapas	-5849
alasag	-5850
alibut	-5851
alikon	-5852
alikoy	-5853
alista	-5854
amiton	-5855
amutan	-5856
amutoy	-5857
anghuy	-5858
angkag	-5859
anglan	-5860
anglit	-5861
aramon	-5862
arigus	-5863
asamuk	-5864
asanon	-5865
ayawan	-5866
ayukan	-5867
ayunon	-5868
bodbod	-5869
bolbol	-5870
dalong	-5871
dogpak	-5872
doisok	-5873
doogon	-5874
hondii	-5875
igarol	-5876
inagak	-5877
ingkik	-5878
inikot	-5879
inisan	-5880
inisia	-5881
insoon	-5882
lawang	-5883
liakim	-5884
longod	-5885
lungan	-5886
mohuri	-5887
musong	-5888
ogasan	-5889
olalan	-5890
ololog	-5891
oponod	-5892
osokod	-5893
osonon	-5894
otibon	-5895
psupon	-5896
sangan	-5897
solsol	-5898
tinawo	-5899
alngal	-5900
mansal	-5901
oropan	-5902
tongid	-5903
torong	-5904
tuasan	-5905
ulabut	-5906
ulugan	-5907
umawan	-5908
unawaa	-5909
unugan	-5910
utukan	-5911
uyunan	-5912
▁amboy	-5913
▁balik	-5914
▁balod	-5915
▁bangk	-5916
▁banos	-5917
▁batun	-5918
▁bogat	-5919
▁bokad	-5920
▁bokas	-5921
▁boloy	-5922
▁boluk	-5923
▁bukun	-5924
▁bulaw	-5925
▁bulus	-5926
▁bunag	-5927
▁bunow	-5928
▁burut	-5929
▁buyua	-5930
▁dagum	-5931
▁dayun	-5932
▁dolog	-5933
▁dulis	-5934
▁gabii	-5935
▁gawoy	-5936
▁gomow	-5937
▁gopot	-5938
▁gotad	-5939
▁gulak	-5940
▁gustu	-5941
▁hadis	-5942
▁harok	-5943
▁hawak	-5944
▁hibot	-5945
▁hilow	-5946
▁hilut	-5947
▁hirog	-5948
▁hogod	-5949
▁hustu	-5950
▁igban	-5951
▁igkal	-5952
▁igpap	-5953
▁igsun	-5954
▁inpan	-5955
▁insaa	-5956
▁insoi	-5957
▁kahop	-5958
▁kampu	-5959
▁kayow	-5960
▁kiamb	-5961
▁kilid	-5962
▁kilki	-5963
▁kiloy	-5964
▁kobot	-5965
▁kolid	-5966
▁koona	-5967
▁kulus	-5968
▁labid	-5969
▁lagak	-5970
▁lagot	-5971
▁lapas	-5972
▁ligad	-5973
▁lison	-5974
▁lobag	-5975
▁loban	-5976
▁logod	-5977
▁lopow	-5978
▁lunis	-5979
▁makap	-5980
▁mamol	-5981
▁manti	-5982
▁marag	-5983
▁masan	-5984
▁matag	-5985
▁matan	-5986
▁matat	-5987
▁mundu	-5988
▁nabun	-5989
▁nagan	-5990
▁nalig	-5991
▁nalop	-5992
▁nangg	-5993
▁nasip	-5994
▁niggo	-5995
▁nigng	-5996
▁nugun	-5997
▁nuibi	-5998
▁ogatu	-5999
▁ogawo	-6000
▁ogbak	-6001
▁oggug	-6002
▁ogkoy	-6003
▁ogluk	-6004
▁ogmol	-6005
▁ogpah	-6006
▁ogpit	-6007
▁ogsal	-6008
▁ogsol	-6009
▁ogtap	-6010
▁ongil	-6011
▁palop	-6012
▁panag	-6013
▁panoy	-6014
▁panta	-6015
▁papus	-6016
▁payag	-6017
▁pigbo	-6018
▁pighi	-6019
▁pigpa	-6020
▁pilas	-6021
▁pisus	-6022
▁polak	-6023
▁pulid	-6024
▁sabuk	-6025
▁sangg	-6026
▁singg	-6027
▁sinug	-6028
▁solib	-6029
▁sonob	-6030
▁sooyo	-6031
▁talap	-6032
▁talig	-6033
▁tanud	-6034
▁tikos	-6035
▁tilaa	-6036
▁titim	-6037
▁tolom	-6038
▁tonos	-6039
▁tugun	-6040
▁tulin	-6041
▁tulis	-6042
▁tupak	-6043
▁tuuri	-6044
▁ugsul	-6045
▁umawa	-6046
▁usias	-6047
▁usung	-6048
▁uyamu	-6049
agoinop	-6050
alambog	-6051
aligkat	-6052
alipuas	-6053
allokan	-6054
amangho	-6055
ambalan	-6056
amhagam	-6057
amongan	-6058
ampawan	-6059
andalan	-6060
anggaan	-6061
angguti	-6062
angkaan	-6063
asawooy	-6064
atubung	-6065
banayan	-6066
bongkag	-6067
handria	-6068
holosan	-6069
ikinabo	-6070
ilsibul	-6071
inaboon	-6072
ingling	-6073
ingsing	-6074
iskuila	-6075
manokal	-6076
ongdong	-6077
ongolan	-6078
oysuloy	-6079
puwasan	-6080
salinow	-6081
usigsig	-6082
▁agasan	-6083
▁amagal	-6084
▁amasig	-6085
▁angaya	-6086
▁bagani	-6087
▁bagdak	-6088
▁baghot	-6089
▁bagkos	-6090
▁bansag	-6091
▁barrio	-6092
▁bayaan	-6093
▁bayari	-6094
▁buling	-6095
▁busbus	-6096
▁butaku	-6097
▁butung	-6098
▁dakoli	-6099
▁datong	-6100
▁dingil	-6101
▁doktul	-6102
▁dugnal	-6103
▁gadara	-6104
▁giboon	-6105
▁golong	-6106
▁griego	-6107
▁hantal	-6108
▁haspir	-6109
▁higtok	-6110
▁hogoti	-6111
▁hugasi	-6112
▁igbayo	-6113
▁igdatu	-6114
▁igkoin	-6115
▁igkool	-6116
▁igugpo	-6117
▁ilimas	-6118
▁ilisan	-6119
▁imbuyu	-6120
▁impoid	-6121
▁inagak	-6122
▁ingkat	-6123
▁intaga	-6124
▁inumon	-6125
▁jeremy	-6126
▁kaglas	-6127
▁kainan	-6128
▁kalisa	-6129
▁kolong	-6130
▁koomis	-6131
▁kopkop	-6132
▁kuligi	-6133
▁kutkut	-6134
▁labung	-6135
▁lalung	-6136
▁lampos	-6137
▁langow	-6138
▁liason	-6139
▁ligsom	-6140
▁limura	-6141
▁lirong	-6142
▁liwaro	-6143
▁lugtom	-6144
▁luiton	-6145
▁maapun	-6146
▁maayun	-6147
▁mangga	-6148
▁moiria	-6149
▁moomis	-6150
▁moulii	-6151
▁mugtas	-6152
▁naasom	-6153
▁nakako	-6154
▁nganga	-6155
▁ngarog	-6156
▁nigbab	-6157
▁nighon	-6158
▁nigpin	-6159
▁nigtan	-6160
▁ninibi	-6161
▁noinug	-6162
▁noolin	-6163
▁noomaw	-6164
▁ogalap	-6165
▁oganad	-6166
▁ogbaya	-6167
▁ogdaru	-6168
▁ogdiok	-6169
▁ogdoyr	-6170
▁ogdulu	-6171
▁oginum	-6172
▁ogkadi	-6173
▁ogkago	-6174
▁ogkoin	-6175
▁oglogp	-6176
▁ogmans	-6177
▁ogmool	-6178
▁ogmoos	-6179
▁ogpani	-6180
▁ogpohi	-6181
▁ogsoip	-6182
▁ogsung	-6183
▁paagad	-6184
▁palatu	-6185
▁pandoy	-6186
▁pangab	-6187
▁pantig	-6188
▁paspas	-6189
▁pigkit	-6190
▁piliti	-6191
▁pinang	-6192
▁pinnuu	-6193
▁pinota	-6194
▁pirlas	-6195
▁ponong	-6196
▁publiu	-6197
▁punduk	-6198
▁pungos	-6199
▁pungul	-6200
▁saboka	-6201
▁sagdok	-6202
▁sakoru	-6203
▁salang	-6204
▁salmon	-6205
▁samboy	-6206
▁samuel	-6207
▁saosow	-6208
▁sardis	-6209
▁sayoon	-6210
▁siloam	-6211
▁songol	-6212
▁sulang	-6213
▁sumpil	-6214
▁supmat	-6215
▁tagpos	-6216
▁talari	-6217
▁tambab	-6218
▁tiboon	-6219
▁tinduk	-6220
▁tongos	-6221
▁toolan	-6222
▁toptop	-6223
▁tubung	-6224
▁tungul	-6225
▁tutung	-6226
▁untung	-6227
▁waswas	-6228
alalukuy	-6229
alopotan	-6230
alosobon	-6231
asayluan	-6232
awosonon	-6233
dumaruma	-6234
gowlugow	-6235
hipanawa	-6236
ingangag	-6237
inuinuan	-6238
lawangon	-6239
lbuligoy	-6240
sonditan	-6241
tagooran	-6242
woilwoil	-6243
▁aguanta	-6244
▁alabast	-6245
▁angkuan	-6246
▁bagunta	-6247
▁balintu	-6248
▁basakan	-6249
▁birnisi	-6250
▁bitpahi	-6251
▁bontung	-6252
▁burunsi	-6253
▁eliakim	-6254
▁golgota	-6255
▁gomawan	-6256
▁gongoni	-6257
▁igdapig	-6258
▁igdogil	-6259
▁igpanag	-6260
▁igsaliu	-6261
▁igsolod	-6262
▁igtimul	-6263
▁igtobus	-6264
▁igtugut	-6265
▁imbulig	-6266
▁impayag	-6267
▁inhikot	-6268
▁ipamula	-6269
▁kalasag	-6270
▁kalayag	-6271
▁kaluagi	-6272
▁kamanga	-6273
▁kayamoy	-6274
▁kinurus	-6275
▁klaudiu	-6276
▁koirapi	-6277
▁korasin	-6278
▁kotonga	-6279
▁kumusta	-6280
▁lagtang	-6281
▁lagting	-6282
▁langkob	-6283
▁lapinid	-6284
▁lotibon	-6285
▁maanari	-6286
▁mabasag	-6287
▁mabatok	-6288
▁magdala	-6289
▁malogos	-6290
▁manasis	-6291
▁marigon	-6292
▁marulag	-6293
▁matuman	-6294
▁mogduma	-6295
▁mogpuun	-6296
▁mohogot	-6297
▁moolmol	-6298
▁naalang	-6299
▁naboros	-6300
▁nakalop	-6301
▁namoori	-6302
▁nanampu	-6303
▁nanugpo	-6304
▁narakop	-6305
▁nasugat	-6306
▁natapid	-6307
▁nigbasa	-6308
▁nigbawi	-6309
▁nigboli	-6310
▁niggisi	-6311
▁nighuna	-6312
▁niginso	-6313
▁nigloko	-6314
▁niglouy	-6315
▁nigpali	-6316
▁nigpoul	-6317
▁nigsagp	-6318
▁nigsilo	-6319
▁nigsing	-6320
▁nigtuli	-6321
▁niguyun	-6322
▁nigwaro	-6323
▁niptali	-6324
▁nohinug	-6325
▁nokogso	-6326
▁noonsig	-6327
▁ogbolat	-6328
▁ogbosik	-6329
▁ogbugsi	-6330
▁oggatow	-6331
▁oggawoy	-6332
▁oggopas	-6333
▁oghatod	-6334
▁oghogot	-6335
▁oghugas	-6336
▁ogkabon	-6337
▁ogkabun	-6338
▁ogkagat	-6339
▁ogkagis	-6340
▁ogkalog	-6341
▁ogkohun	-6342
▁oglanog	-6343
▁oglayun	-6344
▁oglusud	-6345
▁ogmanas	-6346
▁ogmohon	-6347
▁ogpamul	-6348
▁ogparag	-6349
▁ogpinnu	-6350
▁ogpohoy	-6351
▁ogsaliu	-6352
▁ogsangg	-6353
▁ogsilab	-6354
▁ogsonob	-6355
▁ogsukut	-6356
▁ogsuwoy	-6357
▁pigbuyu	-6358
▁pigsayo	-6359
▁pinisia	-6360
▁pinohun	-6361
▁pogdani	-6362
▁sabulun	-6363
▁sangkod	-6364
▁sanglit	-6365
▁sapinit	-6366
▁sinawoy	-6367
▁sinogow	-6368
▁soluton	-6369
▁sungguk	-6370
▁taganay	-6371
▁tagaran	-6372
▁talagng	-6373
▁tiatira	-6374
▁tibolus	-6375
▁tingkal	-6376
▁titigus	-6377
▁topungi	-6378
▁tukbung	-6379
▁turakan	-6380
▁ulaging	-6381
▁ulobang	-6382
abokdabok	-6383
absabutoy	-6384
akolkohoy	-6385
aladtalad	-6386
alibongon	-6387
alibuwasa	-6388
aligsoman	-6389
amulingan	-6390
angumusta	-6391
anoynanoy	-6392
hihipanow	-6393
hipanawon	-6394
unturanan	-6395
▁alukuyan	-6396
▁bonsaran	-6397
▁gamaliel	-6398
▁hirimias	-6399
▁igbulung	-6400
▁igdongan	-6401
▁igkabuhi	-6402
▁igkalima	-6403
▁iglibong	-6404
▁igmaroot	-6405
▁igpatagu	-6406
▁igsaluub	-6407
▁igsugbuk	-6408
▁igtopung	-6409
▁ikasulat	-6410
▁impaanak	-6411
▁impakoon	-6412
▁impamula	-6413
▁impoinum	-6414
▁impoumow	-6415
▁inbayung	-6416
▁inlagkos	-6417
▁inlogsad	-6418
▁ipohibat	-6419
▁kalayagi	-6420
▁kalusisi	-6421
▁kamansal	-6422
▁kapalong	-6423
▁kapigsul	-6424
▁lagotong	-6425
▁limusong	-6426
▁magolgol	-6427
▁mahagsil	-6428
▁makaruma	-6429
▁malambog	-6430
▁masandig	-6431
▁mogsalig	-6432
▁mohurian	-6433
▁molmohon	-6434
▁nakasung	-6435
▁nakatkat	-6436
▁nalantoy	-6437
▁nalimuan	-6438
▁nalogdog	-6439
▁namanoug	-6440
▁namaraan	-6441
▁nanligad	-6442
▁nanligal	-6443
▁napolaan	-6444
▁napuasan	-6445
▁nigbaluy	-6446
▁nigbatun	-6447
▁nigbugsi	-6448
▁niggupal	-6449
▁nigkanta	-6450
▁niglonus	-6451
▁niglosut	-6452
▁nigpatuu	-6453
▁nigpogos	-6454
▁nigsalin	-6455
▁nigtapid	-6456
▁nigtobus	-6457
▁nigtuyuk	-6458
▁nokougpo	-6459
▁ogalamon	-6460
▁ogampuan	-6461
▁ogboboli	-6462
▁ogbubuko	-6463
▁ogdagkot	-6464
▁ogdumaan	-6465
▁oghawion	-6466
▁oghillop	-6467
▁oghiupan	-6468
▁oghondii	-6469
▁oghoohoo	-6470
▁oghubabo	-6471
▁ogkaagow	-6472
▁ogkabasa	-6473
▁ogkabaya	-6474
▁ogkaponu	-6475
▁ogkoinum	-6476
▁ogkootow	-6477
▁ogkoumoi	-6478
▁ogkoutol	-6479
▁oglabung	-6480
▁oglagbas	-6481
▁oglagsik	-6482
▁oglumbuk	-6483
▁ogpaalap	-6484
▁ogpakabu	-6485
▁ogpakama	-6486
▁ogpamano	-6487
▁ogpambus	-6488
▁ogpansob	-6489
▁ogpasalo	-6490
▁ogpasayo	-6491
▁ogpoinum	-6492
▁ogsakaru	-6493
▁ogsamboy	-6494
▁ogsundul	-6495
▁ogtakang	-6496
▁ogtigbas	-6497
▁ogtongos	-6498
▁ogtupang	-6499
▁palopawa	-6500
▁pamitawa	-6501
▁pandawot	-6502
▁papitawa	-6503
▁pasubloi	-6504
▁pigdogil	-6505
▁piglimud	-6506
▁pigsawoy	-6507
▁pogbatun	-6508
▁pogdogil	-6509
▁pogpuwas	-6510
▁pogsapad	-6511
▁pogsulat	-6512
▁pogtulin	-6513
▁pulondag	-6514
▁salungag	-6515
▁sintabus	-6516
▁sumpalit	-6517
▁tibirias	-6518
▁tungulon	-6519
hulhuliroy	-6520
sasowsasow	-6521
▁abalangon	-6522
▁balanghuy	-6523
▁banulaloy	-6524
▁biilsibul	-6525
▁diotripis	-6526
▁duunganan	-6527
▁hagtongid	-6528
▁hilamonon	-6529
▁igbalabag	-6530
▁igbaligya	-6531
▁igbalukas	-6532
▁igkaboros	-6533
▁igkararua	-6534
▁igmalotoy	-6535
▁igpabogoy	-6536
▁igparakop	-6537
▁igparinog	-6538
▁imbanggut	-6539
▁impasakup	-6540
▁ingkabolu	-6541
▁ingkatuon	-6542
▁ingkoolot	-6543
▁istipanas	-6544
▁kapulusan	-6545
▁karayawan	-6546
▁kasabutan	-6547
▁maaguanta	-6548
▁makarolog	-6549
▁makasawod	-6550
▁mallintok	-6551
▁mogdatong	-6552
▁nalayagan	-6553
▁naliwanan	-6554
▁nallantoy	-6555
▁nalokoban	-6556
▁namogasan	-6557
▁nanangoni	-6558
▁nanlibong	-6559
▁naparagas	-6560
▁nasabukan	-6561
▁natibulus	-6562
▁nigbootan	-6563
▁nigdanian	-6564
▁nigdumaan	-6565
▁niglabung	-6566
▁niglangob	-6567
▁niglangub	-6568
▁nigpandop	-6569
▁nigparuma	-6570
▁nigpoobos	-6571
▁nigsagpit	-6572
▁nigsapaan	-6573
▁nigtigbas	-6574
▁nigtuuran	-6575
▁nokountud	-6576
▁nokouwang	-6577
▁ogbabalun	-6578
▁ogbarasan	-6579
▁ogbobooti	-6580
▁ogbohogon	-6581
▁ogdagsang	-6582
▁oggamiton	-6583
▁ogganuyon	-6584
▁oghilamon	-6585
▁oghongkai	-6586
▁oghugasan	-6587
▁ogkaanlas	-6588
▁ogkabutud	-6589
▁ogkaligot	-6590
▁ogkaliwan	-6591
▁ogkalonod	-6592
▁ogkaponod	-6593
▁ogkarinog	-6594
▁ogkasugat	-6595
▁ogkohusoy	-6596
▁ogkoumonu	-6597
▁oglangosa	-6598
▁ogmakogal	-6599
▁ogmalugoy	-6600
▁ogmangali	-6601
▁ognangoni	-6602
▁ogpaampow	-6603
▁ogpagawoy	-6604
▁ogpakaatu	-6605
▁ogpakapar	-6606
▁ogpamangh	-6607
▁ogpamogas	-6608
▁ogpamurut	-6609
▁ogpananap	-6610
▁ogpapitow	-6611
▁ogparigus	-6612
▁ogpoulion	-6613
▁ogpulasan	-6614
▁ogsamukon	-6615
▁ogtakorog	-6616
▁ogtalapon	-6617
▁ogtangkap	-6618
▁ogtibugon	-6619
▁ogtibulus	-6620
▁pamanayon	-6621
▁panalinga	-6622
▁pangabaga	-6623
▁pangayung	-6624
▁pigkagian	-6625
▁pigpuunan	-6626
▁pogbantoy	-6627
▁pogkohoyu	-6628
▁pogkoibog	-6629
▁poindanan	-6630
▁sinoropan	-6631
▁talaganad	-6632
▁talagbunu	-6633
▁tingangag	-6634
adakdakoloy	-6635
umkumustooy	-6636
▁alihandria	-6637
▁alongaping	-6638
▁bulanbulan	-6639
▁hagamhagam	-6640
▁igbabayung	-6641
▁igkabayung	-6642
▁igkapirisu	-6643
▁igpohondio	-6644
▁impasamboy	-6645
▁ipariralom	-6646
▁kalipuasan	-6647
▁makahallok	-6648
▁mansalinow	-6649
▁moghondini	-6650
▁nabodboran	-6651
▁nakapaagad	-6652
▁nakarogpak	-6653
▁nakarongan	-6654
▁nalingotan	-6655
▁nandalapak	-6656
▁nanoynanoy	-6657
▁nanumbaloy	-6658
▁nigbalibad	-6659
▁nigbalukas	-6660
▁niggawayan	-6661
▁nigharokan	-6662
▁nigliboran	-6663
▁niglipasan	-6664
▁nigmalayat	-6665
▁nigmanokal	-6666
▁nigmasalig	-6667
▁nigpamitow	-6668
▁nigpasolod	-6669
▁nigpasuwoy	-6670
▁nigsabalan	-6671
▁nigtagaran	-6672
▁nigtakarog	-6673
▁nigtakorog	-6674
▁nigtaloson	-6675
▁nigtatagad	-6676
▁nigtitigus	-6677
▁nigtokoran	-6678
▁nokogsabut	-6679
▁nokogsuwoy	-6680
▁nokogtagbu	-6681
▁ogbabantoy	-6682
▁ogdoogdoog	-6683
▁oggulabung	-6684
▁oghagsilan	-6685
▁oghagsilon	-6686
▁ogkamohuri	-6687
▁ogkohoyuan	-6688
▁ogkolkolon	-6689
▁oglingawan	-6690
▁oglingling	-6691
▁ogngangang	-6692
▁ogpakaanad	-6693
▁ogpakaayat	-6694
▁ogpakaayun	-6695
▁ogpakakoon	-6696
▁ogpakasaad	-6697
▁ogpanalapi	-6698
▁ogpangusig	-6699
▁ogpanhugas	-6700
▁ogpasoipan	-6701
▁ogpoinumon	-6702
▁ogpokoinum	-6703
▁ogpootawan	-6704
▁ogsampiton	-6705
▁ogsamsamon	-6706
▁ogsongolan	-6707
▁ogtutungon	-6708
▁palibuwasa	-6709
▁panganiban	-6710
▁pigbalagad	-6711
▁pigsaligan	-6712
▁pigtugunan	-6713
▁pinohondio	-6714
▁pogkohinug	-6715
▁pogpokouma	-6716
▁pogsinogow	-6717
▁pohipanawa	-6718
▁singgalung	-6719
▁sumansuman	-6720
▁timbabakal	-6721
nangonnangon	-6722
▁igkamasakit	-6723
▁igkasinogow	-6724
▁igpalibuwas	-6725
▁igpangabang	-6726
▁igpounturan	-6727
▁ingkapamula	-6728
▁kasangkapan	-6729
▁langlanguan	-6730
▁matmatikang	-6731
▁mogsasindog	-6732
▁nakabalabag	-6733
▁nakataliwar	-6734
▁nigbabantoy	-6735
▁nigbaghotan	-6736
▁nigloinloin	-6737
▁nigmohoning	-6738
▁nigngangang	-6739
▁nigpaatawan	-6740
▁nigpandagom	-6741
▁nokogsolsol	-6742
▁oghingarani	-6743
▁oghirosonan	-6744
▁ogkabongkag	-6745
▁ogkalingawi	-6746
▁ogkamatayan	-6747
▁ogkaparagas	-6748
▁ogkapulasan	-6749
▁ogkasakitan	-6750
▁ogkasalinan	-6751
▁ogkatahuron	-6752
▁ogkohikotan	-6753
▁ogkumustoon	-6754
▁ogligtuasan	-6755
▁ogmarusilom	-6756
▁ogngangalap	-6757
▁ogpabuligan	-6758
▁ogpakaampow	-6759
▁ogpakabayad	-6760
▁ogpakangisi	-6761
▁ogpakaponga	-6762
▁ogpakarolog	-6763
▁ogpakasapad	-6764
▁ogpakasilab	-6765
▁ogpakatagad	-6766
▁ogpanguiton	-6767
▁ogpanhimuon	-6768
▁ogparokotan	-6769
▁ogpoglawang	-6770
▁ogpohipanow	-6771
▁ogpohirapan	-6772
▁ogpohondion	-6773
▁ogpokohogot	-6774
▁ogpokountud	-6775
▁pangatubung	-6776
▁pinoglimang	-6777
▁pintikustis	-6778
▁pogbautismu	-6779
▁pogkouripon	-6780
▁pogpamminog	-6781
amilikpilikan	-6782
▁igpangalasag	-6783
▁impangulibot	-6784
▁langlangawan	-6785
▁malugowlugow	-6786
▁nakadoromdom	-6787
▁nakataliwaro	-6788
▁nigbabantaan	-6789
▁nigpasiporan	-6790
▁ogbabantayan	-6791
▁oghibukhibuk	-6792
▁ogkabaghotan	-6793
▁ogkadoromdom	-6794
▁ogkahallokan	-6795
▁ogkaligsoman	-6796
▁ogkasamilian	-6797
▁oglitoslitos	-6798
▁ogmatikangon	-6799
▁ogmoungangon	-6800
▁ogpakadalong	-6801
▁ogpakagongon	-6802
▁ogpakalogpad	-6803
▁ogpakarogpak	-6804
▁ogpakarongan	-6805
▁ogpakasamsam	-6806
▁ogpalibongon	-6807
▁ogpandakopon	-6808
▁ogpangotoban	-6809
▁ogpanhilabot	-6810
▁ogparagingon	-6811
▁ogsasowsasow	-6812
▁ogsinsinogow	-6813
▁ogsuloysuloy	-6814
▁ogsumsumanon	-6815
▁ogsusumpalit	-6816
▁pighimatayan	-6817
▁talagbaligya	-6818
▁niglogoblogob	-6819
▁nigpaginpulus	-6820
▁nigpasambayan	-6821
▁nigtaladtalad	-6822
▁nigtongtongan	-6823
▁ogpohipanawon	-6824
▁ogpokogsondit	-6825
▁ogtagtagooran	-6826
▁poglimudlimud	-6827
▁pogpaapapuloy	-6828
▁pogpanumbaloy	-6829
▁igmarayandayan	-6830
▁nanangnangonan	-6831
▁nigpinpinnuuan	-6832
▁ogkaalindungan	-6833
▁ogkabalbalikid	-6834
▁ogkamolmologan	-6835
▁ogkapolodpolod	-6836
▁oglayanglayang	-6837
▁ogmaalalukuyoy	-6838
▁ogpakapallaguy	-6839
▁ogpakapamminog	-6840
▁ogpakasalsalia	-6841
▁ogparoromdomon	-6842
▁talagngangalap	-6843
mi	-6844
mm	-6845
pm	-6846
▁f	-6847
▁y	-6848
aab	-6849
abl	-6850
any	-6851
arn	-6852
ary	-6853
day	-6854
dii	-6855
dug	-6856
eta	-6857
gam	-6858
gis	-6859
goi	-6860
hal	-6861
hod	-6862
iak	-6863
igi	-6864
iid	-6865
ino	-6866
iow	-6867
isa	-6868
kab	-6869
kbu	-6870
lom	-6871
los	-6872
mad	-6873
min	-6874
ngo	-6875
nit	-6876
oga	-6877
oom	-6878
ooy	-6879
owi	-6880
par	-6881
pil	-6882
pol	-6883
puk	-6884
pun	-6885
rod	-6886
rop	-6887
rus	-6888
rut	-6889
tap	-6890
tat	-6891
til	-6892
tua	-6893
tum	-6894
tuv	-6895
uda	-6896
unl	-6897
unt	-6898
usa	-6899
big	-6900
ibo	-6901
iui	-6902
kor	-6903
luc	-6904
obo	-6905
wad	-6906
wat	-6907
yon	-6908
yun	-6909
▁be	-6910
▁by	-6911
▁ih	-6912
▁je	-6913
▁of	-6914
▁tr	-6915
▁uk	-6916
aang	-6917
abaw	-6918
abhi	-6919
abua	-6920
adus	-6921
agol	-6922
agoy	-6923
agub	-6924
agud	-6925
agum	-6926
agun	-6927
ahab	-6928
ahan	-6929
akar	-6930
aklu	-6931
akot	-6932
akug	-6933
akul	-6934
anag	-6935
anai	-6936
anat	-6937
angw	-6938
anma	-6939
apan	-6940
apat	-6941
apow	-6942
apug	-6943
asak	-6944
atik	-6945
awag	-6946
awid	-6947
awii	-6948
ayod	-6949
baan	-6950
botu	-6951
bual	-6952
buku	-6953
bulu	-6954
dbud	-6955
diok	-6956
dugi	-6957
gibo	-6958
iang	-6959
iara	-6960
igbi	-6961
igda	-6962
igia	-6963
ilaa	-6964
ilas	-6965
ilat	-6966
inlo	-6967
inoy	-6968
into	-6969
iong	-6970
iral	-6971
iras	-6972
isli	-6973
isop	-6974
kbuk	-6975
kong	-6976
lagu	-6977
lili	-6978
liop	-6979
logo	-6980
loko	-6981
loug	-6982
muon	-6983
naan	-6984
ntoy	-6985
obul	-6986
ongp	-6987
orag	-6988
otoy	-6989
pawo	-6990
puru	-6991
raan	-6992
rian	-6993
riel	-6994
sois	-6995
tgot	-6996
ugus	-6997
uguy	-6998
ukow	-6999
duy	-7000
ipo	-7001
banu	-7002
doid	-7003
lamo	-7004
riak	-7005
ruwa	-7006
ukut	-7007
ulit	-7008
ulud	-7009
umaa	-7010
uroy	-7011
usot	-7012
uwat	-7013
uwon	-7014
walu	-7015
yuka	-7016
yung	-7017
▁anu	-7018
▁are	-7019
▁atu	-7020
▁bid	-7021
▁bok	-7022
▁bos	-7023
▁boy	-7024
▁buo	-7025
▁buy	-7026
▁dog	-7027
▁doy	-7028
▁duk	-7029
▁dur	-7030
▁duy	-7031
▁gin	-7032
▁gis	-7033
▁gow	-7034
▁gun	-7035
▁hab	-7036
▁hob	-7037
▁hod	-7038
▁ias	-7039
▁ini	-7040
▁ino	-7041
▁inu	-7042
▁joy	-7043
▁kis	-7044
▁kod	-7045
▁kum	-7046
▁kus	-7047
▁kuw	-7048
▁lal	-7049
▁lik	-7050
▁lon	-7051
▁lus	-7052
▁nay	-7053
▁noo	-7054
▁pab	-7055
▁paw	-7056
▁put	-7057
▁rrr	-7058
▁sit	-7059
▁sos	-7060
▁soy	-7061
▁suu	-7062
▁tas	-7063
▁tat	-7064
▁toy	-7065
▁uka	-7066
ablok	-7067
agawi	-7068
aghot	-7069
agkos	-7070
agood	-7071
akayu	-7072
akuon	-7073
aldal	-7074
aligo	-7075
alomi	-7076
angat	-7077
angit	-7078
angow	-7079
apian	-7080
ariay	-7081
atbat	-7082
atoto	-7083
ayara	-7084
ayows	-7085
banwa	-7086
batas	-7087
biton	-7088
bogat	-7089
bokat	-7090
buloy	-7091
dogan	-7092
gamow	-7093
gsong	-7094
hirog	-7095
hisus	-7096
iasan	-7097
iguru	-7098
ikpos	-7099
▁et	-7100
inok	-7101
osto	-7102
ranu	-7103
sama	-7104
umos	-7105
▁per	-7106
ilias	-7107
ilini	-7108
ilkil	-7109
ilung	-7110
imani	-7111
imini	-7112
inawo	-7113
inita	-7114
insoi	-7115
isina	-7116
itibi	-7117
iting	-7118
kanat	-7119
katan	-7120
katon	-7121
klamo	-7122
koroy	-7123
kotow	-7124
kotul	-7125
kulas	-7126
kusub	-7127
laman	-7128
libot	-7129
libut	-7130
logod	-7131
lohow	-7132
luyon	-7133
mariu	-7134
munoy	-7135
nalan	-7136
obaan	-7137
odago	-7138
ogang	-7139
ogila	-7140
ogosa	-7141
ogoti	-7142
olora	-7143
onbon	-7144
oobol	-7145
opilu	-7146
orang	-7147
orong	-7148
owsow	-7149
oyawi	-7150
panag	-7151
polis	-7152
sagda	-7153
sokon	-7154
solan	-7155
solom	-7156
sonon	-7157
subal	-7158
tasan	-7159
tugdo	-7160
tulas	-7161
ulinu	-7162
unung	-7163
ustus	-7164
uyung	-7165
wolok	-7166
▁abog	-7167
▁abol	-7168
▁agar	-7169
▁akim	-7170
▁akob	-7171
▁aloy	-7172
▁ambu	-7173
▁amon	-7174
▁amul	-7175
▁amut	-7176
▁anad	-7177
▁anas	-7178
▁anun	-7179
▁aras	-7180
▁arni	-7181
▁asir	-7182
▁atoy	-7183
▁balo	-7184
▁boas	-7185
▁boka	-7186
▁bouk	-7187
▁buad	-7188
▁bubu	-7189
▁buka	-7190
▁dali	-7191
▁dika	-7192
▁doow	-7193
▁doyr	-7194
▁dugs	-7195
▁ging	-7196
▁gout	-7197
▁hang	-7198
▁huli	-7199
tic	-7200
abai	-7201
baba	-7202
kili	-7203
laba	-7204
omul	-7205
tiak	-7206
upku	-7207
abasa	-7208
ikias	-7209
ikita	-7210
ituos	-7211
nuson	-7212
ognat	-7213
sangi	-7214
sarit	-7215
tiban	-7216
ugwak	-7217
wayon	-7218
▁abat	-7219
▁aram	-7220
▁igba	-7221
▁igma	-7222
▁ilom	-7223
▁ilun	-7224
▁ingu	-7225
▁inos	-7226
▁isku	-7227
▁kait	-7228
▁kois	-7229
▁koko	-7230
▁kotu	-7231
▁kris	-7232
▁laba	-7233
▁lala	-7234
▁lami	-7235
▁lant	-7236
▁libr	-7237
▁lili	-7238
▁lion	-7239
▁lita	-7240
▁luti	-7241
▁magi	-7242
▁mina	-7243
▁momo	-7244
▁naam	-7245
▁naga	-7246
▁nanh	-7247
▁nanp	-7248
▁napo	-7249
▁nari	-7250
▁niap	-7251
▁obay	-7252
▁obul	-7253
▁omot	-7254
▁orag	-7255
▁otok	-7256
▁paga	-7257
▁paro	-7258
▁pigl	-7259
▁pign	-7260
▁pisu	-7261
▁poko	-7262
▁pori	-7263
▁pulg	-7264
▁roda	-7265
▁sagp	-7266
▁sial	-7267
▁siin	-7268
▁sili	-7269
▁sira	-7270
▁sobu	-7271
▁sopa	-7272
▁sopi	-7273
▁sugi	-7274
▁suli	-7275
▁suoy	-7276
▁suun	-7277
▁tibu	-7278
▁tigl	-7279
▁tigp	-7280
▁tiko	-7281
▁togo	-7282
▁toin	-7283
▁tris	-7284
▁tuga	-7285
▁tulu	-7286
▁tuma	-7287
▁ubut	-7288
▁ugis	-7289
▁ulam	-7290
▁ulib	-7291
▁ulug	-7292
▁unus	-7293
▁upul	-7294
▁utok	-7295
abukad	-7296
akawon	-7297
akayan	-7298
akoona	-7299
mba	-7300
▁el	-7301
▁es	-7302
amba	-7303
baoy	-7304
moti	-7305
onob	-7306
▁eup	-7307
▁saa	-7308
amulh	-7309
huroy	-7310
libon	-7311
motan	-7312
odbod	-7313
turon	-7314
▁bagt	-7315
▁giba	-7316
▁ipas	-7317
▁limp	-7318
▁simb	-7319
▁somp	-7320
▁tump	-7321
▁ugtu	-7322
alaguy	-7323
alapid	-7324
alikud	-7325
aliung	-7326
alopan	-7327
alusan	-7328
angaan	-7329
angana	-7330
angkod	-7331
asikal	-7332
atagbu	-7333
atasan	-7334
atunan	-7335
aworon	-7336
ayoran	-7337
ayunan	-7338
bangon	-7339
bongol	-7340
bungku	-7341
dagkot	-7342
dayang	-7343
gosaan	-7344
igupan	-7345
ilisan	-7346
inawaa	-7347
iniati	-7348
initon	-7349
innuua	-7350
inuman	-7351
iralda	-7352
kinabo	-7353
kootow	-7354
langit	-7355
maraan	-7356
marani	-7357
nuanan	-7358
obukan	-7359
ogonan	-7360
ombung	-7361
omoton	-7362
onuton	-7363
opolod	-7364
otowan	-7365
pantow	-7366
pmatan	-7367
roisok	-7368
rosoni	-7369
sagman	-7370
sondad	-7371
sonson	-7372
takang	-7373
tangon	-7374
toktok	-7375
tongos	-7376
ubusan	-7377
uganon	-7378
ukilom	-7379
umbaoy	-7380
unawoi	-7381
ungkag	-7382
utusan	-7383
uyawon	-7384
▁abata	-7385
▁admin	-7386
▁agung	-7387
▁bagal	-7388
▁bagyu	-7389
▁balak	-7390
▁balin	-7391
▁banag	-7392
▁banta	-7393
▁banug	-7394
▁banus	-7395
▁barut	-7396
▁batad	-7397
▁binun	-7398
▁bogoy	-7399
ilui	-7400
tobi	-7401
▁ula	-7402
abian	-7403
abiid	-7404
dulug	-7405
gilit	-7406
ingga	-7407
lanow	-7408
linas	-7409
lopon	-7410
luhud	-7411
sunan	-7412
toluk	-7413
utiku	-7414
utuka	-7415
▁aput	-7416
▁asor	-7417
▁bugs	-7418
▁ilas	-7419
▁kuri	-7420
▁sabi	-7421
akinan	-7422
asikan	-7423
ayaron	-7424
bugwak	-7425
imuimu	-7426
lingut	-7427
rongon	-7428
suntuk	-7429
usigoy	-7430
▁barak	-7431
▁boian	-7432
▁bolat	-7433
▁boluy	-7434
▁bonut	-7435
▁bugan	-7436
▁bukad	-7437
▁bulas	-7438
▁bulit	-7439
▁bulun	-7440
▁bulut	-7441
▁bunog	-7442
▁dagom	-7443
▁dilin	-7444
▁dinog	-7445
▁dogos	-7446
▁dokow	-7447
▁dolag	-7448
▁domol	-7449
▁duluc	-7450
▁gapon	-7451
▁gayad	-7452
▁gitas	-7453
▁gogoy	-7454
▁gopas	-7455
▁gotas	-7456
▁gubat	-7457
▁gulub	-7458
▁habot	-7459
▁halom	-7460
▁hanai	-7461
▁haran	-7462
▁hayod	-7463
▁hidhi	-7464
▁hirap	-7465
▁hokad	-7466
▁holos	-7467
▁huana	-7468
▁hugun	-7469
▁ianak	-7470
▁ighun	-7471
▁iglag	-7472
▁igsug	-7473
▁indog	-7474
▁inuma	-7475
▁ipisu	-7476
▁itagu	-7477
▁jesse	-7478
▁kabal	-7479
▁kabug	-7480
▁kabul	-7481
▁kabus	-7482
▁kalam	-7483
▁kanal	-7484
▁kasas	-7485
▁kasil	-7486
▁katig	-7487
▁katod	-7488
▁kawad	-7489
▁kayag	-7490
▁kayas	-7491
▁kilow	-7492
▁kimud	-7493
▁kinar	-7494
▁kindi	-7495
▁kisul	-7496
▁kogka	-7497
▁kohun	-7498
▁kolis	-7499
agpa	-7500
agpi	-7501
bian	-7502
biid	-7503
ibon	-7504
nigt	-7505
sion	-7506
agkol	-7507
biung	-7508
dakan	-7509
initk	-7510
untul	-7511
▁dala	-7512
▁olod	-7513
▁ubus	-7514
akupan	-7515
angkok	-7516
apunon	-7517
gowlin	-7518
himata	-7519
imalud	-7520
inggon	-7521
kogang	-7522
umowon	-7523
wasoon	-7524
▁kambu	-7525
▁komol	-7526
▁kopit	-7527
▁kupas	-7528
▁lagas	-7529
▁lalad	-7530
▁langg	-7531
▁lanog	-7532
▁lanok	-7533
▁lanut	-7534
▁libod	-7535
▁libut	-7536
▁likag	-7537
▁lilid	-7538
▁liwar	-7539
▁logob	-7540
▁longa	-7541
▁lopuk	-7542
▁losok	-7543
▁lotoy	-7544
▁lunoy	-7545
▁maawo	-7546
▁mabal	-7547
▁mabay	-7548
▁maman	-7549
▁mamog	-7550
▁manag	-7551
▁mangu	-7552
▁manik	-7553
▁manta	-7554
▁maput	-7555
▁masun	-7556
▁mokog	-7557
▁naang	-7558
▁nabal	-7559
▁nabus	-7560
▁nakal	-7561
▁nalon	-7562
▁nanas	-7563
▁napan	-7564
▁napul	-7565
▁nasam	-7566
▁nasir	-7567
▁natag	-7568
▁natib	-7569
▁naton	-7570
▁natum	-7571
▁nigay	-7572
▁nigba	-7573
▁nigga	-7574
▁ogbok	-7575
▁ogdar	-7576
▁ogdok	-7577
▁oggal	-7578
▁oggot	-7579
▁ogkog	-7580
▁ogkon	-7581
▁ogkuo	-7582
▁ogliu	-7583
▁oglug	-7584
▁ogmak	-7585
▁ogmas	-7586
▁ogpul	-7587
▁ogsin	-7588
▁ogtat	-7589
▁ogtaw	-7590
▁ogtoi	-7591
▁ogtul	-7592
▁oguli	-7593
▁okang	-7594
▁ongod	-7595
▁ongot	-7596
▁onong	-7597
▁pamal	-7598
▁panam	-7599
atda	-7600
daat	-7601
dagit	-7602
subla	-7603
sukon	-7604
▁kurn	-7605
▁puti	-7606
▁sals	-7607
atangi	-7608
atukon	-7609
ayuayu	-7610
ipisan	-7611
paksad	-7612
samsam	-7613
uyunoy	-7614
▁abina	-7615
▁agsam	-7616
▁bakus	-7617
▁ganti	-7618
▁golut	-7619
▁hukas	-7620
▁intag	-7621
▁lapok	-7622
▁luboy	-7623
▁lumut	-7624
▁mabat	-7625
▁panga	-7626
▁pango	-7627
▁panit	-7628
▁panum	-7629
▁pasad	-7630
▁patuk	-7631
▁payad	-7632
▁payow	-7633
▁pigko	-7634
▁pinas	-7635
▁pinir	-7636
▁pinya	-7637
▁ponga	-7638
▁ponod	-7639
▁pontu	-7640
▁pugad	-7641
▁pulan	-7642
▁pungg	-7643
▁puwas	-7644
▁rabai	-7645
▁rahab	-7646
▁rrrrr	-7647
▁saduk	-7648
▁sakoy	-7649
▁salad	-7650
▁salin	-7651
▁saliu	-7652
▁salmo	-7653
▁sapon	-7654
▁saput	-7655
▁sasow	-7656
▁sigar	-7657
▁simba	-7658
▁sinul	-7659
▁sipas	-7660
▁sipod	-7661
▁sogod	-7662
▁sokol	-7663
▁solag	-7664
▁soluk	-7665
▁subal	-7666
▁sugba	-7667
▁sugoy	-7668
▁sulud	-7669
▁taban	-7670
▁tadiu	-7671
▁tagad	-7672
▁tagal	-7673
▁tagbu	-7674
▁takow	-7675
▁tarok	-7676
▁tigom	-7677
▁tigus	-7678
▁tinaw	-7679
▁tinok	-7680
▁tobas	-7681
▁tokod	-7682
▁tokow	-7683
▁tosan	-7684
▁trigu	-7685
▁tuang	-7686
▁tugul	-7687
▁tukow	-7688
▁tulud	-7689
▁tuluy	-7690
▁tutua	-7691
▁ukaba	-7692
▁uling	-7693
▁untud	-7694
▁walas	-7695
▁wolok	-7696
abantoy	-7697
abhiyab	-7698
abolong	-7699
noi	-7700
omno	-7701
andoy	-7702
babat	-7703
darua	-7704
iudas	-7705
masad	-7706
uguni	-7707
▁ikap	-7708
amoton	-7709
andang	-7710
ayamon	-7711
gisian	-7712
ropoon	-7713
▁boros	-7714
▁dalik	-7715
▁damoy	-7716
▁dimas	-7717
▁horam	-7718
▁kobut	-7719
▁kopis	-7720
▁kurul	-7721
▁lukul	-7722
▁luyud	-7723
▁milki	-7724
▁omonu	-7725
▁palis	-7726
▁sikut	-7727
▁totod	-7728
▁tulan	-7729
▁tuloy	-7730
▁ugsob	-7731
abubung	-7732
abungan	-7733
agikagi	-7734
agkolon	-7735
agtonga	-7736
aklupan	-7737
alanang	-7738
alangin	-7739
alobong	-7740
aluuban	-7741
amporon	-7742
anganan	-7743
angayan	-7744
angdang	-7745
angusan	-7746
aragkot	-7747
aranion	-7748
asakiti	-7749
ayowtow	-7750
balawon	-7751
husayoy	-7752
ikposik	-7753
ilangan	-7754
imimuan	-7755
inganon	-7756
ingbing	-7757
inggata	-7758
iniatoy	-7759
insobuk	-7760
inundul	-7761
kosolod	-7762
liburan	-7763
logoban	-7764
mitawon	-7765
nangoni	-7766
ogongan	-7767
ostolis	-7768
owgamow	-7769
pasulat	-7770
ugpulug	-7771
ulabung	-7772
ulangan	-7773
ulubung	-7774
ululung	-7775
ungoron	-7776
ungusan	-7777
unlunan	-7778
uwangan	-7779
▁agboti	-7780
▁aligon	-7781
▁allowa	-7782
▁anamag	-7783
▁arabia	-7784
▁bagbag	-7785
▁bagong	-7786
▁bagtad	-7787
▁bagtok	-7788
▁bagtos	-7789
▁balbal	-7790
▁balila	-7791
▁baling	-7792
▁baliok	-7793
▁balkon	-7794
▁balugu	-7795
▁banhow	-7796
▁bantok	-7797
▁bantow	-7798
▁basiow	-7799
ell	-7800
hani	-7801
botut	-7802
hanig	-7803
indos	-7804
kopal	-7805
tinis	-7806
▁biak	-7807
▁biaw	-7808
▁omis	-7809
▁otob	-7810
▁rupu	-7811
▁trip	-7812
▁ulit	-7813
ayapak	-7814
ikulon	-7815
isokan	-7816
togkad	-7817
▁banga	-7818
▁botak	-7819
▁butut	-7820
▁gusuk	-7821
▁lalow	-7822
▁lusiu	-7823
▁putut	-7824
▁sawog	-7825
▁turuk	-7826
atoluan	-7827
dayanan	-7828
uliguli	-7829
▁apulon	-7830
▁batili	-7831
▁bayaku	-7832
▁bayung	-7833
▁bigtow	-7834
▁binayu	-7835
▁bingow	-7836
▁bitini	-7837
▁bokbok	-7838
▁bonsag	-7839
▁bougan	-7840
▁bubung	-7841
▁bunhit	-7842
▁buntug	-7843
▁bunuli	-7844
▁buslut	-7845
▁busung	-7846
▁dalong	-7847
▁dangow	-7848
▁daruan	-7849
▁dayang	-7850
▁dibabo	-7851
▁diraya	-7852
▁dogila	-7853
▁dolmol	-7854
▁duliak	-7855
▁dungus	-7856
▁elisiu	-7857
▁gilang	-7858
▁gimuat	-7859
▁gisois	-7860
▁gongon	-7861
▁gopang	-7862
▁gotgot	-7863
▁hagsil	-7864
▁hallok	-7865
▁hangos	-7866
▁hantod	-7867
▁hibriu	-7868
▁hidhid	-7869
▁himata	-7870
▁hoanan	-7871
▁hosias	-7872
▁igogot	-7873
▁igsabi	-7874
▁inanad	-7875
▁inpang	-7876
▁insalu	-7877
▁intuon	-7878
▁ipanoy	-7879
▁kabuon	-7880
▁kadkad	-7881
▁kalung	-7882
▁koddol	-7883
▁kombul	-7884
▁kulung	-7885
▁kurung	-7886
▁laging	-7887
▁laglag	-7888
▁lanang	-7889
▁landog	-7890
▁langgi	-7891
▁lantas	-7892
▁lantod	-7893
▁lantok	-7894
▁lapdap	-7895
▁lawang	-7896
▁ligpis	-7897
▁lingow	-7898
▁lisias	-7899
▁itik	-7900
▁must	-7901
aboyon	-7902
anamon	-7903
anaroy	-7904
apatus	-7905
dongul	-7906
timtim	-7907
▁higod	-7908
▁huliu	-7909
▁kopal	-7910
▁korid	-7911
▁libya	-7912
▁butbut	-7913
▁butiti	-7914
▁dugmun	-7915
▁korban	-7916
▁lambag	-7917
▁libita	-7918
▁lisuan	-7919
▁logsad	-7920
▁lokang	-7921
▁lolong	-7922
▁lomoti	-7923
▁lupung	-7924
▁luyung	-7925
▁maboot	-7926
▁malibu	-7927
▁mamalu	-7928
▁mamolu	-7929
▁maraat	-7930
▁matata	-7931
▁matias	-7932
▁matibo	-7933
▁moghoo	-7934
▁momonu	-7935
▁naagow	-7936
▁naaman	-7937
▁nabaad	-7938
▁nabawi	-7939
▁nagisi	-7940
▁nakagi	-7941
▁nakato	-7942
▁namang	-7943
▁nanuli	-7944
▁naparo	-7945
▁napawo	-7946
▁nasool	-7947
▁ngingi	-7948
▁nigbuy	-7949
▁nigdor	-7950
▁nigdug	-7951
▁nigdur	-7952
▁nighow	-7953
▁nigkik	-7954
▁niglap	-7955
▁nigpah	-7956
▁nigpak	-7957
▁nigpos	-7958
▁nigpul	-7959
▁nigtub	-7960
▁noirog	-7961
▁ogbako	-7962
▁ogbawi	-7963
▁ogboka	-7964
▁	-7965
o	-7966
a	-7967
n	-7968
i	-7969
g	-7970
k	-7971
t	-7972
u	-7973
d	-7974
s	-7975
m	-7976
l	-7977
b	-7978
w	-7979
p	-7980
y	-7981
r	-7982
.	-7983
,	-7984
h	-7985
-	-7986
?	-7987
e	-7988
;	-7989
!	-7990
:	-7991
v	-7992
j	-7993
c	-7994
q	-7995
f	-7996
